#version: 0.2
Ġ t
o n
Ġ a
h e
i n
r e
t i
Ġt he
e n
Ġ o
e r
e s
ti on
Ġ p
Ġo f
Ġ c
o r
Ġ s
n d
a l
i t
i s
Ġ d
Ġ in
e d
a n
a t
Ġa nd
en t
a r
Ġ f
a tion
Ġ w
r o
Ġt o
in g
Ġ re
Ġ b
l e
o u
Ġ m
i c
o m
e c
m ent
Ġ l
v e
Ġ e
i l
a s
Ġt h
Ġ n
Ġ C
s i
r a
c e
Ġd e
Ã ©
Ġ h
Ġp ro
Ġf or
Ġc on
r i
o l
s t
Ġ S
u r
Ġ on
q u
Ġb e
t e
l y
Ġth at
t er
s e
om m
Ġ A
t s
i m
u l
o p
u n
T he
i r
Ġa s
Ġ P
re s
Ġ g
ation s
p or
Ġ is
v er
at e
0 0
e t
Ġ (
it h
Ġs u
i d
Ġ 2
a c
Ġ M
Ġw ith
Ġ it
it y
u t
g h
si on
a b
a d
Ġp ar
Ġ en
Ġa c
Ġ 1
c i
f f
Ġ I
o t
por t
Ġb y
e m
Ġa l
ou n
l d
u s
i on
Ġ le
Ġ U
Ġ v
Ġs t
Ġo r
Ġe x
u m
e l
Ġ N
a in
er s
ti c
Ġl a
ou r
â Ģ
Ġre s
ation al
Ġ E
he r
re n
Ġa n
Ġ R
Ġ G
Ġ qu
ve l
en d
Ġw h
es t
g e
u c
es s
ti ve
u d
Ġ im
o w
ĠC omm
Ġa re
is t
i ti
Ġa t
a m
p p
Ġ2 00
Ġa d
Ġ D
u re
a y
an t
Ġ u
o s
ou ld
ar y
an ce
i g
i z
il l
o c
u tion
ĠU n
t h
ter n
ĠS t
p ec
a nd
it ed
ou s
a k
i e
Ġn e
c h
an s
o d
vel op
Ġcon t
Ġs h
Ġn ot
b er
Ġc om
v en
Ġw e
Ġit s
ment s
o re
oun t
m e
or k
t her
g ra
f or
Ġin c
Ġ T
ro u
ro m
Ġ un
t ed
si d
Ġ F
Ġc h
is sion
at ed
Ġm e
Ġa g
i f
l ic
ic h
Ġ r
i re
Ġim p
Ġc omm
o ver
Ġw as
er al
Ġh a
i al
e p
at es
ro p
Ġwh ich
ĠUn ited
Ġf rom
ĠC on
Ġre g
ar d
Ġa pp
i a
tern ational
Ġ B
for m
Ġd es
Ġth is
Ġe t
al l
Ġ Ã
p l
Ġ O
ab le
Ġha ve
a p
Â ł
Ġde velop
Ġal l
le ment
iti es
Ġpro v
or d
Ġ j
i es
Ġd is
s o
en eral
i gh
u st
ĠN ations
Ġ he
i v
Ġ H
te e
u b
Ġre c
tion s
c es
I n
Ġp l
Ġc ount
on s
it tee
Ġh as
Ġs o
' s
Ġthe ir
m in
Ġcom p
is ion
Ġp er
Ġs ec
nd er
Ġ ri
ci al
Ġac c
Ġp re
Ġw ill
ti v
il d
Ġc o
u rop
over n
p er
ĠComm ittee
Ġp ol
Ġl es
um an
Ġ L
en ce
ĠÃ ł
Ġri gh
u e
t y
l ud
Ġs e
ĠS ec
Ġe ff
a ce
Ġ y
res s
b le
p port
re d
g an
c t
ĠI n
Ġp e
Ġ W
gra m
Ġcon c
n e
Ġa r
Ġw ork
Ġu nder
Ġal so
a ge
ĠSt ates
d uc
Ġin ternational
9 9
Ġsu b
ti t
ol ution
Ġo ther
Ġbe en
c il
Ġre port
Ġt ra
ri es
Ã ¨
re t
ĠComm ission
Ġ J
ul t
er v
ic e
ĠC oun
res ent
Ġsh ould
Ġinc lud
ĠCoun cil
Ġqu e
o g
Ġ est
ig n
Ġt r
o se
Ġin t
gan iz
ub lic
Ġcon s
j ec
Ġin d
Ġ âĢ
a g
Ġre qu
er ation
r y
on om
u res
r ic
es sion
ar i
Ġ 3
Ġprov id
Ġd ec
e ren
Ġin form
Ġre l
a tive
Ġ ra
Ġp o
Ġpro c
Ġh ad
m s
Ġo b
Ġw ould
om e
Ġcount ries
ven tion
m b
Ġa b
rou p
overn ment
p h
re e
d i
urop e
Ġp r
Ġas s
p on
ec h
Ġf in
Ġrigh ts
k e
he n
Ġm an
er n
Ġdevelop ment
Ġh uman
ti es
e ar
is h
ol l
ur ity
as e
a u
2 00
ri b
ic al
Ġimp lement
Ġa m
Ġpro gram
or s
on g
Ġwe re
Ġt ak
ĠC h
et ing
Ġres olution
ĠA s
âĢ Ŀ
ab l
Ġ Ã©
re at
pec ial
ĠP ar
om en
ie w
r u
u al
ĠP ro
y st
ti f
Ġch ild
) ,
ĠE urope
em ber
as t
Ġsu pport
ul ar
Ġin v
el l
Ġo ut
s u
ou t
Ġd Ã©
Ġc l
a il
in e
Ġp ers
ĠU N
Ġs ession
Ġre p
ci p
p os
Ġsu ch
il ity
Ġa u
Ġd u
âĢ Ļ
Ġa v
Ġn ational
ĠâĢ ľ
en s
yst em
Ġcon sid
t en
f eren
ĠSec ret
sid ent
) .
o b
h i
at ing
Ġne ed
Ġ -
tic al
Ġor ganiz
Ġthe re
Ġof f
Ġtr ans
Ġt er
Ġcomm un
on t
ac t
Ġinform ation
u nd
qu e
T h
Ġp our
Ġme eting
Ġ 5
Ġ1 99
onom ic
Ġconc ern
Ġn o
s tit
se mb
Ã© s
on d
ad e
m es
Ġ K
em b
gra ph
g al
Ġd i
I t
Ġs ystem
w e
Ġd o
o y
or y
c y
Ġinclud ing
Ġim port
Ġs a
Ġbe t
Ġpar tic
tic le
feren ce
rou gh
semb ly
Ġe m
Ġa ut
Ġp ri
Ġpar a
ĠSt ate
t ain
Ġreg ion
G eneral
ĠCon vention
Ġ 4
Ġf a
Ġcont in
t ec
Ġst r
Ġla w
f t
l l
ĠAs sembly
Ġac tiv
oll ow
Ġw omen
Ġdis c
ac h
Ġs ur
he d
Ġm ore
Ġag ain
Ġad op
Ġin ter
ĠR ep
ĠP re
if ic
Ġc an
Ġs erv
m it
Ġpar t
Ġex p
ĠG eneral
Ġd ra
Ġl i
Ġb as
ech n
Ġc ent
r it
Ġest abl
Ġs p
tiv es
Ġme as
Ġeff ec
o st
ic es
Ġy ear
in t
Ġm a
omm end
Ġpartic ular
Ġm ade
Ġd ans
c tion
ff ic
stit ution
Ġ ec
Ġn ous
r ation
ĠEurope an
c c
is e
ĠSecret ary
an g
ri min
Ġpol ic
Ġf ollow
Ġp as
Ġqu i
Ġs it
Ġimplement ation
Ġco op
a re
we en
Ġint o
g et
Ġc e
i ed
a ir
ur ing
il it
Ġ us
Ġne w
Ġpro pos
Ġpar ti
Ġres pon
Ġan y
Ġchild ren
Ġbet ween
u ation
Ġre f
Ġth rough
Ġ The
Ġm emb
Ġth ose
m an
ur al
ĠG overnment
Ġagain st
Ġcon f
im e
l es
ĠR e
our ces
Ġfin an
Ġin te
Ġproc ess
ĠM r
i ol
Ġr Ã©
o od
Ġrec ommend
Ġun e
Ġwh o
Ġactiv ities
si ble
d e
ĠD e
Ġon e
ĠA f
o ve
di tion
h or
f ore
Ġpro tec
Ġre v
Ġre m
d er
Ġen s
Ġw he
i en
or ld
Ġm ust
Ġg roup
Ġ ro
Ġreg ard
Ġis su
Ġsh all
al s
Ġpro m
Ġm ar
Ġo ver
Ġeff or
Ġm on
id e
Ġthe se
oc u
v ir
am e
an ge
Ġpe op
Ġw ell
Ġthe y
Ġass ist
v ed
ate g
Ġapp ro
p ar
Ġrep resent
ver y
vir on
Ġb ut
Ġprov ision
Ġcount ry
Ġle vel
Ġp ublic
ĠIn ternational
Ġ 6
Ġc ap
Ġdec ision
Ġt echn
Ġrequ ire
Ġp os
igh t
x t
Ġpe ace
Ġm ay
Ġpara graph
Ġad d
Ġ V
ren t
Ġn on
Ġmeas ures
ur ther
v ent
g o
o te
Ġth an
Ġprogram me
ĠD ec
Ġinc re
al th
Ġso cial
le ar
ac k
Ġacc ord
Ġt w
ir st
a i
Ġres pec
Ġparti cip
hi p
Ġdra ft
W e
Ġn um
v ing
u te
ter s
ra c
en ti
Ġm at
Ġf ul
ĠPre sident
ur s
i an
Ġthe m
le g
Ġde m
Ġqu es
t ing
Ġaut hor
ĠCon ference
Ġ ent
un e
Ġt ime
i ve
ĠRep ublic
a ff
Ġcoop eration
ce p
is m
v ant
ak e
Ġm in
it s
ic ation
ard s
Ġfor m
Ġv iol
ul ation
viron ment
Ġo ur
ĠDe velop
ol og
Ġu se
it e
l and
si tion
Ġm ain
Ġu p
ed uc
Ġeffor ts
ay s
Ġ1 9
p r
Ġ k
Ġd ocu
Ġcont rib
igh ts
ĠAf ric
jec t
Ġsec urity
Ġor der
ĠSec urity
Ġorganiz ations
Ġo per
i od
Th is
an ts
g es
end a
Ġd ire
w ork
Ġe qu
Ġf und
Ġo p
r uc
r al
Ġp resent
ti ce
i ous
Ġh is
en e
ĠG roup
Ġon ly
Ġre le
f ul
iz ed
age ment
si ve
er g
urop Ã©
on e
Ġimport ant
por ts
Ġmemb ers
al ly
it Ã©
Ġpeop le
Ġens ure
Ġf ac
Ġec onomic
i tical
Ġres ources
Ġin stitution
ar m
a ti
l i
ĠR ights
Ġnum ber
or t
Ġadd ress
e ver
Ġ educ
Ġs ome
t re
Ġrigh t
a tives
ĠA d
Ġg u
Ġe uropÃ©
ĠDevelop ment
Ġs ign
Ġs et
Ġpers on
Ġar ticle
et y
in ation
si b
Ġper iod
Ġprovid e
u p
ver s
al ity
k s
r Ã©
Ġserv ices
iz ation
Ġissu es
Ġsit uation
is hed
Ġin st
c ed
iv il
Ġtak e
Ġe le
l ob
in ing
Ġf urther
ar t
l u
ĠM in
U n
Ġex per
Ġwith in
Ġtw o
m ber
pl oy
Ġ 7
Ġt e
Ġpr in
Ġb ec
Ġs er
Ġc ar
Ġregion al
i ent
i le
Ġcomm it
lob al
Ġfinan cial
Ġs pecial
Ġassist ance
g is
as ed
Ġprotec tion
en cy
Ġpro duc
ari at
e red
Ġst ate
ud get
Ġp ur
Ġ200 4
Ġc ould
R e
ab ility
l ed
Ġpolic y
ĠM ember
ĠeuropÃ© en
Ġ if
qu es
Ġv iew
ne x
Ġhe alth
Ġs pec
Ġpl an
i x
a v
ren g
Ġbe ing
h ie
Ġimp ro
Ġin iti
Ġadop ted
Ġrev iew
ĠH uman
re ed
Ġprogram mes
min ist
ti l
st s
Ġ es
Ġeffec tive
st an
Ġac hie
Ġc ur
a ire
as es
ĠUn ion
Ġc our
m ed
Ġab out
v al
Ġde f
Ã¨ re
Ġle gal
Ġp rac
Ġdisc us
Ã ª
Ġ200 0
as s
Ġrequ est
i um
Ġprovid ed
Ġ1 0
Ã© e
Ġfollow ing
Ġen c
Ġyear s
Ġbe l
Ġa ff
ot h
k ing
Ġag ree
Ġestabl ish
Ġen d
ĠI s
Ġ 9
u ild
ĠO r
A s
am p
ow ever
Ġad dition
t hen
Ġpol itical
Ġare as
ff ice
n ing
ar ch
reng then
Ġrespec t
t or
Ġf irst
C E
Ġcap ac
Ġen vironment
gis l
in ce
Ġrele vant
Ġeduc ation
Ġwhe re
Ġstr ateg
u es
u x
Ġj e
Ġques tion
ol d
Ġ200 5
1 0
Ġc er
Ġit em
ro l
Ġtak en
ec ess
l ar
Ġdevelop ing
en tif
al e
Ġac tion
Ġpar ty
g ress
ou ra
o v
in es
Ġ il
gram me
Ġd uring
Ġproc ed
c om
Ġs ou
Ġ 8
ĠE x
Ġhe ld
ing s
Ġf ra
a ment
rop ri
Ġpos sible
e w
oc ra
Ġob jec
v is
Ġpl us
Ġso ci
ĠC o
Ġacc ount
Ġc ivil
ic ial
Ġat t
Ġde leg
au se
ĠO ffice
n ers
ĠA r
r or
Ġs c
ĠS pecial
Ġdi ff
Ġex t
Ġl oc
n ow
et te
Ġst rengthen
Ġsub mit
ĠS o
se l
Ġpri or
Ġ2 0
il y
l ig
Ġn ecess
Ġaccord ance
Ġag enda
n er
Ġh igh
ten tion
Ġli ke
Ġdocu ment
Ġm et
ĠW ork
ill ion
r is
Ġc ri
Ġcont ain
Ġm ake
d u
Ġde v
o int
Ġb udget
Ġapp ropri
Ġpar ties
ent s
ĠÃ© t
Ġcommun ity
c tions
Ġf act
Ġd at
a w
us si
Ġcontin ue
ĠN o
Ġpro ble
Ġg eneral
Ġpers ons
Ġw hen
is s
Ġre ce
o k
Ġcur rent
it or
Ġm ost
ĠE n
Ġst aff
Ġst and
Ġm od
M r
Ġman agement
i b
me work
Ġy ou
Ġa f
por te
ti m
Ġ Y
ĠA g
ĠOr ganiz
ĠF or
ro duc
A d
ĠE c
Ġb oth
Ã© c
Ġac t
Ġ id
Ġapp lic
ĠL e
e ment
Ġg lobal
ou nd
Ġc ase
ak ing
Ġacc ess
Ġam end
Ġinv ol
Ġco ord
Ġam ong
in d
y s
rou nd
a red
il ities
Ġinstitution s
Ġconf lic
Ġw orld
Ġs ame
Ġconsid er
Ġcons ult
A t
a it
m p
Ġav ail
end er
Ġ200 7
c ing
Ġcapac ity
Ġ1 5
) ;
Ġc or
Ġtra ining
Ġind ic
Ġro le
Ġ1 2
Ġpro gress
Ġ200 1
Ġc all
at er
ĠSo cial
j or
g in
Ġnecess ary
Ġb od
ar ge
Ġ ur
i er
us tice
Ġpl ace
uild ing
U N
d ay
rimin al
og n
Ġcontin u
Ġestabl ished
u g
Ġle gisl
i p
Ġass ess
overnment al
Ġprovision s
e x
Ġman y
m er
Ġinte g
Ġ very
rimin ation
l ia
enti al
Ġp op
in ed
Ġan n
Ġappropri ate
Ġcer tain
Ġo cc
sion s
ul es
Ġre ports
at s
l im
ult ural
ĠDec ember
Ġbas is
ĠPro gramme
Ġf am
A n
Ġma jor
ari an
in a
Ġrem ain
di tions
s ue
ir d
ro w
sib ility
Ġin f
st ain
y p
Ġde b
ie ld
i tion
uc lear
Ġ $
t oc
Ġd ist
Ġis sue
ag es
Ġl ong
Ġrecommend ations
Ġm en
ĠWork ing
ci es
un ity
cep t
ĠPar ties
Ġv ari
Ġdat a
Ġex ist
reat y
Ġbe fore
lia ment
p tion
Ã¨ s
Ġwork ing
Ġau x
el le
Ġob lig
Ġinte re
g ion
Ġd on
Ġle ad
Ġre st
Ġexp ress
pl es
toc ol
is ter
ĠP e
ĠOrganiz ation
a ren
Ġg o
s ec
Ġful l
u le
er man
Ġcomp le
Ġtechn ical
air s
Ġg reat
t ure
ech an
ĠI nd
Ġwith out
Ġsu stain
Ġex pl
Ġf ore
ĠW orld
ou gh
r an
t al
Ġm and
iv id
ĠEc onomic
Ġfra mework
I D
ission s
ke ep
Ġo w
ĠC our
le c
p o
u ly
ĠAfric a
Ġj ud
Ġc ases
Ġc ette
Ã© es
iz e
Ġm ed
i que
Ġse e
Ġrel ated
Ġgroup s
Ġavail able
Ġdiff eren
Ġg ood
Ġ200 6
F or
Ġf ut
Ġter ror
ep end
Ġs ince
o ol
Ġc ol
Ġtechn olog
porte ur
ĠA n
Ġem ploy
Ġm illion
Ġl im
Ġv al
Ġconcern ed
Ġd om
Ġcontrib ution
Ġw el
si e
o ard
ĠP al
Ġsec tor
ĠJ une
g overnmental
Ġare a
Ġconsid eration
Ġviol ence
ra b
Ġcon ditions
i ven
O n
Ġk now
Ġcom pl
he s
Ġs te
The re
Ġ1 1
Ġenc oura
Ġtra de
J e
Ġn ow
it arian
v es
so ci
Ġm echan
Ġ1 3
Ġa w
ri e
at ure
Ġth ree
ch ool
Ġc lear
Ġ200 8
Ġloc al
Ġc re
lar ation
over ty
Ġprin cip
Ġparticular ly
ro s
Ġad minist
Ġspec ific
Ġcon te
Ġus ed
Ġf oc
b an
Ġsa id
Ġpart ners
Ġimpro ve
Ġpolic ies
Ġrec ogn
ĠC ent
ĠD ep
at ory
Ġid entif
end ed
is ed
ĠeuropÃ©en ne
i vers
Ġsec ond
Ġneed s
Ġinclud e
Ġfut ure
c ome
ĠM on
Ġg ra
uc h
Ġimport ance
Ġs ont
Ġm y
Ġb ien
a im
Ġ200 3
Ġpri v
Ġre duc
ene f
ir c
Ġp h
ce ed
Ġob s
Ġe ach
ĠCour t
Ġst ud
Ġa im
Ġwh at
ter min
1 99
Ġo pport
âĢ ¦
Ġpropos ed
Ġg ender
Ġmon itor
Ġaf ter
ĠH e
Ġbe h
Ġbas ed
re ad
Ġcom b
Ġv is
Ġme ans
overn ments
Ġbec ause
Ġpol iti
en ces
Ġra p
ivid ual
en cies
ow er
n el
Ġthere fore
ĠP ol
Ġr is
Ġmeeting s
Ġconflic t
Ġsu pp
Ġres ult
at us
ou th
ĠPal est
Ġs ti
Ġparticip ation
Ġin s
al f
Ġcons tit
Ġrequire ments
1 2
st and
Ġf ield
I I
Ġad v
Ġb enef
all en
Ġinst ru
n ium
Ġcon st
Ġconsid ered
l p
Ġsp e
00 0
Ġsa f
Ġ ve
ep te
ke y
ĠAfric an
Ġsoci ety
ra el
ĠJ uly
Ġm ul
Ġincre ase
k ed
tern al
it er
Ġind ividual
Ġ1 4
Ġ1 8
Ġcont rol
ĠN ational
ĠA ct
ti s
Ġauthor ities
it al
ru g
at eral
Ġs im
ati s
Ġto w
Ġhe lp
Ġg iven
Ġw ay
Ġrece iv
au x
ĠT h
Ġpo int
Ġsubmit ted
or g
Ġo u
1 5
ent ly
is c
ot ing
Ġres ul
o in
epte mber
ist an
Ġgu id
mer ic
ĠPro tocol
Ġn uclear
Ġachie ve
ī t
ra tive
Ġp overty
jec ts
2 0
g ed
H owever
Ġfoc us
se qu
ĠB oard
Ġall ow
Ġno te
ot her
Ġpop ulation
ul ations
ec u
Ġdeleg ation
le ct
ĠPar liament
n ed
Ġrequire d
Ġbel ie
Ġpr Ã©
Ġan nex
ĠF und
an k
Ġu pon
o ir
Ġvari ous
âĢ ľ
Ġav ec
Ġconcern ing
ĠA ff
Ġn or
u se
ar an
ĠCh air
S t
Ġprom ote
ĠG u
Ġv ic
Ġsub stan
Ġ3 0
Ġoff icial
Ġcon duc
Ġs ix
u ge
keep ing
om b
Ġat tention
ap ons
op e
Ġfor ce
a ut
ecu tive
r ant
Ġs chool
erg y
Ġch allen
at ors
o tion
ate ly
Ġpro ject
Ġab ove
ruc tion
o ber
ab or
Ġsec ret
Ġunder t
Ġfac ilit
ove mber
ĠAff airs
Ġen h
Ġc are
tic s
Ġaff ec
Ġf l
Ġhuman itarian
I l
Ġ200 2
Ġdevelop ed
E n
ĠL aw
Ġp en
ilit ary
ĠIs rael
Ġs m
Ġbod ies
is on
r ing
od e
Ġtrans port
Ġre form
re hen
A l
Ġv ol
Ġrepresent atives
ĠS eptember
Ġr ules
amp le
Ġnot ed
ĠE U
n ess
Ġwhe ther
ult ure
ci ples
Ġf un
ĠM ay
L e
Ġlevel s
Ġch ange
ai res
ist ry
Ġf our
Ġcl aim
Ġl ist
iti z
it ation
w w
ti g
Ġappro ach
Ġconte xt
is es
Ġen g
Ġwh ile
m ar
Ġdo es
Ġlegisl ation
p s
Ġg row
Ġdi ffic
Ġdem and
Ġrepresent ative
ct ober
ĠP rÃ©
ĠSecret ariat
Ġde p
T A
ĠT ra
art ment
Ġpre p
Ad d
Ġp ays
an u
Ã ´
go ti
âĢĿ .
ĠA meric
se e
Ġsign ific
Ġ [
Un ion
ĠâĢ Ķ
os ed
e b
Ġpro f
Ġto ut
Ġ199 9
âĢ¦ âĢ¦
ros s
Ġ1 6
t he
Ġmar k
rehen sive
Ġimp act
D P
ocra tic
Ġpre vent
Ġpre par
Ġag reed
Ġ ess
Ġan al
N ous
ĠS erv
Ġrequest ed
Ġpo si
Ġc irc
Ġma is
C O
er c
ĠÃ ª
a is
Ġcontain ed
Ġ1 7
reed om
Ã© t
Ġsub ject
sie ur
Ġtow ards
Ġter rit
pr il
1 9
Ġag encies
ĠA rab
Ġsecret ariat
n es
ĠPrÃ© sident
A r
Ġre as
R ec
Ġv ote
r ated
o is
Ġdisc rimination
Ġaddition al
ĠN ovember
Ġagree ment
a pp
Ġstr uc
Ġc es
l ess
ĠÃ īt
Ġsustain able
Ġ her
Ġp ay
m ary
Ġop en
ĠP l
Ġdire ct
pecial ly
Ġre t
ĠA l
Ġe ar
b uilding
Ġse x
our ce
Ġdifferen t
Ġc oll
ĠCh ild
Ġen ti
ĠPalest in
Ġpo sition
ol id
Ġne goti
ĠM arch
at or
og ue
Ġp res
p ose
ra ct
en ous
in ess
ĠO ctober
s h
ĠÃª tre
Ġpropos al
i Ã¨re
h ic
1 1
Ġpro per
f er
v ious
a z
ĠDep artment
Ġdec id
ig enous
Ġresolution s
ac ed
Ġj ustice
Ġpro jects
Ġt re
Ġrespon sibility
ĠN ew
as ing
H e
Ġstate ment
Ġrel ating
Ġdes ign
Ã ł
o i
h od
ow n
Ġresul ts
Ġenvironment al
Ġm ember
Ġe very
Ġex ample
Ġmonitor ing
cc ess
c he
is ation
r on
Ġpriv ate
Ġex am
pec ts
Ġd ro
Ġst atus
Ġproble ms
Ġon t
Ġes pecially
y ing
Ġrel ations
Ġinv es
ĠRep resent
I V
er ial
ial ogue
Ã© n
Ġsystem s
e qu
ĠR es
Ġre al
Ġent re
Ġec onom
if e
Ġintere st
Ġsti ll
Ġcomm on
ĠG overnments
ĠA pril
anu ary
reat ment
ĠT r
es tic
Ġc riminal
om p
Ġter ms
ab our
ĠPar lement
a tic
ĠF ed
Ġl ast
ĠA ction
Ġl iv
ĠCommission er
Ġla nd
is ts
Ġinv est
ĠW omen
ĠÃ©t Ã©
ĠDec laration
Ġg en
Ã© g
Ġde termin
Ġra pport
Ġsignific ant
Ġen tit
stand ing
our s
m en
Ġstand ards
id ence
Ġ "
u el
tic es
Ġm ilitary
v a
ĠM ission
Ġoper ations
Ġbeh alf
ap porteur
ph as
Ġe ven
ĠH igh
Ġproced ures
Ġh ow
Ġaddress ed
Ġref er
Ġper form
Ġo ri
read y
ri al
âĢĿ ,
Ġtra ffic
R A
Ġc itiz
a h
S ec
Ġeff ic
Ġestablish ment
Ġto tal
arm ament
Ġf reedom
3 0
Ġde al
Ġexist ing
ire ct
Ġfa it
Ġreceiv ed
Ġcar ri
Ġ200 9
Ġal ready
Ġcoord ination
Ġl arge
Ġsm all
Ġprin ciples
lu sion
Ã¨ me
Ġcon n
Ġful ly
du ce
L a
ĠÃīt ats
Ġorganiz ation
Ġmet hod
ĠMin ister
i ance
gion al
Ġproced ure
Ġpol ice
Ġcomp rehensive
Ġfam ily
P ar
er ia
vis ory
a us
Ġ ver
Ġser ious
C on
Ġpo st
ĠMin istry
Ġow n
Ġind epend
ĠRe g
Ġmand ate
Ġmark et
Ġre ad
for ce
Ġtak ing
ro ad
Ġmat erial
Ġint roduc
W ith
d ing
ĠJ anuary
Ġind ust
b e
Ġpur su
ID S
Ġd ialogue
ra q
Ġdire c
el f
Ġe val
Ġserv ice
ur n
is ms
at h
ir m
Ġinclud ed
tif ication
Ġexpress ed
or ies
Ġpoliti que
iz ing
Ġch ar
Ġdecision s
Ġsu ccess
form ation
Ġe v
Ġadop tion
Ġwe apons
Ġc oun
in k
Ġte xt
Ġw ar
Ġv ous
Ġinves tig
ĠR ussi
Ġex pec
Ġdocu ments
d ra
d ic
C C
Ġpro ceed
us iness
E S
Ġdiscus sion
Ġapplic ation
ord s
Ġ Z
se il
ĠRepresent ative
ou se
in ts
Ġvic ti
Ġentit led
Ġt yp
Ġas soci
C h
Ġmon th
Ġoblig ations
ĠdÃ© c
ĠS u
Ġincre ased
ĠPalestin ian
Ġregard ing
Ġac tions
Ġl o
ĠN or
ĠPar ty
. ,
ang u
Ġele ct
ĠEx ecutive
Ġcontinu ed
Ġn et
Ġques tions
es ts
er ing
Ġr ule
Ġe vent
ĠR apporteur
Ġe l
erman ent
Ġreg ular
Ġl ess
Ġw ish
Ġdom estic
Ġs olution
Ġch ang
v iew
Ġ2 1
Ġh owever
ĠI raq
ĠS p
Ġrec ent
Ãª me
ĠS outh
Ġam ount
Ġ2 5
Ġ ill
e e
Ġprac tices
w ard
Ġconsult ations
Ġle ast
Ġdecid ed
u i
Ġth ird
Ġg overnment
Ġg overn
ĠF in
Ġen ergy
ĠÃ© c
ĠT reaty
n ot
Ġs ent
s p
Ġstrateg y
Ġre se
Ġl ack
Ġar med
Ġt em
c ent
Ġcomm e
ĠCon seil
T o
Ġl ife
Ġve hic
ĠM e
C omm
Ġj ust
Ġ key
Ġrec on
Ġd id
Ġh and
Ġw ater
eb ru
ebru ary
Ġmemb res
Ġj oint
Ġpre vious
Ġprovid es
Ġocc up
A C
Ġmechan isms
The se
Ġproble m
Ġf if
Ġde t
Ġincre asing
ĠP ermanent
ut ed
Ġobs erv
rib un
Ġiniti atives
Ġcitiz ens
Ġcommit ment
ament al
im um
ĠPe ace
ual ly
Ġc over
an ces
Ġassess ment
Ġdeb ate
Ġde li
Ġf ree
Ġprovid ing
ĠD em
Ġle t
_ _
ĠÃ© gal
Ġd ue
Ġproduc tion
Ġar r
Ġmain tain
Ġa ge
Ġconc lud
1 3
Ġem phas
Ġfund s
200 4
Ġsu m
e al
Ġhe ad
Ġg ive
Ġref uge
Th at
g ent
Ġanal ys
Ġsu g
Ġse ver
ar s
Ġpropos als
is ing
el ines
Ġterror ism
Ġmat ter
id es
Ġreport ing
Ġex erc
if ied
Ġcontribution s
d om
I S
Ġvicti ms
Ġinstru ments
Ġf ound
ut es
Ar ticle
Ġmat ters
Ġco sts
Ġdiscus s
Ġth reat
Ġag ric
ĠH IV
Ã©s ent
Ġrespon se
Ġ2 2
ic ations
Ġrel ig
iv ision
Ġfin al
Ġwel com
in ion
Ġem erg
Ġperson nel
Ġf e
i i
C N
ĠÃ©gal ement
Ġac tive
Ġcommun ication
Ġpas s
Ġemploy ment
ĠAr ticle
at her
Ġp ut
Ġl angu
ĠS w
ĠT ur
Ġpre vention
Ġad equ
I f
Ġsever al
Ġd est
Ġ3 1
Ġ2 3
) :
Ġtechnolog y
Ġs en
C R
Ġes tim
Ġprep ared
Ġstrengthen ing
6 3
200 1
Ġc ultural
v ail
ĠF ebruary
Ġp ot
Ġcl ose
ical ly
Ġprac tice
Ġprior ity
L es
si a
ĠCon stitution
am b
Ġcan not
un ities
Ġcoord in
an el
Ġgu aran
er b
P ro
ac c
Ġt est
Ġstr ong
ĠI I
Ġm es
200 0
Ġris k
The y
O N
Ġde l
c rib
land s
200 5
Ġprom otion
a x
E P
m ission
Ġreport ed
Ġfa v
Ġind igenous
ter m
Ġprincip le
Ã¨ g
i ble
ug ust
Ġne xt
Ġpeace keeping
ul ated
Ġst atis
ĠAd minist
Ġa ble
sid e
h old
Ġc he
i ation
Ġinvol ved
Ġbet ter
Ġrespon sible
ĠR o
ĠD irect
si f
ĠCh ar
Ġc ris
ne ment
Ġchallen ges
Ġ2 4
Ġobjec tives
Ġadminist rative
ag ed
Ġv ou
Ġn ou
Ġpro b
led ge
Ġs he
Ġn ature
Ġcon ven
Ġpl ay
hi le
Ġ19 8
Ġor gan
Ġb usiness
Ġl ight
l s
th ough
Ġori gin
sel f
2 5
ie f
ri me
get her
Ġto gether
res sion
ic i
hi b
end ing
Ġa ussi
Un ited
is te
Ġas pects
et h
an cing
l er
Ġab s
g u
v ision
Ġc red
Ġex c
Ġrese arch
Ġc aus
1 4
6 0
at ural
Ġv ot
Ġpartners hip
ord ing
Ġagree ments
ĠChair man
Ġf ood
b ased
ĠIn ter
an ia
D e
Ġconn ec
Ġm ight
ĠAg ree
Ġp a
gh t
Ġs i
Ġtrans fer
Ġqu ality
Ġb road
Ġh arm
e ti
Ġt reatment
Ġac ts
ab ilit
Ġarr ange
5 9
CE F
ffic ient
Ġcarri ed
Ġgrow th
Ġbelie ve
ĠM an
ac tion
Ġfore ign
Ġf ive
abl es
Ġr Ã©s
ill en
Ġapp l
A g
lec ted
Ġfa ire
ĠAmeric a
Ġcl im
Ġb ack
Ġ199 8
ĠDirect or
el a
Ġneed ed
Ġop inion
ĠUN I
Ġgreat er
Ġcons ist
ven ant
Ġappro ved
illen nium
Ġcour se
ra ft
tic les
ĠE ast
ak en
Ġess ential
r ast
o graph
Ġdet ail
le ction
Ġh old
Ġexpl o
ort ure
Ġm ove
Ġmen tion
ene va
Ġmin or
Ġapp ly
Ġh ig
ĠS ub
ĠK ing
Ġissu ed
Ġco st
ra it
ĠC ode
D ec
Ġm uch
a f
as k
Ġfor ces
Ġsec tion
Ġto day
ĠD is
A IDS
c o
G O
ĠPl an
Ġf ar
Ġcon v
Ġnot re
ific ation
ch ange
Ġeffec t
i or
E urope
ĠT er
Ġcri me
Ġbec ome
ell es
Ġm ission
ren ce
ĠCon t
r ate
Ġan other
he re
1 7
ad a
Ġs an
c er
Ġdist rib
Ġb est
Ġthe n
Ġreduc tion
ĠA ugust
Ġb ring
ven ess
i ans
ĠEn vironment
Ġpeop les
u ations
Ġfund amental
Ġopport unity
Ġfin d
Ġbas ic
Ġd ate
Ġequ ality
g n
Ġfund ing
ribun al
ac y
Ġpur pose
Ġac cept
oun g
Ġsaf ety
Ġfor ward
Ġd ated
Ġme et
Ġ2 7
Ġg round
Ġcommit ted
Ġt reaty
Ġ2 8
n a
Ġs on
ĠB el
ĠCo venant
i ence
ĠAgree ment
Ġsex ual
ĠServ ice
ĠF ore
r ance
po sition
ar ing
Ġtraffic king
Ġset t
1 8
Ġ Q
Ġstrateg ies
el s
ĠM al
Ġre n
Ġbel ow
Ġviol ations
Ġtrans p
ig ration
Ġposi tive
on es
l am
Ġd rug
p ro
ad or
Ġaccord ing
Ġp ress
ĠKing dom
ip ment
ac hed
Ġ2 6
f in
Ġre ference
Ġdra w
ĠS um
Ġfor ms
lim in
sh op
2 9
med i
Ġav ons
ens us
Ġstate ments
t ors
I C
Ġr ural
Ġlead ers
ĠM illennium
ĠTr ans
Ġle ur
all ing
Ġplan ning
Ġc amp
Ġd one
Ġcompl ain
Ġdo it
Ġcall ed
Ġprom oting
Ġs ci
Ġaim ed
Ġexper ts
t o
a ve
Ġe th
aren ess
p le
ĠRe port
Ġp ast
re ci
ers on
ĠC riminal
Ġlaw s
ĠRussi an
ĠHe ad
Ġf ail
Ġto us
Ġauthor ity
rast ruc
tec tion
til ateral
g est
Ġann ual
ĠMe eting
l o
Ġsh ow
Ġb al
Ġcomm er
Ġa id
Ġn atural
i ques
Ġprovision al
Ġrec ord
ĠDem ocratic
Ġadequ ate
Ġr ate
200 7
Ġfam il
Ġcommun ities
Ġc as
Ġto ok
Ġint en
Ġimplement ing
Ġim m
ti veness
Ġenh ance
lement ation
ploy ment
5 5
ĠA ust
le vel
ou v
Ġdis armament
a graph
ar ters
F urther
E x
Ġp le
Ġadop t
Ġa ir
Ġcomm ission
Ġrecommend ed
Ġst ress
Ġs em
Ġha ving
Ġcour t
rie f
force ment
ĠMon sieur
o f
Ġl abour
g er
it her
Ã© d
Ġfun ction
Ġar ms
ĠFor um
Ġpursu ant
Ġpl ans
Ġnet work
Ġrequ ests
Ġpo ints
Ġinvest ment
Ġequ al
ĠAs s
Ġcoll abor
u is
ob il
c ont
ĠFed eration
ĠT o
Ġtr Ã¨s
Ġv o
ĠC an
gh an
Ġste ps
Ġcurrent ly
Ġg ir
Ġsp ace
Ġspe ak
Ġfacilit ate
Ġmeas ure
un t
E C
Ġwork ers
Ġreas on
Ġtr an
Ġsupport ed
Ġexpec ted
Ġs ay
os s
ut y
ĠAd visory
te es
Ġcontrib ute
Ġ er
g ing
Ġstud y
r ont
emb ers
Ġnegoti ations
Ġanalys is
ther n
ĠCent ral
Ġg rant
Ġsu ff
Ġconcern s
Ġaw areness
oc k
Ġapp reci
Ġy oung
I N
Ġundert aken
ĠCent re
it Ã©s
2 3
Ġh ope
Ġknow ledge
Ġorganiz ed
op eration
W hile
Ġth us
ĠJ ustice
Ġv ul
c on
ĠB ank
ĠChar ter
stan ces
re l
Ġm Ãªme
qu arters
i res
Ġaffec ted
Ġinform al
an ced
Ġcont ract
Ġs ep
Ġhe re
ĠD ivision
lim ination
Ġoff ic
ĠComm unity
Ġrefer red
il ar
n ic
Ġcomp eti
Ġcris is
Ġsh ort
1 6
dition al
Ġproper ty
Ġc ateg
Ġguid elines
Ġcomp et
Ġiniti ative
Ġpresent ed
sel ves
Ġopport unities
Ġimplement ed
ĠPe op
l Ã©
Ġoper ational
Ġm aking
Ġequ ipment
or por
Ġre in
Ġrespec tive
Ġfinan cing
Ġpot ential
Ġwho le
olog y
Ġof ten
ĠSum mit
A cc
Ġ2 9
ord er
ĠR ec
Ġinform ed
Ġdeleg ations
Ġcomb at
Ġy et
ĠUN DP
Ġens uring
ab ilities
Ġtra vail
P A
Ġear ly
Ġother s
isc rimination
Ġw rit
Ġlim ited
and a
Ġobjec tive
ĠCh ina
Ġliv ing
w ay
Ġinf rastruc
Ġent er
Ã¨ res
l ine
stit ute
Ġbien nium
Ġvul ner
il ateral
Ġp ower
Ġregion s
ĠdÃ© velop
ĠTra de
ab ly
Ġn ame
D C
Ġclim ate
Ġsaf e
Ġcon sequ
Ġmain ten
Ġpe ut
Ġunder standing
Ġprof ession
Ġt ar
Ġm issions
duc ation
Ġli ber
ĠRo om
ĠG eneva
An nex
ap ter
Ġs elf
Ġperform ance
ĠdÃ© b
Ġeval uation
E N
Ġcirc um
p ons
Ġmul ti
Ġindepend ent
Ġs y
Ġprotec t
Ġy our
Ġob tain
ap an
Ġf em
Ġcar ry
Ġdiffic ult
Ġarrange ments
ĠT ribunal
m et
feren ces
Ġtran sition
Ġsep ar
Ġstrateg ic
Ġachie ved
ur is
as ter
ion s
Ġp ub
Ġsa tis
Ġh im
ĠG erman
Ġpre m
Ġcent ral
Ġsatis f
A ll
Ġres erv
Ġre pl
Ġqu al
5 0
Ġnot es
b s
ust om
Ġt en
Ġdis pl
Ġst ated
er ous
Ġbe gin
Ġintere sts
Ġall oc
Ġoff ice
Ġc rit
te g
Ġl ine
M on
ĠN et
Ġcons um
sib ilities
Ġparticip ate
par t
Ġstruc ture
Ġgra nd
Ġconnec tion
on st
6 2
Ġexper ience
Ġt im
F in
Ġex change
if th
Ġmonth s
Ġgo als
Ġrecommend ation
go ing
ĠL i
Ġdev ons
ĠM ar
Ġan ti
Ġar ticles
Ġconduc t
s pec
ĠAf ghan
ĠÃ©c onom
Ġrest ric
P re
ĠI mp
h a
O P
Ġgood s
Ġfac ilities
Ġin ternal
j et
Ġit self
Ġinteg ration
Ġdirec tive
Ġdro its
ĠY ork
ĠC ol
ve re
Ġfif ty
Ġcomp an
Ġreg ulations
al es
A T
Ġinc ome
ain e
Ġgir ls
Ġf ew
Ġ z
b y
un ish
j our
Ġ5 0
Ġman ner
Ġwork shop
Ġproceed ings
Ġb rief
ĠHe alth
Ġeconom y
Ġrecommend s
Ġmul tilateral
z e
Ġprob l
ent h
Ġparagraph s
Ġpri mary
ivers ity
l ing
Acc ording
E CE
2 4
Ġal leg
Ġim medi
Ġamend ments
ĠCon go
Ġinstitution al
Ġchang es
ĠM s
Ã §
ĠA ll
ul ate
Ġexper t
Ġj u
Ġmechan ism
g ment
Ġappro val
Ġprepar ation
Ġl ow
Ġal tern
ap er
ĠChild ren
Ġform er
Ġt ro
ĠS ud
tif ied
Ġinv ited
pos es
end it
Ġd ou
id ent
Ġinteg rated
r ateg
Ġdef in
ol es
Ġval ue
Ġpr ison
re g
ĠT echn
Ġu til
Ġde ux
ent y
Ġdiscus sions
Ġbod y
Ġas se
Ġbenef it
ivers al
Ġcommit ments
Ġn os
re r
a ties
Ġsit uations
Ġs ources
ron ic
ĠUN C
Ġcompl iance
p re
Ġinvol ve
Ġover all
te m
Ġcri mes
Ġful f
Ġ199 7
ĠA b
W P
ĠA sia
cep tion
Ġb uilding
Ġeffec ts
Re port
Ġmar ch
Ġt ax
Âł Âł
Ġcircum stances
Ġpur poses
Ġpro hib
ak es
Ġm o
Ġprocess es
Ġview s
Ġcomple te
m al
Ġt orture
Ġrefuge es
Ġremain s
Ġcomp on
an a
crib ed
Ã© rie
Ġterrit ory
Ġw ant
ĠP anel
Ġfamil ies
ĠN GO
Ġbenef its
rel ated
Ġencoura ge
ĠdÃ©velop p
Ġd own
t es
Ġde ath
Ġc ru
ien cy
end s
S ee
oun ts
in s
Ġcoop er
Ġout come
Ġschool s
i o
ĠCo ord
our th
Ġeffor t
Ġexerc ise
Ġcont re
pr ises
Ġpr Ã©sent
Ã© ri
ĠPro tection
ĠIn formation
oy ens
es p
Ġj us
Ġre duce
p ut
Ã© r
Ġpo sts
y l
Ġb re
Ġun til
Ġindividual s
Ġf ond
Ġen j
N S
Ġen able
Ġrecogn ized
Ġoff ices
ĠM ad
ĠO ffic
ĠTer rit
Ġres pons
l av
Ġdem onst
entif ic
omb re
Ġto o
Ġsur ve
if eration
unt ary
r ants
Ġjud icial
ĠR om
b it
Ġinfrastruc ture
Ġstand ard
Ġproduc ts
Ġadminist ration
Ġus ing
Ġb l
ti que
Ġinc orpor
Ġcoun ter
il le
âĢ¦âĢ¦ âĢ¦âĢ¦
A f
Ġfun ctions
âĢ ¢
Ġcent res
Ġpro sec
os ov
rough t
ĠF rance
Ġinstru ment
y ear
Ġidentif ied
it able
ud e
200 3
j ust
re am
Ġtyp e
Ã©c ess
Ġret urn
Ġn Ã©cess
Ġc ulture
Ġsubstan tive
Ġ- -
Ġa ud
Ġwe e
Ġcont r
Ġal ia
Ġle ar
ac hes
Ġt able
. âĢĿ
O ther
le gal
Ġindic ated
Ġvou dra
E R
2 6
it es
Ġdem ocra
ou ver
Ġl ors
ĠC ub
e ed
Ġab use
Ġrespon d
re st
Ġto ol
Ġobs er
se ment
Ġb an
Ġenj oy
Ġter m
Ġcom ments
Ġd ay
ĠEx per
Ġn ombre
dic tion
Ġcomp ens
2 7
o id
ar ies
Ġev idence
and id
Ġsuccess ful
Ġofficial s
Ġeth nic
ĠSud an
ĠMan agement
Ġgovern ance
ĠIn stitute
ren ch
Ġat te
Ġj uris
Ġfollow s
Ġcap ital
Ġsec tors
se min
w ays
Ġde tention
ust ain
ĠK osov
a uc
i pp
mit ted
am a
Ã©n Ã©
M ore
Ġmed ia
t t
m ical
Ġactiv ity
Ġwh ose
Ġcor re
Ġvehic le
Ġsh are
D uring
m is
S ub
Ġf ight
Ġrel ation
Ġlet ter
il s
Ġsu fficient
Ġin n
ce ll
Ġthrough out
ĠB ur
ous ing
Ġeffective ly
Ġexp endit
Ġen forcement
Ġharm on
Ġappl ied
Ġprior ities
Ġto p
U E
Ġsession s
Ġconduc ted
Ġele ments
ĠC ivil
Ġimpro ving
Ġstruc t
ĠIsrael i
Ġp ouv
ic o
I T
ĠP ublic
Ġoper ation
e y
Ġex tre
Ġvoudra is
le ments
Ġd am
Ġintroduc ed
Ġext ent
ĠL at
Ġn om
Ġele ctions
Ġthem selves
4 0
Ġrap porteur
Ġatt ack
Ġl in
Ġ199 6
Ġsub sid
Ġparticip ants
D A
ĠFor ce
Ġc andid
Ġtar get
ĠFore ign
lu sions
ĠCan ada
Ġcri tical
Ġoffic ers
en ary
Ġitem s
ĠC ount
Ġindic ators
5 6
Ġm ond
Ġper man
m ore
ĠKosov o
ĠAn nex
Ġh ist
ĠC rime
Ġpartic ul
Ġwel come
Ġ 0
Ġme an
Ġo pp
Ġl oss
ĠLe ban
ore d
ĠA pp
m aking
ĠG lobal
Ġac qu
Ġc ela
Ġla un
Ġrev ised
it ing
Ġdevelop ments
ĠJ apan
Ġs l
ĠW e
en g
Ġclaim s
Ġcon ference
ĠUNI CEF
Ġclear ly
ac ter
Ġs ol
Ġro ad
y a
Ġmethod s
Ġ ide
TA D
Ġcom ment
Ġr ather
Ġcre ate
id d
Ġlegisl ative
Ġtechnolog ies
ĠG o
is ters
ure d
Ġst ates
iz es
Ġph ys
H R
ur y
ĠT im
O ne
Ġcollabor ation
ĠC l
f act
Ġpers pec
r in
Ġex em
ab it
Ġd ang
Ġr Ã¨g
p erson
M s
u ro
Ġsug gest
Ġb uild
Ġdon c
Ġoblig ation
Ġne g
Ġres ol
200 9
Ġm al
re land
Ġst ability
Ġb ase
Mon sieur
Ġpro position
Ġte am
Ġh on
ĠRe view
Ġsc ope
ric t
ut ing
ĠSt rateg
c omm
c hed
Ġpo or
Ġc al
Ġk ind
k now
ĠdÃ©velopp ement
Ã© ration
nd re
Ġ19 7
Ġup d
Ġhig her
Ġdis p
olog ical
ti al
Ġs omm
R es
lic ations
ĠO per
Ġthan k
Ġth ink
Ġconc er
Ġc it
Ġe ither
Ġfav our
Ġcons olid
os lav
ure au
Ġav oid
Ġon ce
Ġreas ons
le x
e es
Ġmajor ity
Ġprac tical
h at
Ġapplic able
Ġ X
Ġon going
ĠA m
ing le
in si
Ġsim ilar
Ġd ont
Ġatt end
ke ts
ĠU S
S ome
N o
ners hip
y c
ĠdÃ© m
Ġcommer cial
ib ility
Ġcom e
ĠCo operation
Ġmention ed
Ġdis semin
a ign
l ish
2 8
Ġw ww
Ġj our
Ġpen al
Ġrespon sibilities
Ġsub sequ
vent h
o ire
por tion
Ġil legal
Ġc rÃ©
Ġ199 5
Ġtransp aren
ĠGerman y
Ġs olid
Ġdeb t
Ġw ays
Ġdiffic ul
Ġmed ical
Ġl at
Ġcommun ications
ic it
ĠAg ency
Ġs ans
ĠPeop le
Ġtw enty
Ġf ace
Ġ4 0
Ġm ass
o sition
Ġre ach
Ġso it
oin s
I s
lam ic
Ġw ide
I nd
Ġhigh l
ic a
Ġconsult ation
tif s
A R
ver se
Ġmin imum
ru it
S ince
ĠAss ist
ug oslav
ustain able
ĠReg ulation
um e
or al
Ġcons ensus
Ġspec if
5 8
Ġp unish
Ġcour s
ĠÃ© v
ru ption
sid ency
Ġeffec tiveness
I R
ĠAfghan istan
Ġchar acter
Ġcre ation
ĠE ducation
Ġma x
ĠI tal
Ġh ost
O S
Ġlangu age
Ġenti ties
Ġac ces
Ġdistrib ution
am es
ĠY ugoslav
Ġpe u
Ġinclud es
ap s
ers ons
Ġsu p
ĠCon s
ĠK ore
Ġestablish ing
Ġc ross
Ġj ob
Ag enda
Ġext ra
Ġenc ore
Ġinter governmental
jour d
all ed
jec ted
ĠM embers
Ġas si
Ġdirect ly
Ġachie ving
Ġcour ts
ĠUn it
Rec alling
Ġdem ocratic
Ġm ut
Ġcon form
ven ir
Ġre ached
all s
Ġconc lusion
re gional
us ed
er ci
Ġd im
Ġtre aties
ic s
Ġm ig
199 9
ĠAs soci
E A
Ġres ource
Ġg e
Ġr ates
Ġac cep
ure ment
Ġ ir
ĠA t
ĠI ran
Ã© qu
ra z
ĠI reland
Ġcrit eria
in c
en se
ar ity
Ã©c ur
U nder
b on
Ġr ange
ti Ã¨re
Ġwh y
Ġout side
as ion
Ġrelations hip
op h
Ġt ri
ĠN on
RA NS
w ide
Ġmaterial s
idd le
Ġrelig ious
m ost
Ġd ays
ure r
Ġperman ent
Ġw ords
Ġwelcom ed
an te
Ġs k
ĠC omp
k ra
Ġstatis tics
Ġconstit ution
ĠD iscrimination
Ã©cur itÃ©
Ġconflic ts
In ternational
Ġst ake
Ġiniti al
her lands
s c
h ui
Ġsu per
ne w
am ber
Ġm obil
Ã »
ĠE m
Ġc ro
Ġguaran tee
Ġa insi
ĠS e
Ġp ack
Ġperiod ic
Ġindust ry
aren ts
lec tive
ir med
por ary
en sion
ĠF rench
Ġimpro ved
od y
Ġvulner able
Ġs es
Ġdiscuss ed
Ġrece ive
iss aire
iv ent
Ġt ask
ri d
Ġex ten
Ġcontinu ing
Ġeduc ational
200 6
en ing
Ġnou vel
Ġadv ance
ĠSu pp
ĠHead quarters
Ġref lect
Ġur ban
in ary
Ġb rought
Ġch o
Ġs ingle
hold ers
Ġsan ctions
Ġste p
Ġtra vel
sid ence
ĠI C
Ġapp eal
Ġm om
op tion
ĠServ ices
Ġcomple x
Ġob st
Ġphys ical
ĠMr s
Ġex port
Ġexp and
Ġs Ã©curitÃ©
Further more
ĠdÃ©b at
Ġcamp aign
ri an
Ã´ le
Ġappreci ation
ĠB ureau
Ġint ended
ĠSec tion
2 1
her s
Ġgen er
Ã ®
Ġcall s
Ġvol untary
ĠImp lementation
Ġterror ist
Ġguid ance
us es
Ġcont act
Ġp or
ven tions
Ġan s
a rent
Ġfin ance
Ġb ud
ak istan
Ġb on
Ġal though
Ġad ap
Ġfore st
Ġevent s
Ġconc lusions
g r
ier ra
Ġc ause
Ġbal ance
Ġf ig
Ġsupp ly
Ġlim it
Ġexplo itation
raz il
Ġd en
Ġidentif y
Ġto ute
Ġextre me
ic k
al ities
Ġs al
Ġdemocra cy
Ġviol ation
ĠS y
ĠG e
Ġe mb
ad re
Ġh ousing
Ġmin d
Ġso on
com ing
Ġm is
Ġd ern
A S
Ġsu is
Ġconsequ ences
Ġfa ut
y an
Ġ6 0
P R
Ġcontin ues
Ġsupport ing
Ġpar ts
Ġex ternal
S uch
Ġaddress ing
Ġc op
ad es
ex ico
I L
p ret
Ġocc ur
Ġpeace ful
Ġra cial
ur ance
ques ts
Ġd oll
ĠI II
Ġad just
os p
f irst
roduc tion
Ġassoci ated
Ġelect ronic
ĠAdminist rative
ari b
Ġsee k
Ġexper ien
Ġdesign ed
Ġdec l
Ġcont ra
res pon
Ġcon vention
Ġre aff
ĠH er
Ġdef ined
Ġe limin
Ġrequ ires
ĠLe one
os n
on ia
Ġmom ent
ĠPol itical
I ON
ra ble
Ġcon cept
om pl
ĠCub a
Ġs ource
ĠB ar
Ġth ough
Ġapp oint
Ġcon d
ption al
Ġre iter
ĠA ut
Ġenti re
Ġtre nd
un g
Ġra ised
c ted
Ġp at
Ġp arents
Ġmes ures
com es
i ers
Ġp aper
Ġemerg ency
Ġle g
Ġcivil ian
Ġde ep
Ġconclud ed
Ġem p
be an
ĠTur key
L et
Ġpre c
mb ass
Ġspecial ized
ocu ment
Al so
Ġeffic iency
tern et
arib bean
u ts
ĠRe gional
Ġg iv
z er
Ġrel ative
ĠLi ber
Ġmarch Ã©
ĠKore a
Ġma tiÃ¨re
u fact
ve red
ĠC or
ĠS erb
Ġreg ime
lu sive
Ġestim ated
go v
Ġcompens ation
n al
Ġmainten ance
Ġqu el
ac es
Ġfl ow
Ġfact ors
Ġb ilateral
ic y
ĠNGO s
ĠS ierra
Ġencoura ged
Ġco he
ri a
u er
i k
Ġal ways
Ġcomm ittee
ist ration
Ġin j
Ġs yst
Ġc ustom
Ġco vered
Ġdispl aced
a iti
Ġapp ear
ar ia
Ġuse ful
7 3
Ġagric ultural
Ġdetail ed
Ġpen se
Ġman ufact
Ġd ri
St ate
ĠGo als
h abilit
ĠC aribbean
Ġvehic les
ĠrÃ© gion
Ġas ked
Ġcit oyens
ral ia
Ġcl os
ĠNet herlands
in th
Ġst age
Ġpa id
as sif
Ġl ed
ĠEn g
Ġsign ed
Ġinn ov
w ise
__ __
Ġ199 0
ror ism
i ment
Ġg ouver
ĠCh amber
Ġent ry
ill s
ĠdÃ© f
Ġconst ruction
Ġdis e
Ġ5 5
Ġlangu ages
Ġeconom ies
ine a
Ġrec over
ĠTh is
ĠUNC TAD
Ã ¹
Ġcru cial
Ġel le
Ġpl enary
Ġfa ir
ĠPar t
Ġdeli very
Ã¨ mes
H CR
an e
ĠO ptional
Ġper met
Ġcl ar
ac ific
Ġrep roduc
Ġcompan ies
ĠE limination
ot ed
o h
ĠB osn
ti me
Ġle urs
Ġar bit
Ġamend ment
as tern
as h
o le
ĠS ystem
Ġfor um
t on
ĠCount ries
ien na
Ġb o
po si
Ġaltern ative
Ġper p
Ġjuris diction
Ġeffic ient
is hes
om al
Ġa round
2 2
B ut
Ġrec ently
Ġval ues
Ġn ive
Ġconsist ent
Ġimp lications
Ġasse ts
Ġun iversal
Ġur gent
ul g
Ġinvol ving
Ġatte mp
an ish
Ġnou ve
Ġra c
Ġfor th
ĠS ustainable
c ri
Ġc et
Ġinter pret
Ġph ase
Ġgroup e
it ors
ĠI t
ĠSw ed
ut or
abl ed
Ġyou th
Ġl Ã©
Ġb ar
ĠFed eral
ec onomic
is er
ill ed
Ġdo ivent
ww w
kra ine
ĠL abour
g yp
Ġsub mission
Ġdro it
O M
Ġu nd
Ġsix ty
Comm ission
Ġconst ruc
st ream
u w
Ġli b
Ġaf in
an y
Ġchallen ge
e ts
a ud
ag ue
Ġf il
Ġsc hed
a j
ĠTim or
i j
Par agraph
Ġre d
ĠP h
li er
pl om
Ġpoliti ques
ĠJ oint
Ġem issions
Ġstake holders
Ġconc ent
vant age
Ġfulf il
ac ts
A pp
ri v
it zer
C e
ai ent
S C
Ġinvestig ation
ĠdÃ© j
itzer land
Ġsolution s
ĠInd ia
S he
Ġdest ruction
Ġdifficul ties
Ġcre ated
Ġ20 10
Ġinvolve ment
Ġpres ence
A M
ir ms
Ġser ve
Ġst ar
ĠP ort
Ġsomm es
aut res
Ġre new
O R
Ġa ver
n ational
Re quests
ĠdÃ©j Ãł
ĠIs lamic
Ġal ong
b our
ĠGu inea
Ġobserv ations
Ġstud ies
Ġdire ction
Ġact ors
s y
Ġrem ed
Ġdefin ition
Ġh ours
Ġp ort
Ġlo ok
Ġer ad
Ġreg ulation
Ġpos sibility
Ġposi tions
Ġmar kets
i able
ĠrÃ© g
Ġsu sp
Ġ '
ĠS ci
ĠAmeric an
Ġde tain
it ness
teg ration
ĠR el
Ġcompet ent
ĠAssoci ation
Ġfreedom s
dra w
Ġlong er
ĠSu pport
ous ly
ro ll
Ġref lected
form al
Ġpartnership s
ap on
6 1
Ġo Ã¹
Ġc adre
ĠK y
Ġ199 4
D E
ĠB e
ic ate
ĠÃ©conom ique
Al though
Ġpr Ã©c
Ġconc re
th ird
og ical
F PA
Ġachieve ment
Ġsett lement
Ġdes cribed
tical ly
ow ers
i tions
T able
ĠR w
Ġmove ment
un ic
Ġsuggest ed
Ġsem in
Ġf lex
Ġsa v
rol iferation
Ġman iÃ¨re
re qu
h Ã©
ĠM es
g round
Ġf er
Ġgo al
Ġh ouse
4 5
p t
6 7
Ġpress ure
ain s
Ġjud ge
te ur
si an
u ed
i ens
Ġadv oc
ĠN ig
Ġau jourd
Ġse em
Ġill icit
iv al
Ġtransparen cy
is tic
ĠP akistan
Ġar rest
D raft
ĠTrans port
es tern
Ġpar as
sie urs
Ġcon ferences
Ġperp et
ur d
ĠB razil
Ġt rou
Ġsh own
habilit ation
ĠLe gal
Ġl it
Ġl ater
Ġ1 00
Ġfinan ci
ag ing
an n
More over
Ġmod el
Ġprep are
Ġimprove ment
Ġn Ã©
Ġcomp ris
ff ec
Ġtra ditional
iti m
ĠG re
Ġcomp ar
Ġjud ges
Ġinf lu
ĠE qu
lic ation
Ġcomple ted
Ġdoll ars
Ġo ld
ar us
ir th
Ġsou ti
ti se
y ond
te urs
Ġwelcom es
Ġser ies
Ġd uty
Ġmon ey
ĠdÃ©c ision
ish ing
ĠS omal
posi tions
Ġcapac ities
Ġappro aches
Ġobst ac
Ġbe yond
ĠM iddle
u ter
Ġconcer ne
um ed
qu er
Ġdiff Ã©
Ġt al
Ġcent re
te enth
Ġform al
Ġindust rial
Ġun its
ĠBosn ia
if y
Ġc yc
Ġwith draw
Ġin tern
Ġreg ul
Ġsit e
x im
Ġt ant
Ġsafe gu
Ġper mit
ec e
sec ond
Ġneg ative
ones ia
Ġpl aced
Ġclose ly
j ud
ze gov
ĠM exico
Ġra di
ĠItal y
Ġtim es
Ġw or
zegov ina
ĠPre vention
Ġl ink
ign ed
Ġpol l
Ġperspec tive
Ġinteg r
Ġperson al
Ġun ique
Ġsim p
Ġcommun aut
ĠV ienna
ĠrÃ© al
ire d
u v
Ġcompeti tion
Ġb order
Ġc ore
Ġmax imum
Ġtyp es
er ve
Ġcol lective
s ession
t le
Ġabs ence
am ment
erv ation
ĠW est
Ġac know
W hat
ĠIn ternet
Ġche mical
tif y
h ood
ĠH ouse
Ġstress ed
Ġbegin ning
or ial
ĠF ra
Ġamend ed
Ġconcre te
ĠSt atis
c k
Ġorgan is
vere ign
Ġpro du
Ġsci entific
Ġele cted
Ġdam age
ĠPol icy
und i
Ġdep end
Ġdel ay
ĠLat in
Ġleaders hip
mbass ador
I tem
ĠHer zegovina
Ġdeal ing
ĠAut hor
Ġcor respon
ĠAdminist ration
ĠLeban on
Ġex ec
Ġso vereign
Ġde part
b ur
Ġex ception
ĠdÃ©m ocra
u j
ris on
Ġdi vers
Ãª tre
ĠPro sec
i Ã¨me
ĠSt and
Ġfollow ed
ĠP er
Ġpublic ation
ou p
Ġne ver
Ġrep r
N ot
Ġ Â
Ġet c
ac tive
Ġindepend ence
Ġprofession al
Ġcontain s
Ġte x
Ġwee k
igh th
ear ch
udget ary
2 12
Ġnive au
sy ch
Ġcivil ians
Ġg Ã©nÃ©
Ġor d
Ġcaus es
Ġli ve
E M
Ġdis aster
le ase
ĠG overn
Ġaw are
Ġrem ar
Ġreg istration
es e
Ġdetermin ed
Ġcomp rom
Ġcaus ed
oc c
Ġresult ing
/ /
Ġra tification
Ġspec ified
Ġdocument ation
A P
l ished
unic ip
Ġtem ps
Ġser a
si ght
Ġrecover y
ĠUN ECE
Ġgeneral ly
ĠUN M
Ġtro op
ĠK uw
t ation
Ġmar ri
e ments
Ġm Ã©
ro ati
ĠEng lish
Ġac ross
Ġst art
Ġconven tions
ĠR ules
Ġoff ences
Ġc at
Ġs ide
lic it
Ġname ly
ra in
um b
abilit Ã©
Ġdes p
Ġsubstan ces
Ġmembers hip
Ġth ir
viron nement
ĠP acific
Ġcateg ory
Ġw itness
o or
ti eth
Ġm ort
Ġg as
Ġex ceed
T O
Ġb u
ĠlÃ© gisl
reat ing
ĠE th
re nd
Ġspeak ers
: //
Ġdec laration
ĠSp ain
j an
Ġse en
ĠDis armament
F ollow
iste red
ĠP ersons
Ġdi plom
Ġprobl Ã¨me
Ġstatis tical
B y
tt p
ate urs
Ġtak es
mar k
Ġl ie
ent al
200 8
Ġleg itim
Ġsug ges
u a
ĠA cc
ĠD rug
Ġ5 8
Ġh alf
le v
F irst
Ġb es
3 3
cil iation
Ġins pec
ĠFra mework
A m
Ġcont ent
C ont
Ġdis pos
4 9
W hen
omm e
Ġrap id
Ġalleg ed
Ġgrow ing
i ary
Ġcoll Ã¨g
Ġspecif ically
yl um
Ġg aran
gyp t
is tics
y n
z ech
ti ques
is ons
Ġcomb ating
f lic
Ġimp os
ap e
Ġb illion
Ġh ome
Ġess enti
Ġperson nes
Ġsp ons
ĠM ed
Ġdon ors
Ġle ave
ĠM or
a ving
Ġm or
res olution
id ents
Ġmed ium
Ġacc ompl
Ġext ended
Ġset ting
Ġra ison
Ġfocus ed
ĠAust ralia
In t
ci pl
st ruction
Ġconf idence
ĠSec ond
Ã ¢
an cial
Ġsub regional
200 2
Ġvis it
Ġcons ent
Ġexpendit ure
Sec ond
Ġsum mary
Ġt rial
N ew
ĠCh ief
ric es
A L
Ch air
Ġoff er
o ts
Ġa uc
ĠMin isters
Ġdon n
Ġsepar ate
t Ã©
Ġwrit ten
Ġrec ruit
Ġground s
Ġconv ic
Ġcooper ate
l ined
Ġundert ake
Ġn ation
Ġoper ating
C P
Ġdec re
Ġaver age
Ġcomp ly
an cy
N ote
se t
om es
ĠAd d
Ġdis abilities
ĠOper ations
or ation
ĠNor way
ac tions
lud ing
t a
Ġrelig ion
Ġl og
Ġmain stream
5 4
v ance
ĠT e
Ġrecogn ition
Fin ally
Ġmin ist
Ġsk ills
tiv ity
ĠSw itzerland
f ois
ain es
ab il
Ġre habilitation
Ġimmedi ate
ĠV ice
Ġcol lection
ĠU kraine
Ġpar ce
Ġha pp
y pr
ll es
Ġoccup ied
ypr us
Ġdesp ite
Ġm ess
Ġ9 63
Ġtime ly
ĠGe org
Ġl ower
pr ise
ĠCol omb
ĠStrateg y
Ġav ant
ĠrÃ© pon
i op
ĠBur undi
H E
Ġ round
Ġdetermin e
eal and
ĠA c
Ġactive ly
ag it
ace ment
Ġrepr Ã©sent
Ġcor por
arge ts
Ġreduc ing
he st
P our
Ġallow ed
tit ude
ĠExper ts
Ġimp osed
Ġexpl ain
Ġtem porary
M y
Ġindic ate
Ġd it
Re v
Ġinc lusion
Ġinternational ly
Ġstruct ures
Ã© li
ĠCoord ination
Ġoff ence
ilit Ã©
ĠM a
ĠP op
Ġreduc ed
Ġf uel
Ġr un
Ġremain ed
Ġt it
Ġminor ities
A N
Ġb irth
Ġen vis
ĠE st
Ġproc urement
Ġgrant ed
ĠAuthor ity
u ay
ĠF irst
Ġh op
Ġcomp lement
Ġrel ief
ĠComm un
Ġcompon ent
l ov
m a
P T
Ġmand ates
Ġp ra
Ġexper tise
ĠS h
Ġdef ence
Ġend ors
Ġtool s
Con c
Ġf arm
flic t
qu oi
Ġpay ment
Ġlead ing
N ations
acc ord
Ġabs ol
t r
Ġunder stand
Ġmod ern
Ġt argets
il es
ĠSwed en
ĠE l
oin ted
ĠO ther
Ġrepresent ed
Ġge ograph
Ġtr ust
ĠReg ulations
iti ative
Ġstrengthen ed
igh ted
Ġdat ab
Ġt as
e an
A D
Ġ5 4
Ġ( $
ĠH aiti
Ġcoordin ated
ĠâĢ ĵ
Ġrefuge e
Ġd er
II I
Ġf ois
ĠYugoslav ia
Ġconstit ute
ĠTerrit ory
Ġ %
ĠUN HCR
H C
ĠN uclear
Ġpos sib
Ġrequire ment
3 7
Ġassess ments
Ġpunish ment
ĠInd onesia
Ġun it
Ġaut res
ell ing
Ġ199 3
Ġ .
Ġfem ale
4 7
Ġann oun
O r
ĠWe apons
ĠPol ice
g en
Ġliv es
P lease
Ġper cent
em ic
Ġne ar
in ued
Ġg overnments
Ġpub lished
3 5
Ġencoura ges
Ġw id
Ġaccep ted
ĠG reat
iss ance
Ġreform s
Ġch ap
en ed
rac ts
Ġtout es
Ġfour th
az a
Ġpro portion
I mp
Ġattack s
Ġconcern ant
ĠC yprus
si x
ad ies
Ġqu an
Ġdeli ber
Ġin h
Ġcons Ã©qu
Ġse u
ĠChair person
gent ina
Ġa mb
o on
ĠC roati
Ġaccount ability
sel s
S outh
end ers
Ġrem erci
Ġab ility
ĠRe f
Ġl ar
Ġter min
ens es
Ġcertain s
ĠUn iversity
Ġhon our
Ġas ylum
ĠRw anda
UN I
ĠAg enda
ĠTur k
Ġ3 7
Sec ret
ĠO F
ĠRes earch
ĠE C
ol er
ĠdÃ© p
Ġse in
Ġcon dition
Ġenh ancing
Ġaffec t
Ġel abor
ĠBel g
ĠC ultural
Ġval id
Ġsent ence
Ġknow n
er t
ĠP rin
ĠA mbassador
Ġsc he
Ġo il
Ġoccup ation
Ġne igh
ĠC zech
m on
Ġp sych
Ġeng age
ak h
Ġstud ents
re a
Ġ4 8
Ã ¡
Ġde gra
Ġdom aine
Ġlaun ched
Ġm akes
h ol
Ġlike ly
Ġun i
Ġemphas is
Dec ember
Ġcoop Ã©ration
ĠPro ced
3 8
iol ogical
at ute
xim ately
Ġadv ice
Ġincreasing ly
u gal
ind ing
Ġg et
n inth
Ġsubsequ ent
Ġsti p
Ġhe ard
h omme
ĠPalest ine
Ġapplic ations
ĠU nder
is me
Ġv ital
Ġrem o
Ġimmedi ately
D G
ot o
Ġterrit ories
Ġext end
Ġch apter
Ġplan ned
f ifth
b id
Ġpro tocol
m ing
S o
pec t
Ġspe ed
Pre sident
Ġro om
ri g
Ġp owers
ĠNor thern
Ġcateg ories
Ġparticip ating
and s
4 8
Ġreg ret
ti e
Ġv ue
st ance
Ġpop ulations
Ġdon or
Ġinten tion
Ġsp ir
ĠrÃ©s olution
Ġf is
ĠUN EP
Ġdou b
T S
D ans
Ġop tions
Int roduction
Ġagric ulture
ĠSy rian
ĠP rom
Ġm other
Ġaff airs
Ġm oins
af ety
w ith
ĠD ar
Ġf ix
ĠZ ealand
Ġsh ared
Ġhig hest
in ter
ti r
ĠF am
Ġde g
r ary
Ġele ction
b o
Ġc reating
Ãª t
s po
pro gramme
Ġcor ruption
Ġsyst Ã¨me
in er
m ail
l ies
ĠR ac
f ourth
Ġfail ure
if ty
Ġstr at
Ġz one
Ġenh anced
Ġacc ounts
Ġparticip ated
Ġc r
ĠSupp lement
Ġf o
Ġm unicip
un is
W ork
Ġtrans l
ĠB ang
Ġfor ced
z erb
h t
H is
gin al
ti cip
Ġworkshop s
ĠT ask
ĠB r
Ġsupp lement
ur ation
ut ri
res sive
Ġun em
Ġ keep
Ġto ur
the less
Ġris ks
Ġintroduc tion
Ġglobal ization
Ġmond e
or n
Ġdi ver
Ġrac ism
Ġpro duce
ĠrÃ© f
Ġmain ly
Ġun less
ul ed
Ġc le
Ġact ual
ĠN am
c hes
M ad
Ġcomp ared
ill ing
Ġproc Ã©d
ĠPeace keeping
ĠJ ama
l Ã©e
Ġfor ty
pr Ã¨s
ĠNor th
Ġf ost
Ġeval u
ĠSomal ia
ĠA ud
Ġtrans mit
Ġm igration
ĠIs lands
Ġreview ed
Ġprobl Ã¨mes
Ġrecruit ment
Ġp u
L O
g ans
Ġpro l
Ġde ployment
Ġseu lement
Ġregard s
il ipp
Ġmut ual
Ġrep e
I P
iti g
ution s
Ġ5 9
Ã© ment
oph ob
m ble
te ment
ai jan
Ġconform ity
There fore
zerb aijan
Ġproduc ed
Ġconsider able
Ġex cell
) )
Ġcon gr
Ġhist or
Ġte ac
p uts
abit at
ract ing
ĠPro c
Ġcond em
six th
Ġt urn
g ard
ĠeuropÃ© ens
Ġexpec t
e als
S T
Ġar gu
ar ticle
Ġsc ale
Ġanal y
Ġsubstan tial
Ġur ges
ric ulture
Ġd ign
Ġ3 5
Ġinterest ed
Ġsecond ary
Ġe as
spo ke
Ġp il
t ra
ĠE CE
Ġlist ed
ĠA sian
Ġ `
Ġmet tre
Ġrein tegration
ĠTechn ical
Ġcongr at
ĠW estern
Ġauthor ized
W el
Ġemphas ized
ir ing
Ġra ise
Ġstrat Ã©g
ĠM od
Ġenter prises
Ġ3 9
ĠS al
Ġce ux
iÃ¨re ment
Ġcompon ents
Ġst ri
us al
Ġeng aged
Ġcal c
Ġobtain ed
uv re
ĠS ession
ĠEn ergy
Ġsen si
Ġcomp te
termin ation
ĠSerb ia
ĠM me
Ġpo in
Ġgo ing
ĠQ ues
Ġtas ks
Ġelimin ate
f ur
Ġur ged
for t
Ġobser vers
ĠIC T
Ġpour quoi
Ġid enti
H O
Ġexp ression
Ġl ic
Ġconstruc tive
Ġlie u
3 1
ht m
Ġ199 2
Ġcomplain ts
par agraph
lov ak
oy en
ruc t
M E
Ġar ri
Ġcl ass
Ġspir it
ĠEth iop
Ġobstac les
Ġrespective ly
Ġ :
Ġwh om
Ġpar liament
as ters
4 4
Ġcl assif
ĠL is
go ci
Ġto t
T RANS
Ġnetwork s
Ġterrit orial
Ġb i
Ġvic tim
Ġp rices
A O
Ġas k
ĠB al
ĠSp ace
Ã Ń
Ġbudget ary
Ġsoci o
M any
ĠE gypt
ĠFor ms
Ġm ise
Ġadd ed
ĠOffic ial
Ġha z
at form
Ġother wise
ood s
Ġwrit ing
Ġmillion s
ent le
Ġdemand e
Ġinterpret ation
u til
Ġwas te
Ġal most
Ġsec ure
Ġcandid ates
i et
ĠT HE
Ġsurve y
Ġear lier
Ġhouse hold
Ġapp ointed
Ġg entle
ĠCoord in
Ġcons omm
Ġe lement
Ġsum mit
Ġman if
Ġad oles
Ġassi g
Ġ6 1
Ġidentif ication
ĠFin land
ĠRom ania
Ġorigin al
ĠnÃ© goci
Ġ199 1
Re aff
Ġpoin ted
E c
Ġthreat s
li que
Ġsup ports
Ġprevent ing
Ġcontrib uted
ch ang
A c
ar ily
Ġsav oir
Ġorganiz ational
Rec ommend
Ġgouver nement
n erg
Ġad vis
Ġra tified
ĠL ib
irm ing
Ġhold ing
Ġaim s
ĠC ar
Ġfunction ing
ve z
Ġh ar
Ġbel ong
Ġsou nd
ĠBel arus
ĠLis bon
Ġpouv oir
ĠKuw ait
er ver
3 9
Ã ³
5 7
Ġsec teur
oc co
Ġch arge
ven ile
Ġop tion
ici ary
g reg
Ġent ered
Rec ogn
Ġgentle men
Ġ7 7
Ġrepresent ation
ID O
y er
Ġrestric tions
Ġf irm
Af ter
Ġdec ide
Ġincorpor ated
Ġor gans
Ġexist ence
ĠRef uge
Ġdissemin ation
ĠComm it
Ġsu c
S P
Ġprocess us
Ġcomm issions
Ġcyc le
ĠPop ulation
Th ose
Ġstrong ly
Ġa p
ĠSp anish
ĠColomb ia
et ary
auc oup
C or
g anda
ĠAssist ance
ĠgÃ©nÃ© ral
Ġaud it
Ġ5 7
Ġs out
itor ing
Ġpro s
ful ly
Ġav oir
Ġre min
Ġdist in
ĠDep uty
Ġ x
ĠTr ust
Ġrecord ed
ĠB ulg
Ġdraw n
ol iv
Ġremain ing
Ġdisc rimin
Ġle ft
ĠF ac
ive red
Ġextreme ly
Ġpro p
Ġimp rison
cont inued
ĠLiber ia
Ġb urd
Ġendors ed
Ġint ro
ĠO n
Ġparticul ier
ĠH ung
Ġte le
Ġresul ted
Ġminor ity
ly ing
Ġreserv ations
Ġf requ
Ġm ont
I v
en h
l oc
Ġconsum ption
ific ations
Ġe u
Ġconstitution al
Ġpro t
limin ary
Ġad visory
Ġfield s
ach ing
Ġrecon struction
Ġintegr ity
W G
Ġse ven
Ã´ te
ore r
Ġsout en
iti me
Ġgrand e
Ġg ross
oler ance
ĠCh ile
as ures
N D
Ġto uj
Ġtouj ours
ĠL a
Ġtransp arent
Ġpro pose
Ġdo ing
iv ed
abl ing
e g
Ġestim ates
Ġnor ms
ĠDar fur
Ġemerg ing
Ġtrend s
Ġgiv ing
Ġhighl ighted
Ġcontain ing
Ġdrug s
c oura
ĠPol and
Ġm er
Ġdel ivered
r ust
Ġexem ple
Ġth ings
Ġlit tle
comm ittee
Ġconsider ing
Ġ4 5
we apon
Ġs ous
Ġcommun e
f are
re me
Ġg ain
ĠS an
ĠF ifth
Ġbrief ing
Ġdev rait
ĠC he
Ġgra ve
ĠPort ugal
Ġp anel
Å ĵ
Ġspe aking
Ġl ut
Ġag o
E D
l ades
Ġappro ximately
ĠCroati a
utri tion
i ra
Ġconclud ing
ĠAust ria
ĠGeorg ia
Ġat tain
Ġ4 9
Ġdis app
Ġsolid arity
ĠTerrit ories
ĠprÃ© sident
Ġr ise
ĠPre par
u elle
end um
Ġst rict
Ġins urance
Ġpl u
Ġw ishes
3 4
Ġind eed
ate mal
Ġple ase
Ġn ations
p e
r ong
Ġout comes
ĠPh ilipp
Ġocc asion
Ġbe aucoup
Ġis land
Ġp uis
p roliferation
Dec ides
HC HR
Ġ3 4
Ġpl aces
ii i
Ġnational ity
M e
Ġfind ings
l le
DC s
Ġrecon ciliation
Ġinst ance
Iv oire
ĠUN FPA
Ġs ens
ĠRec ords
Ġsouti en
Ġfl oor
Ġh ard
Ġencoura ging
Ġtrans it
Ġaut or
Ġentre prises
g eria
Ad option
Ġsu jet
en ced
ist ent
Ġdang erous
Ġenjoy ment
Ġpresent ation
Ġperpet r
Ġexam ination
ol a
Ġst op
Ġnot amment
ra ient
ĠSe a
Ġh y
Ġse gment
Ġse a
ith u
Ġdivers ity
Ġcon ver
Ġsubsid iary
ĠG aza
ĠD en
St ates
Ġfac ing
ro b
qu elle
t able
Ġ4 7
lades h
Ġpr ice
ail y
Ġla quelle
ĠP rime
ĠComm issaire
Ġar ising
l aw
ar a
Ġm ob
Ġan im
Ġver sion
Ġconsid ers
Ġlat ter
Ġpenal ty
Ġlin ked
Ġreg istered
Ġreproduc tive
ĠProsec utor
3 6
ĠO bs
Ġsatisf action
ĠProced ure
ĠdÃ© put
ĠInd igenous
Ġtro is
semb lÃ©e
ĠrÃ¨g lement
w o
yn am
tion ed
ĠA zerbaijan
Ġhigh ly
Ġmat ern
Ġcl osed
Ġacc used
O ur
m m
Ġout re
Ġrespons es
ag n
Ġconst ra
ge ts
Ġform ulation
R ep
m issions
Ġf on
ĠK en
Ġassoci ations
Ġmean ing
Ġe limination
Ġpre ndre
Secret ary
Ġsen ior
Ġacknow led
Ġcol le
Ġacces sion
or m
Ġhe av
N F
en ophob
ul a
duc tion
em pl
Ġtr ue
Ġthir ty
Th us
O C
Ġrecogn ize
Ġret ur
Ġsou l
ĠNig eria
Ġprotec ted
Ġpro positions
ĠTh ird
st e
S i
Ġback ground
Ġnor mal
n ial
ĠS up
Ġsub stance
ĠJ ud
d re
ĠAn g
Ġsign ature
ant Ã©
Ġacc omp
Ġaut re
Ġorganis ations
Ġtra itÃ©
" .
ĠIn ternal
Ġexcell ent
Ġproduc t
l lect
Ġopen ing
d ed
Ġavail ability
ĠB rit
Ġcred it
Follow ing
Ġguaran tees
oc ks
Ġ3 8
c ents
Ġcer tif
ve ur
Ġresol ve
qu Ã©
Ġparti e
Ġnor m
ĠPre sidency
Ġhe ar
Ġqu ite
Ġr Ã´le
Ġexperien ces
Ġinter vention
av i
cri ption
ĠBelg ium
Ġcons ci
ĠTechn ology
men tioned
Ġregul atory
ound ary
Ġur g
Ġsu iv
19 8
aud i
ul s
Ġcours es
Ġdu ties
Ġwe bs
ov a
l os
Ġfa veur
Ġemb ar
ĠS afety
Ġsimp ly
Ġres s
Ġobserv ed
Ġexam ine
at a
Ġre sident
Ġv ir
Ġcomple tion
Ġg re
Ġs or
Ġse lected
ĠI V
ĠEthiop ia
Ġcont racts
ĠcollÃ¨g ues
a id
M ais
Ġless ons
ĠAr gentina
Ġcover age
ist ence
Ġradi o
Ġes p
Ġde ad
Ġprincip al
ĠCont rol
v est
irc raft
Ġdetermin ation
O f
ost a
Ġto ler
Ã© p
Ġsignificant ly
m y
ĠB as
Ġsh aring
Ġconc ur
se ll
hÃ© sion
ord ers
S pecial
Ġde pos
Ġv ac
Ġalloc ated
ĠGu id
Ġmarri age
C o
he ad
he ries
Ġs antÃ©
Ã Ģ
D ocument
199 8
Ġfac ed
Ġprepar ing
Ġre ven
Ġmig rants
Ġsovereign ty
Ġjob s
S ix
Ġmes ure
Ġgovern ing
Ġsp Ã©
ĠPart nership
Ġv oting
âĢ¦âĢ¦âĢ¦âĢ¦ âĢ¦âĢ¦âĢ¦âĢ¦
Ġmort ality
ĠSup reme
Ġv es
Ġju ri
Ġoff ered
Ġaut om
ĠS lovak
yan mar
v ia
Ġv ill
Ġsou ght
ĠnÃ©cess aire
oura ble
Ġout standing
Ġac ce
ond ay
Ġrele ase
Ġbud g
O ver
Ġdifferen ces
ĠH oc
Ġmaintain ed
Ġin su
Ġeff et
Ġple ased
fort un
b ers
Ġsen se
Ġdise ases
Ġfem mes
atemal a
el on
ay sia
Ġpouv ons
6 8
Ġrev ision
R E
Ġprepar atory
ĠT unis
ĠU ganda
Ġad min
Ġidenti ty
sid ential
Ġman ag
Ġf Ã©
An y
le urs
ail and
H uman
Ġm itig
Ġbes oin
ĠrÃ©s ult
Ġsee king
Ġc od
ch arge
at ri
Ġse vere
Ġintern ally
Ġcl aire
Ġso ient
ĠMad ame
Ġprevious ly
em or
N oting
Ġrec ords
Ġen abling
Ġvot re
ĠS m
Ġmond ial
Ġre nd
ĠDrug s
Ġc ode
Ġv ision
Ġv ie
Con sid
ĠC Ã´te
r ations
om eth
f ic
Ġthe me
Ġch air
ĠTra ining
Ġcarry ing
Ġreal ization
Ġvot ed
Ġthere by
ene z
ud es
ux emb
S R
val uation
mar ily
Ġin qu
Ġwe b
ĠC om
Ġans w
Ġact ually
Ġpoll ution
Ġmess age
ĠL ithu
Ġch os
Ġdatab ase
lo ven
Ġfact or
C ela
Ġen ough
at ures
ĠBrit ain
Ġinvestig ations
Ġerad ication
Ġappoint ment
Ġpa rent
uxemb our
Ġd ynam
U C
Ġf ed
Ġ vers
W omen
De leg
an sion
ond s
Ġa ircraft
ĠF ood
ic ated
Ġeng agement
o z
re ly
Ġact uel
Ġpre liminary
ven tive
ic ro
w here
an z
ploy ed
ines e
Ġwel fare
Ġh um
c are
om in
Ġprison ers
Ġhead quarters
Ġatt rib
Ġinten sif
ĠFam ily
ill er
ometh ing
5 1
Ã§ on
Ġrec her
Ġdec ent
Ġinflu ence
Ġam ounts
Ã©t Ã©
An other
ess ment
Let ter
Ġst ock
Ġmaintain ing
Ġser ait
Ġre tain
ĠMor occo
or ing
Ġdign ity
Ġexten sive
Ġhist ory
Ġdraft ing
Ġcom ing
Ġsystem atic
Ġemp ower
Ġf isc
Ġdis asters
im b
un ction
Ġequ itable
ĠInd epend
Ġtop ic
ud s
Ġbeh avi
esp ite
Ġexpl an
Ġex pos
Ġli ability
g ressive
el ine
Ġl adies
I A
ĠStatis tics
Ġpre gn
tiv ities
ĠSt atus
ĠIn itiative
am er
ist ance
ces sive
Ġ3 6
Ġsit es
Ġf ire
C ette
Ġdetail s
Ġb ro
Ġdeli ver
Ġun able
Ġshow s
et t
Ġjuri di
Ġann Ã©es
Ġsim pl
o king
Ġfe el
Ġfon ction
Ġori ent
Ġmainstream ing
R C
Ġthem atic
om ing
3 2
ri day
Ec onomic
Ġteac hers
se venth
7 0
ĠOffic er
Ġde ter
Ġj o
Ġtarget ed
Ġvou l
Ġamend ements
Ġdeg ree
ĠGre ece
d ep
Ġs omething
Ġpay ments
Ġ4 4
Ġqu ick
Ġ8 0
Ġprotec ting
ĠKy oto
Ġsur v
Ġobjec tifs
Ġimprison ment
Ġassig ned
ĠI M
ĠA IDS
ord an
ĠAl ban
e ighth
ĠUN IDO
Ġlim its
Ġnouvel le
Ġaffec ting
Ġeng ine
ĠT IR
ĠY ear
Ġupd ated
Ġpri marily
uxembour g
ĠE rit
Ġbar ri
Ġcorre ct
Ġow ing
Ġtrans actions
par a
Ġmin im
Ġh oc
Ãª che
Ġinf ec
ĠFin ancial
th ing
ĠL DCs
Ġm id
Ġv ig
Ġinter im
Ġreserv ation
on ization
ĠSub committee
con flict
ĠGovern ing
ĠprÃ© v
Ġtrans mitted
Ġf all
Ġalloc ation
E T
k a
ĠHuman itarian
ite ment
ever al
Ġunem ployment
llect ual
ĠS ur
Ġow nership
Ġnum bers
ĠPrepar atory
Ġexpendit ures
ep al
u ador
Ġlear ned
6 9
ĠInd ust
Ġbelie f
ĠPro f
Ġlear ning
Ġdiplom atic
S TA
5 00
ĠW TO
ap ers
ĠRefuge es
ĠV er
Ġex cept
Ġassess ed
Ġso le
ĠSo ci
Ġunder min
Ġsustain ed
W A
urs day
Ġiniti ated
enophob ia
um p
Ġinv ent
F rom
ĠE astern
Ġnouve au
Ġb r
Ġ3 2
Ġemploy ees
ES CO
Ġex ecutive
c l
Ġliber al
Ġv Ã©
urs ue
Ġe ver
o ff
ĠS ix
ic an
de termination
Ġ3 3
Ġneigh bour
ĠB ah
ĠPhilipp ines
Ġflow s
Ġsci ence
Ġc ust
Ġsoul ign
ri ons
D espite
Ġpeu vent
ĠÃ©t ait
Ġlegitim ate
Ġ ici
cer tain
Ġwee ks
ĠDen mark
te red
Ġ4 2
ĠB en
az akh
Ġm ine
Ã© rence
ĠPro ject
R ule
enez uel
Ġgeograph ical
oc ide
Ġfacilit ating
Ġmanif est
Ġdeal t
ac cept
Ġl ui
ten eg
Ġsett lements
ĠAn n
he ure
ex p
I bid
Ġinter ventions
Ġplay ed
ĠCont racting
Ġsan itation
h aps
ul ating
Ġexp ansion
ĠHung ary
at t
Ġb inding
Ġcompan y
Ġpack age
Ġtrans f
Th ird
Ġlaun ch
l in
roll ed
ade qu
ĠCon gress
ĠQues tions
r ates
Ġp ursue
le t
ĠdÃ© fin
Ġimprove ments
a res
e ties
ĠS audi
EC D
ĠM yanmar
6 4
in ated
Ġ7 0
Ġch a
Ġbud gets
Ġe ight
ĠDec ade
Ġprov in
ĠKen ya
Ġ ed
Ġnum erous
Ã´ t
Ġstruct ural
im p
Ġpro stitution
Ġac ting
D ep
Ġide a
Ġconf irmed
Ġil s
er tification
ve y
Ġcontr ary
n s
In formation
ĠFin ancing
Ġ5 3
Ġcon du
Ġz ones
Ġdim ension
Ġcommit tees
Ġ5 1
ak ers
ĠM aced
Ġem ission
Ġ i
Ġra ce
A nd
Ġacqu is
Ġdepart ments
ĠAm end
E F
Ġmar ine
Ġfig ures
l an
c tive
Ġassoci ation
teneg ro
Ġfif th
Ġres umed
porte urs
Ġcontrol s
in al
Ġsuff ering
sequ ently
T ra
Ġre ally
Ġexten sion
Ġappl ies
UN DP
S everal
Ġ5 6
ous ands
Ã© m
Ġvis its
Ġbring ing
Ġatt ended
Ex p
Ġfail ed
Ġm il
Ġra pp
Ġg r
Ġ9 0
Ġprodu its
Ġcomm issaire
u ine
Ġad verse
un te
ĠO p
Ġjoint ly
end ant
Ġhaz ard
amb ia
nder ing
Ġwill ing
Ġelect oral
ed nes
Ġh osp
Ġreason able
ĠAr men
epend ant
ĠSci entific
ĠS er
ran ch
ĠLithu ania
ĠP en
Ġou ter
Ġburd en
Ġ4 6
Ġlin ks
Ġelect ric
Ġus ers
Ġsou h
ĠDe f
ednes day
ĠGu atemala
Ġwide ly
Ġbehavi our
I G
omm od
h ing
loven ia
Ġdistrib uted
Ġpre ced
lar ations
Ġwebs ite
In formal
azakh stan
Ġv ra
ur rent
Ġcirc ulated
Ġdis cipl
Ġl ate
Ġaccept able
n ent
an im
su es
Ġabsol ute
Ġwe ak
ĠBulg aria
ĠMinister ial
be k
Ġcompet ence
ĠEnvironment al
Ġcontr Ã´le
Ġadap tation
iter ran
Ġevery one
ale ment
ir y
ĠMod el
ĠG ender
Sec urity
Ġcent ury
Ġj oin
iv es
S O
Ã©rie ur
use ment
ĠÃ© qu
Ġdep uis
ĠI A
N ational
u able
Ġsouh ait
um ption
Ġexam ples
ge ment
ank a
Ġinnov ative
Ġquestion n
Ġconsid Ã©
Ġsched uled
C om
T C
Ġatt ached
ĠMon itoring
Ġdesign ated
for ced
ĠC osta
l ines
Ã īt
b al
ĠdiffÃ© ren
ut ors
Ġme ille
ĠPrin ciples
Ġcomplain ant
or ganiz
Comm ittee
Ġalleg ations
Ġsubsequ ently
Ġb orders
Ġcoordin ate
Ġconven ed
i Ã¨res
Ġw rong
Ġst at
t ant
Ġen de
ĠBang ladesh
ĠPer u
qu el
ri end
Ġequ ival
E m
Ġal ors
Ġpublic ations
ar c
ate ll
Ġende av
ĠTh ailand
Ġt el
Ġcomm od
Ġju venile
amb od
r ang
it em
if t
Ġde le
o ks
in ced
Ġpil ot
om an
tis h
Ġt ack
Ġa prÃ¨s
Ġn av
Ġidentif ying
Ġpur ch
enezuel a
ĠExper t
Ġaccept ance
f ree
Ġexc lud
Ġbelie ves
e u
ĠL uxembourg
Ġad vantage
ĠV ol
Ġd a
Ġas pect
Ġexc lusive
Ġgen uine
ĠIraq i
ĠMon tenegro
Ġcr ise
ĠNet work
Ġm ental
en vironnement
P art
Ġsh ip
Ġcro is
Ġsp read
Ġcomb ined
Ġt rop
Ġloc ated
Ġaw ay
oy s
Ġrec alled
Ġfa Ã§on
Ġcampaign s
Ġcontrib uting
Ġcop y
si gn
Ġre sidence
Ġobser ver
Ġm ach
f ace
Ġd aily
Ġconsult ative
ustom s
Ġaccount ing
ĠT RANS
CC C
Ġsub jected
ĠâĢ ¦
1 00
mb uds
ĠB udgetary
ul ts
CO M
W here
Ġimp acts
Ã© ral
il ing
ĠI tem
Ġfund ed
Ġren for
ĠA ND
ĠMaced onia
Ġin adequ
Ġacce ler
ĠComm on
ri ti
Ġt ests
Ġn ine
ĠI l
Ġab ol
te l
ĠC OP
Deleg ations
Ġsub programme
ĠSt atute
ĠRom a
Ġinv ite
ĠstratÃ©g ie
Ġprincip e
Ġfig ure
Ġs ize
Ġquel ques
ffec tive
D I
Ġ5 2
oc al
ĠIn spec
ĠV iol
Ġhop ed
mb ol
C alls
Ġacc ommod
Ġinv itation
Ġachieve ments
ĠD ire
mis sible
Ġconstit u
ar co
ĠM old
Ġsemin ar
ĠT orture
Ġal one
Ġsocial e
Ġra il
Ġremed ies
ĠR ica
Ġacc ed
ĠM ove
ĠJ er
Ġg rate
Ġinst ruc
Ġworld wide
or ient
fortun ately
Ġcon j
Ġoccur red
ish ment
end re
Ġprosec ution
ti mes
Ġpercent age
Ġpre ventive
ĠI LO
Ġcertain ly
ĠdÃ©put Ã©s
ress es
Ġsustain ability
Ġf ishing
Ġcomplain t
ij ing
P er
Ġe uro
al le
ĠB ri
Ġgrate ful
Ġp Ãªche
ĠprÃ© sidence
Ġin equ
Ġaw ard
Ġdang er
usal em
por ter
eng th
Ġag ency
ister ial
Ġun ilateral
au riti
Ġrepresent s
Ġdis m
Ġjud iciary
Ġdecl ared
Ġvot es
Ġimp unity
Ġadvoc acy
ĠTra ffic
ĠMes sieurs
Ġ4 3
Ġcont ing
d ames
ti tion
ĠP R
Ġur ge
Ġconclud e
on y
ag ne
ĠrÃ¨g les
ain t
Ġf ell
ĠrÃ©gion s
Ġl ines
Ġprem iÃ¨re
el t
Ġprocess ing
Les te
Ġwork ed
Ġaff ord
Ġdemonst rated
Ġp hen
il t
ĠL anka
Ġgra d
Ġform ation
Ġnouvel les
ĠN epal
Ġconst ant
Ġs ale
X X
Ġreceiv ing
Ġcommer ce
Ġsubstan ti
* *
ĠO ver
ĠSm all
ĠA nd
ow s
Ġtechnolog ical
Ġassist ing
Ġread y
Ġserious ly
Ġpl ed
Ġh ttp
Ġconstra ints
ĠB oliv
Ġac ad
ĠSt aff
ĠRes ources
Ġcomp osition
ĠErit rea
Ã ¶
Ġpro ch
Ġdisp ute
Ġenti ty
Ġ4 1
Ġrepe ated
Ġfed eral
5 3
ĠS ri
Ġes c
Ġnational s
Ġl Ãł
end ix
Ġexam ined
Ġhead s
Ġg overnmental
Ġre ality
z ed
ĠPrÃ©sident e
P ol
ĠEc uador
Ġjour nal
I M
Ġinst all
Ġd ivision
Ġrecher che
Ġframework s
he l
Ġconf ront
ĠCons ult
ĠRac ial
Ġphen omen
Ġassi gn
empl oi
Ġdu rable
qu id
Ġtechn iques
ĠMal aysia
U r
Â »
Ãª ts
Ġcop ies
ĠPeop les
ĠC E
Ġimm igration
Ġen lar
iss ent
Ġ ign
as c
ĠJ ordan
ĠDevelop ing
Ġteam s
Ġconf irm
Ġperpetr ators
ues day
9 8
M al
Åĵ uvre
Ġpen sion
auriti us
Ġinsu fficient
Ġadoles cents
d is
Ġfond s
Ġpat tern
Ġexp enses
Ġcustom s
Ġannoun ced
ĠdÃ© l
Ġdemand s
Ġlat est
Ġde em
te ed
Ġprec ise
m atic
S igned
o x
a tically
au v
ĠPro v
ĠProm otion
lec ts
mp s
Ġbon ne
Ġm icro
L ast
Ġinvest ments
Ġsoci eties
Ġs Ã»
Ġch ose
O ffice
ati que
rÃ© e
ĠTurk ish
z bek
iter acy
7 8
b oundary
ig ence
Ġpre sidency
Ġb oard
ag er
Ġintro duce
Ġg ap
Ġst ations
ĠS lovenia
ore st
ant es
4 6
Ġpre jud
Ġreview s
esp Ã¨re
Ġh or
at ar
Ġparticul iÃ¨rement
Ġcas h
Ġn i
ro y
a venir
Ġ ?
ne ments
ene gal
Ġattemp t
ti le
is p
F ifty
S u
Ġw ord
Ġmanufact urer
Ġimp ar
Ġsafegu ards
Ġtra in
Ġm oi
ĠdÃ© s
Ġcle an
Ġbre ak
Ġchar ges
Ġpro jet
T er
ĠeuropÃ©en nes
Ġl ength
I OS
ie ux
Ġam Ã©li
olog ies
ĠC D
Ġlegal ly
Ġsec tions
ou te
Ã© l
199 7
se ments
Ġrecon na
on ial
Ġwar ning
ĠAng ola
occ up
mbuds man
oc ational
im port
Ġnouve aux
Ġun s
Ġcover ing
Ġstar ted
Ġguaran teed
c re
ran sition
c ast
Ġapply ing
ĠBe ijing
Ġsim ple
Ġb ound
Ġhuman ity
Ġseem s
a ide
ar ag
5 2
nel s
Ġj ou
Europe an
Ġs Ã©
Ġprohib ited
st er
c her
ĠW ater
Ġv en
Ġ ul
h ors
Ġex ports
Ġcap able
Ġbec oming
Ġcommunaut aire
S A
CR C
ĠP an
Ġt ent
ven cy
Ġint olerance
Ġproduc tive
ĠC ambod
Ã©t aire
Ġsafegu ard
ĠAl geria
ĠK azakhstan
Ġb ank
A u
Ġcust ody
or ig
ograph ic
ĠC ustoms
S im
ĠArab ia
Ġover come
ĠRes pon
ĠBri tish
Ġsec ured
ĠIA EA
ĠV enezuela
inc luding
Ġt end
Ġre cip
Ġn ames
Ġbe gan
teg rated
Ġdoub t
Recogn izing
Ġprepar ations
G iven
rob i
Ġdeliber ations
v i
Ġregular ly
Ġprol iferation
ai robi
Ġsemin ars
ĠUn iversal
ro om
ever theless
ĠT anz
Ġmar ginal
ter rorism
j e
Ġout lined
Ġcol lect
ĠJ oh
Ġp ending
Ġ6 2
r ons
Or ganiz
Ġexpand ed
rengthen ing
ĠJer usalem
ac ro
g le
Ġaccomp an
an c
Ġmobil ization
ĠlÃ©gisl ation
A b
Ġenvis aged
Ġsol di
accept able
y ers
ĠE uro
Ġcur ric
ĠO HCHR
Af ric
ĠCor r
4 1
Ġqu ot
H aving
a tif
Ġp p
ĠSlovak ia
ĠMove ment
Ġqual itÃ©
ro g
Ġlut te
Ġtour ism
Ġconstit utes
el ui
g ence
ĠPeace building
d iscrimination
Ġend or
ĠD es
M embers
rug uay
Ġter me
ol vency
Ġconsum er
According ly
ĠnÃ©goci ations
Ġcontin ent
er a
ĠS te
ĠR ed
Ġdep ri
Ġvulner ability
Ġpar ten
Ġgaran tir
ĠLeban ese
w are
Ġdecre ase
Ġexp ed
Ġf ron
ic arag
Ġreaff irmed
ag ency
em en
Ġs elon
D R
ĠF ound
ĠCoordin ator
Ġc ut
ra ising
l a
Ġfost er
Ġclaire ment
Ġtra ding
Ġrepl ace
pl o
ĠAd vis
Ġmin ors
ffic ial
Ġd oc
ĠCl osed
Ġcris es
Ġide as
ent re
ĠM ain
Ġt ur
ĠPalestin ians
Ġfarm ers
lÃ© ment
Ġloss es
Ġcho ice
Ġs Ã©rie
Imp lementation
Ġperiod s
Ġinte llectual
Ġcorrespon d
Ġpour rait
ĠM onday
ĠCh apter
Ġre ti
Ġvir t
Ġver ification
Ġd iv
Ġfoc al
v ador
ession al
obil ization
Ġcongrat ulate
ĠAssist ant
Ġmig rant
ocu ments
e ad
Ġdis abled
Ġd ed
Ġb at
ress ing
ĠG h
ĠL and
Ġequival ent
Ġcomp Ã©
Ġdisp utes
N on
Ġremerci er
Ġm iss
Ġprom pt
6 6
Ġfis heries
ĠF ourth
or row
Ġinst ead
uls ory
Ġb Ã©nÃ©
ri m
Ġce ase
lim ate
Ġdise ase
Ġsupp lies
Ġcoordin ating
Ġlo ad
Ġe lig
M ost
ĠRussi a
Ġla id
De velop
UNI CEF
ces sion
Ġdis ad
r as
Ġnot ing
Ġlast ing
Ġm otion
ĠMold ova
Ġadop ting
ĠInter governmental
p ren
ĠprocÃ©d ure
Ġmod alities
ap ac
N evertheless
Ġtest ing
ĠEx cell
ĠRes olution
ra d
Ã©n erg
Ġgu ide
ĠTanz ania
Ġbroad er
m un
Ġra ising
g a
Ġconsomm ateurs
M ay
Ġdirec ted
bo ok
Ġel se
Ġcharacter istics
G u
ĠBar b
Ġsub paragraph
Ġf ran
ĠK h
Ġimm ig
Ġinc idents
Ġpre dic
Ġlet ters
Ġbeh ind
Pro gramme
Ġul tim
8 0
Ġnombre ux
ĠCon ventions
ing ap
Ġv a
Ġno tice
ĠSt ud
Ġg ave
Ġs tim
Ġm ois
Ġconn a
Ġfav or
ild ren
on n
Ġf ront
ĠFound ation
____ ____
Ġst able
imb ab
r d
Ġnot hing
ĠSoci ety
Ġbe ar
Ġm ot
Ġ keeping
for me
Ã© gal
Ġconsolid ated
Ġgiv es
ĠF as
ĠAg riculture
Ġser ont
ĠrÃ© du
Ġfac ts
Ġreiter ated
ĠÂ «
Ġm oyen
j ets
ĠEU R
ĠC O
and um
Ġbal anced
Ġproper ly
Ġtop ics
Ġhighl ight
us h
Ġt rib
I ts
Ġundert aking
Ġrele vance
S G
Ġfo ot
Ġsign al
Ġfocus ing
ĠFor ces
P rop
Ġw oman
Ġcorrespon ding
Ġus es
Ġf it
Ġsa ving
9 6
com p
Ġdes crib
UN C
Ġper haps
Ġsome times
ous es
Ġor al
el lement
s en
Ġse arch
Ġpro gressive
Ġco ast
RA L
Ġconsider ations
Ġw ished
âĢ Ķ
Ġforth coming
Ġopen ed
Ġliber ty
Ġcomprom ise
Ġval uable
ĠU zbek
Ġcur ren
U R
sec tor
ist es
Ġref lects
ur su
imbab we
Un is
ĠB ody
p ir
T aking
ĠN airobi
Ã©nerg ie
Ġover sight
Ġpart ner
ingap ore
gan isation
Ġbec ame
Ġd Ã¨s
ĠD ay
ĠArmen ia
Ġsuff ered
B e
ĠvÃ© rit
Ġpre vail
emor andum
ĠD o
os ystem
ul ates
rend um
Ġimp ed
Ġtransfer red
ĠfÃ© lic
Ġ Åĵuvre
ĠM auritius
Ġdon ner
Ġbe aring
ate ur
re w
Ġman age
Ġjuridi que
Ġcoun sel
Ġdetain ed
Ġb ra
ĠV iet
Ġhelp ing
ri or
ĠCh inese
Ġobjec tion
Ġst abil
Ġexp licit
ĠÃ© nerg
Ġequ ally
Ġc elle
7 7
Ġwithdraw al
ĠO cc
Not es
Ġcall ing
re p
ount ry
ĠnÃ©cess itÃ©
S um
ĠExcell ency
Ġob vious
C an
Ġs w
Ġc elui
Ġc ul
ĠE lect
Ġar ch
ĠT ransition
Ġp ati
Ġ rou
DA W
ĠGuid elines
E ach
Ġrap porteurs
Ġv oir
Ġop tim
Ġinadequ ate
p read
Ġre b
riend ly
ĠS enegal
Ġmethod ology
ĠP ower
Ġfour n
Work ing
ati ble
En coura
ĠTunis ia
ĠUN O
Ġquestionn aire
Ġopp osition
Ġsy mbol
k ina
Ġthan ks
Ġrecogn izes
ind re
ĠAs semblÃ©e
ON UC
ĠS c
Document ation
Ġfa x
ĠCh ange
z ation
Ġfra ud
Res olution
Conc ern
Ġappear s
Ġint Ã©r
d am
Ġspons ors
Ġtoler ance
Ġinc lusive
Ġchemical s
o ke
ides pread
ĠHead s
ursu ant
ĠMes dames
d ation
ab ord
Ġb ul
Ġvot Ã©
Ġsuper vision
ĠPen al
omm un
ain st
ograph y
reng th
M in
Ã³ n
Ġflex ibility
Ġc ame
er ative
Ġdistin ction
ĠAss essment
ĠS ett
an ks
Ġshe l
C ons
und red
Ġmainten ant
Ġre jected
Ġcha que
g ression
Ġlarge ly
T r
am end
Ġexplain ed
Ġx enophobia
ĠChe mical
Ġupd ate
ĠPar is
Ġrep ly
Ġc ou
Ġinc en
ĠDire ctive
aut re
Ġpour su
Ġexc lusion
ill ance
Sim ilar
ĠdÃ©mocra tie
Ġprogram ming
Ġadjust ment
vision al
Ġban ks
Ġoper ate
ĠW eb
O L
Ġbarri ers
gra ding
Ġrelative ly
Reaff irming
Ġvari ety
Ġimpos sible
t out
un es
Ġtex ts
Ġsu re
Ġchang ing
Ġtem per
Ġplu sieurs
Ġacces sible
Ġv ale
Ġvol ume
Ġpot enti
Re g
ĠÃ©c rit
CO NF
Ġun f
ĠSal vador
ĠS am
Ġembar go
Ġ6 3
Ġrap ide
Ġmar itime
Ġl ost
P C
ĠFas o
ent e
Ġcompeti tiveness
Ġemploy ed
en sions
bur g
Ġind irect
Sec tion
be ing
Ġsou ha
Ġw idespread
ce land
Ġprem ier
Ġansw er
Ġwitness es
Ġ =
Q u
Ġse at
Ġdetain ees
Ġwid er
ste in
sc ale
Ġsoci Ã©tÃ©
Ġtre ated
re es
ĠV I
Ġse ts
Ġautor itÃ©s
Ġserv ing
Ġfisc al
Ġsoldi ers
ell ed
ĠO mbudsman
Ġheav y
ĠR ome
ar ter
ĠLat via
Ġwork s
Ġsugges tions
ĠN icarag
isp ens
G R
Ġent end
Ġinspec tion
Second ly
Ġtroop s
u sion
Ġdis ag
ĠD omin
ep t
ĠComp rehensive
Ġst rength
Ġcamp s
ut h
ĠN e
Ġreg ister
Ġs end
Ġcons ervation
Par ticip
Ġperspec tives
ti an
ĠCambod ia
Ġdis par
ĠspÃ© ci
ĠProc ess
Ġconv inced
Ġref ers
Ġv ia
Ġcap abilities
spec ific
ĠOcc up
Ġsche me
im es
Ġext r
Ġchang ed
in o
Ġs ides
al ed
Ġp apers
e urs
Ġm erc
Ġau gment
ĠS ou
Ġman aged
od ay
Ġquick ly
Ġincre ases
le ctions
4 3
ur ate
Ġk illed
Ġcom es
Ġsensi tive
Ġbelong ing
Ġtra va
H abitat
Ġcap it
A ust
I K
Ġsum mar
Ġno tification
Ġdis ability
Ġexpress es
Ġvis ant
O ri
l or
Ġenter prise
Ġf ear
Ġpre fer
Ġlar gest
Ġpri x
ia ison
Ã© v
in ations
Ġmar ked
Ġind ispens
Ġver b
Ġdemonst rate
AT ION
ribun als
ĠW ar
Ġcomm and
ĠU se
Ġacquis ition
at ch
amer oon
Ã© rer
Ġmin utes
Ġcomp ulsory
Ġcover s
ur ban
T E
Ġempower ment
Wel comes
P e
Ind eed
Ġinh uman
Ġconcur rence
Ġill ust
ĠPlan ning
Ġstar ting
ĠStrateg ic
Ġapp eals
u ri
Ġconsum ers
Ġarrest ed
il ib
are r
Ġs atell
Ġdis charge
ag ues
Ġprohib ition
I F
Ġjo ined
Ġon es
Ã® tre
c alled
Ġco Ã»
Ġp Ã©ri
Ġress ources
ĠU ruguay
Ġauc un
) ).
Ġdecent ral
Ġper tain
ra is
Ġsur tout
Ġhe aring
Ġfe ed
ĠY outh
Ġann ivers
Ġdev oted
Ġv ocational
Ġh omes
ĠCh ad
Ġsy n
Ġwor th
Ġd ig
Ġquan ti
Ġfe as
our nal
lo ad
r ich
Ġh os
Ġcertain es
ĠZ imbabwe
ĠF riday
p ol
Ġliber tÃ©
Ġsub s
P E
Ġanti cip
ig ure
Ġen f
Ġoffic er
Ġmand ated
Ġrepresent ing
z one
Ġcohe rence
f ire
C omp
Ġinteg rate
Ġg aps
ce an
Ġrel atives
re gion
ord re
Ġaut onom
Ġdeter ior
Ġrest e
o a
i hood
Ġd uration
Ġinvestig ate
Ġhelp ed
Ġro les
P L
Ġte aching
Ġun anim
Ġloc ation
Ġob ject
u ra
Ġconduc ting
Ġinter pre
Ġconf id
Ġpeace building
Ġex chang
Ġarbit rary
Ġexec ution
ĠAud itors
Ġin e
9 7
âĢĿ ;
ĠConstitution al
mb re
Ġcompeti tive
b order
Ġli quid
s erv
ĠS ch
Ġfa ith
9 0
h r
Ġex cessive
Ġwish ing
J une
educ tion
Ġe lles
Ġinc omp
le m
oc ation
Ġc ities
p id
Ġm acro
Ġharmon ization
ĠÃ©conom iques
il i
Ġrap e
Ġallow ing
Ġpos ed
Ġinternational e
Ġconsolid ation
in de
Ġcorpor ate
U ne
ĠUN AM
iss au
Ur ges
ĠT re
ĠO ECD
Ġtra ined
Ġuni form
Ġprom oted
og o
Ġinteg ral
t reatment
Ġcomplete ly
Ġparliament ary
Ġth ousands
Ġh om
4 2
ĠC omb
Ãīt at
Ġgu ard
O fficial
ĠS en
Ġf elt
Ġec osystem
h ttp
Ġdev ices
ĠRec ommend
Ġdetermin ing
it ary
Ġb oys
EN T
ĠS B
Ġp ath
ai x
ĠQ atar
r g
Ġopp os
Ġforum s
ĠS aint
Ġsl ow
ĠEm ployment
Ġse lection
Ġvoul ons
Ġun ion
Ġperform ed
ar itÃ©
Ġutil is
ĠUzbek istan
Ġindic ates
Ġrespons abilitÃ©
ĠIs land
Ġrele ased
Ġtit le
Ġflex ible
Ġdispos al
Ġn utrition
Ġt iens
Ġa vez
Ġb iological
ul l
ag o
Sum mary
Ġrest ruct
L i
al y
Ġdiscrimin atory
N or
v oy
ĠN PT
Ġproced ural
Ġneighbour ing
ĠH is
Ch apter
ĠAdvis er
Ġserv ed
s k
f e
ĠM us
Ġsix th
Ġviol ated
ĠTe am
Ġform at
Ġaccompl ish
Ġimport ante
e z
Tr ans
Ġst ages
ver si
ĠrÃ©pon se
Ġreproduc ed
k ers
si le
Ġpr Ã©s
in st
Ã©c onom
Ġterror ists
Ġmunicip al
loc ked
l ation
in formation
Ġexperien ced
re ment
6 5
ha ust
ĠO N
ĠUN ESCO
D es
ĠOver sight
duc t
ĠD raft
Ġpsych ological
g Ã©
ten stein
Ġche ck
ĠPl atform
Ġper mitted
G eneva
In v
Ġdecid es
Ġdef ine
Ġst ation
Ġmeasure d
Ġins olvency
ĠS ah
Ġar t
ĠSt ock
gr Ã¨s
ro c
N GO
Ġorganiz e
Ġconte x
ĠC limate
Ġstat ut
oc s
Ġr ational
enti als
Ġminist ries
Ġm ilit
Ġtra dition
ĠB er
ne y
Ġtrans national
Ġsurve illance
Ġcro issance
Ġthough t
Ġri g
Ġdegra dation
Ġcl ust
ind ust
Ġoff ers
Ġcitiz en
Ġjus qu
Ġdist rict
Chair man
Ġmin isterial
ĠEst onia
Th rough
Ġcitizens hip
ĠconsÃ©qu ent
ech tenstein
C oun
Ġunder st
C es
Ġre ve
ib ia
Ġmatern al
Ġra tif
ĠUNI F
aire d
Ġt enth
P ursuant
ti Ã¨res
Ġinnov ation
State ments
e ux
ĠF ield
Ġinvent ory
Ġ 000
Ġsu itable
ense mble
Ġrequ iring
ĠW HO
Ġb iod
Ġk ept
Ġsem ble
Ġch an
Ġtr y
" ,
Ġtravail leurs
Ġcont acts
Ġl ab
Ġsched ule
ĠPro gram
Ġda vantage
Ġst ocks
Ġdec ade
ic ing
Ġextra dition
Ġbien nial
Ġaut hors
ot es
Ġacknowled ged
ĠdÃ© t
ĠI N
um ber
x ic
S w
Ġne ither
ĠP rop
Ġrespec ted
Ġsix tieth
Ġc ity
Ġves sels
at ers
Ġinter d
Ġsouten ir
O p
ĠI celand
Ġresol ved
Ġcontinu ous
ĠT al
Ġbusiness es
ĠJama ica
ĠDef ence
ac ted
ĠGh ana
ul sion
Ġphenomen on
Ġintroduc ing
Ġdest roy
Ġdem obilization
Ġp ens
Ġpar lement
Ġinc ur
Ã¨ te
Ġrec ru
Ġform ulated
ĠCommit tees
Ġhazard ous
riv ate
Ġread ing
Ġinter view
Ġsee ks
Ġg es
Ġab road
u k
Ġaccord s
Ġadequ ately
ĠC C
Ġin put
T oday
Ġqual ified
aj ik
Ġmemb re
Ġdifferen ce
Ã® t
l oy
Ġdec line
an i
E L
ĠGu ide
B issau
ig ation
apac ity
Ġchar ged
Ġpass ed
ob jec
Ġexplan ation
Ġis ol
Ġrel iable
Ġsou thern
Ġmanag ers
Â °
Ġgreat est
Ġdim ensions
Ġfix ed
er tain
ĠIs sues
ĠNicarag ua
ĠD ocument
i ff
ra p
Ġex haust
Ġdraw ing
at al
Ġwork pl
ĠS ingapore
A ction
In ter
Ġ7 5
Ġreach ing
ĠBoliv ia
Ġcandid ate
Ġindust ries
Ġl ists
Ġnegoti ation
Ġdonn Ã©
ĠÃ©t abl
en ch
Ġfac ility
Ãª te
Ġbe g
ĠrÃ© un
ult ures
Ġcomm en
Ġdern ier
orient ed
Ġsu spec
an cies
W orld
OP S
ong ol
ĠIn stitution
Ġbre ach
Ġcolle agues
it age
Ġmin es
Ġsy mp
ĠMal ta
al ys
tit udes
Ġsign ing
ĠObs erver
Ġannivers ary
ĠBur kina
Ġfight ing
Ġclos er
ĠA ir
3 00
Ġdemand er
Ġfond ament
Ġsuccessful ly
Ġactuel lement
Ġlors que
ĠStand ard
TA R
ĠQ u
ĠTh ursday
Ġm oral
Mad ame
ĠW h
Ġm as
alle l
iterran ean
Ġour selves
ĠDec ree
Ġh ol
ĠspÃ©ci f
Ġfinan ced
ĠFin ance
y z
Ġindispens able
Ġp ill
Ġrem ote
Ġcohe rent
Ġconj unction
ĠSci ence
us sels
hib ition
Ġadmin ister
Ġdes cription
j ou
Ġsec t
Ġal lev
m i
ĠT reatment
Ġd rew
Ġen vironnement
rab udgetary
ĠsÃ» r
ĠMad am
ol onization
Ġallow s
Ġrenew able
u nder
law ful
Ġdra f
Ġfin ding
Ġ( âĢľ
e ared
re al
E st
Ġopinion s
Ġin stit
Ġsche mes
ient s
Ġold er
D F
Ġsuc ceed
B oth
ĠcrÃ© ation
Is rael
A meric
ur as
Ġspeak er
ri r
Ġpos s
ĠS ee
Ġdou ble
Consid eration
Ġclassif ication
Ġprofession als
cep tions
Ġadv anced
Ġvol ont
Ġhousehold s
Ġstaff ing
Ġa head
Ġunderst ood
Ġcomp uter
ĠM ul
Ġbu ilt
and on
mis sibility
Ġass ur
Ġfl ag
hi ri
Ġadvance ment
ĠIn tegrated
ĠJ e
est y
Ġsoulign er
Ġp aix
oz amb
ĠRel ations
Ġdev ice
ĠProf essional
h uman
ĠTransition al
Ġpro grÃ¨s
Ġlar ger
Ġst rug
p d
â Ī
Ġtransition al
Ġenlar gement
Ġrequest ing
qu ie
Ġinstruc tions
M ember
Ġevalu ate
F C
Ġrep atri
Ġd ivid
ag uay
ĠÃīt at
8 8
Ġag ed
Ġamb iti
Ġdom aines
Ġconstit ue
ĠO b
Ġentre pren
us p
Ġpres cribed
ĠDo ha
Ġaccording ly
Ġcru el
Fin ancing
F P
Ġfore sts
Ġmand atory
ien ne
los ure
Ġsor te
Ġdeath s
b ack
Ġs am
Ġm ill
Ġrel ate
Ġremar ks
Ġequ ity
ĠF AO
ear ing
Ġfunction al
Ġent ail
Ġl if
Ġges tion
oura ge
E ven
il iation
m ette
Ġsurve ys
lar gis
Ġgen eration
ĠdiffÃ©ren ts
if i
hiri ya
Ġgreat ly
Ġdisad vant
Ġro se
Ġtrans mission
6 00
tiv itÃ©
Ġth or
ĠAlban ia
ĠY emen
Ġvo ter
Ġprotocol s
Ġsub jects
ĠS ME
Ġshow ed
rg yz
T wo
Ġ <
Ġmor ning
Ġdeem ed
Ġdepri ved
ĠJama hiriya
Ġc ell
ang ible
Comm e
ĠP rac
p tions
vest ment
Ġag gression
Ġin side
ĠD ist
âĢľ (
tit ution
Ġen se
Ġcomp il
ĠSou thern
Ġh un
m osp
Ġmo tiv
Encoura ges
Ġjudge ment
Ġauc une
um n
S ource
UN EP
Ġst ay
E t
Ġb ure
Ġin ad
if ying
Ġremed y
cont rib
Ġenc oun
ĠM DG
Ġp auv
Ġimp ose
Ġst or
Ġter mes
Ġm ount
Ġcomm ence
sp ace
W h
Ġsou vent
Ġprem ises
d own
iv re
Ã¨ ve
Ġc ultures
Ġrepl aced
Ġconvic tion
Ġsaving s
Ġdern iÃ¨re
Ġdist ing
20 10
Ġav is
Ġaff aires
Ġau ra
ĠM at
lec ommun
ĠB l
Ġtransport ation
ĠLib yan
ĠIndepend ent
f ec
Y ou
20 11
G lobal
st en
ĠE SC
ĠG oods
ipp ed
ĠThe se
Ġles qu
ac ing
le y
Ġtoute fois
O b
Ġrenfor cer
Ġsur face
Ġtal ks
Ġdeux iÃ¨me
Ġtex te
Last ly
Ġmed ic
ĠprÃ© occup
greg ated
ag en
Ġav ait
Ġpos session
Ġst ream
Ġp ose
Ġout puts
Ġg l
Ġra ti
ĠÃ©t rang
ĠI P
er ais
4 00
ĠOccup ied
t ory
et ter
ĠC op
Ġcar bon
vance ment
ĠAr med
Ġex ists
re ctions
Ġch ance
ĠSix th
Ġassist ed
abit ants
Ġtemper ature
ĠT ajik
Ġdirec tives
ĠP unish
Ġfacilit ation
Ġaltern atives
Ġpor n
Ġdegra ding
Ġcoun sell
ĠLi echtenstein
On ly
isc rimin
Ġri en
E lle
em ment
Ġsub region
e xt
i tive
Ġinst ances
Ġanaly se
) ]
er re
Ġat titude
Ġover view
ĠW ednesday
ine ment
au ndering
Ġen force
T oute
ĠOp en
Ġun acceptable
amend ement
Ġdec larations
ĠSett lements
Ġapp arent
iss ant
ĠC ameroon
Q ues
ozamb ique
Ġincorpor ate
Ġpursu ed
Ġthor ough
Ġm ieux
ĠdÃ©cision s
Ġnegoti ating
Similar ly
Ġdu p
Ġsouha ite
Ġutil ization
n ote
Ġtrou ver
app lication
O ut
t ures
A F
Ġcertif icate
Em phas
Ġbelie ved
As s
Ġgen ocide
ret o
Ġtransf ers
Ġassess ing
ĠProtocol s
Ġent rust
Ġvis ited
Ġpros per
cep ts
ĠO uter
Ġregard less
Ter rorism
able ment
Ġdonn Ã©es
ĠR eduction
Ġinc ident
* ,
Ġt ables
ĠÃ© gard
ĠI mm
ĠR oy
S h
Ġrec omm
ll igence
Cont ents
ĠJ ournal
Ġfin ally
Ġpertain ing
is ant
. -
Ġ198 9
Ġus ually
i ments
Ġdepart ment
Ãª mes
largis sement
app ro
Ġal iment
Ġdi am
Ġcomp osed
Ġrece ip
M P
ongol ia
Ġa it
Ġrel ates
es ter
n elle
am ed
M O
e rendum
Ġc rop
Ġclar ify
Ġpar allel
Ġra tify
Ġpr isons
Ġmove ments
Ġm emorandum
Ġenf ants
ĠBr ussels
ĠB an
Ġcurren cy
duc ational
ĠDec ision
Ġprejud ice
Ġh al
Ġeffic ace
Six ty
Ġnot ably
ĠN ote
ou ti
ĠrÃ© p
Ġreg imes
Ġinj ury
ĠrÃ©sult ats
ĠE CO
Ġremin d
Ġconstit uted
ra h
ĠZ ambia
Ã ¯
Ġmulti ple
Mad am
m illion
om et
Ġstip ulates
ĠBen in
Ġasse t
Ġord inary
ĠG en
Ġform ed
Ġg rants
Ġth ing
ĠS ol
Ġarrange ment
Ġl abor
Ġre sid
Ġle quel
ĠF ran
ĠRe gion
Ġint Ã©g
i quÃ©
Ġqu arter
Ġens hr
IT RAL
rig endum
Ġm ur
Ġm oyens
ĠCoun ter
Ġb omb
Ġdynam ic
P roliferation
Ġexpl ore
Ġcont rolled
T akes
Ġdiver sif
Ġpub lique
as ions
Ġcustom ary
Ġpossib ilitÃ©
Ġt elle
Ġdec ades
Ġtr ying
Ġb ig
Ġinter action
Ġrest ra
ri ends
Ġcontin uation
ĠLisbon ne
le te
CO P
ff or
Ġregard ed
199 5
ĠLe ague
is ive
Ġaccompan ied
Ġtrans boundary
ou b
Ġacc red
ves tig
ond uras
Ġex iste
ĠnÃ©cess aires
ĠIn t
ĠÃ©t ant
ĠRo ad
ĠAr ms
Ġmo ving
Ġfree ly
Ġreview ing
Ġbeing s
Ġso ft
Can ada
Ġrestruct uring
m Ãªme
ussi an
Ġcons ists
Ġhar ass
Ġh undred
ĠAn ti
Am ong
Ġcomm end
Ġmod els
Ġme rely
B el
ĠM ilitary
Ġag ents
ĠdÃ©c id
f a
ĠD j
Ġreaff irm
ĠAb d
Ġremo val
Ġaff irm
li qu
ld er
k h
Ġchos es
Ġar ise
Ġcorre ction
Ġp un
Ġtele vision
ĠDevelop ed
Ġconte m
ĠcrÃ© er
Ġpr is
Ġ198 0
Ġretur ned
Ġmach iner
Dec ision
Ġin sec
om ic
um er
8 00
Ġmob ility
iv ing
8 7
Ġnew ly
vel ihood
gra de
Ġconvic ted
Ġpl ant
Ġrecogn izing
Ġacad emic
w ater
Ġcl ause
Ġfulfil ment
Ġpenal ties
ĠS chool
IN G
ĠEqu ality
Ġvo ie
Ġun certain
Ġt ribunal
ĠPar aguay
Con sequently
n Ã©
Ġobjec tif
Ġpermet tre
Ġ20 15
iz ations
G overn
Ġ6 5
Ġm m
li ke
ĠH ol
ad os
Ġdisapp ear
Ġen act
ĠAmend ment
Ġm ale
ĠMon etary
Ġman ual
ĠOrganiz ed
Ġche c
Ġde ployed
Ġs ell
Ġse ats
ĠG EF
t ent
in come
er ce
Ġdispl acement
Ġbeg un
ĠOper ation
F CCC
ri mer
ĠL es
S B
Ġb orn
ĠpÃ©ri ode
Inv ites
Ġproceed s
Ġcare fully
k et
Ch ina
Ġharm ful
Ġrestric ted
Ġdes ire
ĠB udget
Ġrapid ly
Ġm ap
Ġviol ent
Ġb all
Ġoccup ying
ĠLe ast
Ġorganiz ing
Ġpos sibilities
F ourth
re c
Ġdepend ent
Ġrec all
Ġfinance ment
Ġfav ourable
Ġgroup es
Ġb ench
Ġsubsid ies
Ġadjust ments
contrib uting
Ġremo ved
Ġdest in
ug g
ator ies
ci a
V I
Ġmar king
Ġann ually
arco tic
Ġnombre uses
ĠUNO DC
Ġpl atform
With in
Ġnear ly
int Ã©g
H ow
ĠKy rgyz
for cing
unte ers
ari o
Ġrenew ed
u ve
ĠI r
Ġtransmit ting
Ġstor age
ĠM ont
ĠTh at
ĠStatis tical
ib an
Ġlimit ations
Ġmax im
Ġcarri age
Ġdev raient
T ION
ĠNam ibia
Ġab andon
w ards
Ġocc asions
Ġreiter ate
Ġelig ible
Ġmeasure ment
0 2
as se
Ġproduc tivity
Ġnor mes
Ġevery thing
ĠE ar
ĠFore sts
Ġacc idents
os is
Americ an
Ġcont en
Ġquel que
ĠP erson
Ġden ied
ĠAcc ount
ĠG R
Ġact uelle
ĠMal i
Ġconven ing
Ġreflect ing
Ġper t
Ġbiod iversity
Ġsatell ite
Ġend ed
Ġreiter ates
Ġhy d
Ġmajor itÃ©
re et
0 3
Ġex act
J uly
ist r
Cor rections
Ġ198 8
Re gard
ĠV e
Ġtri ed
Ġex ig
Ġaddress es
Ġair space
ĠPan ama
CR P
Ġli velihood
ree k
Ã ¼
ĠO ut
ĠAd vancement
m oi
Ġp i
k ind
Ġex ac
Ġa usp
ot t
ĠTajik istan
A U
Ġrespond ed
Ġinvol ves
Recommend ation
Ġen orm
Ġpre sidential
Ġadap t
Ġann Ã©e
ĠC ross
Ġun ions
Ġnecess ity
Ġdim in
Ġrapp el
199 6
ir ates
Ġlink ages
ĠF ollow
N ovember
Ġmitig ation
0 5
hip s
E very
ĠInter im
Ġad he
J apan
Ġinj ured
Ġattemp ts
Ch ildren
Ġlaw yers
Ġjus tif
Ġdeep ly
Ġass ume
Ġdefin itions
ĠO IOS
Ġcred ibility
i ver
import ance
Ġallow ance
ib id
ĠThe re
Ġsector al
Ġpro jets
ĠprÃ©c is
r ating
Ġd os
b and
ĠAll iance
ĠMus lim
ĠM ozambique
Ġsou th
ĠDomin ican
Ġnor th
ĠM ig
Ġsatisf act
Ġemphas ize
b re
l ied
Ġunder lying
e k
Ã© lÃ©
Ġw age
Ġev ol
am as
Ġclaim ed
Ġsufficient ly
ĠTraffic king
Ġco al
ar ms
yp ri
mon th
ĠIn c
Ġ13 73
Ġin puts
Ġhistor ical
am Ã©li
Ġrepl ies
7 9
Ġissu ance
Ġpros pects
ad hÃ©sion
Ġsub missions
ĠCon f
Ġdisting u
ĠBal k
c ountry
Ġe pid
Ġappro ve
ĠS T
organiz ed
ĠCop enh
Par liament
Ġcer tification
Ġ3 00
T ur
Ġlear n
Ġpl ut
M IS
ĠArab ic
Ġcal end
Toute fois
Ġaccount able
Ġtrans form
Ġconsequ ence
pec tive
min ent
ĠdÃ©mocra tique
Ġhun ger
Ġc iv
ĠT uesday
ĠK ar
sh aring
Ġausp ices
HR C
Ġstress es
Ġsent enced
Ġcol lected
ĠAct ing
Ġp up
ur it
Ġt es
ash ing
Ġtra g
Ġ ut
Ġtax es
ct ure
aw i
Ġded icated
ĠM ONUC
Ġexclud ed
Ġdev rions
Ġoblig ed
dep th
S E
Ġprof it
Ġsuff er
Ġfrequ ently
Ġcounsell ing
Ġconcent ration
Ġemploy ers
ul ing
ĠThe y
Ġd il
Ġdef end
ĠBah rain
Ġcon cepts
Ġgrant ing
ĠrÃ© forme
in qu
o si
Ġobserv ation
Ġreduc tions
umb ered
ue ur
Ġw arm
Ġmother s
En fin
Ġto m
Ġinn oc
l ining
Ġass ure
Ġmarch Ã©s
Ġendeav our
ait ing
S elf
Ġexception al
ĠInter ior
0 1
Ġcirc ulation
Ġsay ing
Ġcoast al
Ġthe reto
ĠM et
ĠI T
ĠP overty
ĠIndust rial
n o
u ries
ĠdiffÃ© rent
Ġcommod ity
Ġjust e
ord inary
Ġrecomm and
ĠTur quie
Ġv acc
Ġinv ites
Ġliberal ization
ĠMed iterranean
ic t
Ġun ivers
Ġfil ed
Ġsimp lement
Ġprov ed
Ġje unes
Ġacknow ledge
Ġse as
Ġacc ident
7 00
Ġse venth
ĠG DP
Ġextr Ãªme
ou red
Ġprovid ers
erg ency
Ġcondem n
te en
Ġcomprom is
Ġnation aux
us s
mette z
a ul
vis ed
Ġaccomplish ments
Ġf ather
ĠG reek
Ġsupplement ary
w ana
ĠW P
ĠT ob
Ġenvironment ally
c ut
Ġund ers
elf are
Ġcohe sion
ĠL u
Ġpro pre
ri p
S D
ot yp
Ġat titudes
R WA
Ġp an
is se
ĠM IN
ĠH onduras
Ġdri ving
Ġproduc ers
Ġal ign
ĠDirector ate
ĠOrganiz ations
Ġen rol
ĠV II
Ġord ers
S eptember
ĠTal iban
ri que
h ut
Ġp ic
B C
P rom
Ġt iers
Ġ ;
Ġrelationship s
Ġimmig rants
Ġw ond
Ġtit re
Ġdis positions
ast rop
Ġdist ance
Ġconvention al
Ġsu s
Ġa ille
Ġessenti el
Ġmin isters
Ġclar ification
Ġtrans action
Ġwhere by
ĠRussi e
Ġincen tives
Ġcompris ing
ari ff
ot al
d ec
Ġcalc ulated
ĠUNC ITRAL
ĠCub an
reg ular
Ġext rabudgetary
Ġentire ly
UNC TAD
Ġmot or
er y
ĠM echan
Ġanaly tical
ĠTre aties
Ġhos til
Ġcred itor
st at
ĠUNM IK
E U
Wel coming
Ġinter ven
Ġdel ays
Ġgo es
B ased
Ġat mosp
int Ã©r
ĠTrans national
ĠR ad
S e
Ġdissemin ate
Ġdeleg ates
Ġsp ent
Ã©conom ie
ĠV ic
Ġjus tified
Ġe ux
ĠM ongolia
p he
ĠW ith
Ġcoun cil
Ġg ather
Ġpe tit
Ġdef ic
Ġwe ight
Ġd ia
Ġm ix
ound ed
iÃ¨me ment
ĠE M
ĠE ducational
Ġmachiner y
pp ed
Ġher itage
jec tion
ĠEm irates
Ġs il
Ġarbit ration
A ct
ĠÃ©nerg Ã©
er ted
Ġnor thern
indust rie
Ġsepar ation
ann Ã©e
Ġc rimin
ance ll
em in
ĠJ u
Ġto xic
ci ve
Re view
Ġar my
Ġestabl ishes
ĠH ague
9 3
C urrent
ĠFac ility
Ġequ ipped
Ġclaim ant
ĠintÃ©r Ãªts
Ġporn ography
Ġnecess arily
Ġfound ation
ric ts
. .
ĠInd ian
Ġense mble
Ġcat astrop
por ters
Ġenshr ined
Ġpresent s
our se
Ġfinanci Ã¨re
Ġ5 00
est ed
Ġm i
Ġfacilit ated
Ġthere of
Ġreceip t
Ġrespon ding
Ġman aging
Ġlib re
Ġdes i
Ġst abilitÃ©
Ġadminister ing
Ġsal ary
Ġor ally
Ġpre val
ag enda
Ġt ell
Ġthe mes
ub a
Ġannoun ce
re y
Ġdism iss
Ġt angible
Regard ing
am i
Ã¨ ne
Ġtack le
Ġcondu cive
li ers
ĠFor mer
Ġob ten
Ã© di
Ġr ang
ĠB usiness
ots wana
ok ed
Ġspe ech
Ġappreci ate
ĠEqu al
ĠO S
ĠprÃ©c Ã©d
Ġrein force
ĠT ogo
O bs
Ġth in
ĠNig er
P P
ĠE d
Ġrefer ring
ĠConsult ative
Ġste ad
Ġthere on
Ġder ived
enh ouse
em y
Ġelabor ation
Ġmobil ize
ig ne
ec hes
Ġj am
Ġexpect ations
Ġconsci ence
Ġa x
mun ition
asc ar
ĠCount ry
Ġcho ose
ib outi
Ã¢ ce
Ġra d
a ution
ac itÃ©
ĠInspec tion
Su pport
Ġstand ing
Ġcontex te
Govern ing
Ġharass ment
Ġra isons
r Ã¨
Ġcooper ative
Ġhand s
Ġtim et
7 5
ĠH abitat
Ġoutre ach
Ġmon etary
Ġun ity
Ġaille urs
Ġsh ipp
Ġun lawful
ou l
aut Ã©
ac o
Ġv iable
p oint
Ġad ults
Ġinst ruction
ĠThe ir
DA F
Ġro ot
ag ascar
Ġnever theless
w h
Ġgener ate
Ġpro jected
Ġfin e
Ġdef enders
ĠÃ© lev
ĠW elfare
Ġsignific ance
Ġb ill
Ġqu ant
Ġg ains
n ov
r ange
Ġa qu
Ġmethod ologies
Ġlo ans
im bur
Ġc ensus
al i
util isation
ĠS ales
ĠCh ris
Ġsign if
Ġsu ite
Ġprincip es
heure usement
Ġbrief ings
in ational
Ġconf l
Ġvra iment
Ġint ends
Ġparticip atory
ĠN os
Ġentend u
Ġem pl
F igure
Ġform ulate
in der
Ġa ide
ĠrÃ©al itÃ©
Ġc ependant
in f
Con vention
Ġas pir
Ġmut ually
i leg
Ġstrug gle
Ġput ting
Ġdead line
Ġn ar
ex am
Ġdisadvant aged
ĠViol ence
Ġpres erve
Ġint Ã©rieur
sector al
Ġfirm ly
ĠrÃ©al is
ĠSte ering
Ġab uses
Ġus er
is sement
Ġtr uly
is ite
Comm un
T out
id ad
riv ation
Ġde tec
ti en
Ġref erendum
Ġstrong er
Ġobtain ing
ep loy
R apporteur
rac ted
ĠSah ara
de velop
Ġnew s
Ġurg ently
ib les
alys is
S ign
Ġapplic ant
Ġs ample
ut ants
ĠM art
Co operation
ut ral
gisl ative
re ndre
Ġtom orrow
Ġs ales
ate ver
Ġinf ring
at re
Ġp ren
it uation
Ġhosp it
CC D
Ġtri als
hol m
Ġrati o
objec tif
Ġenorm ous
Ġpra tique
ĠTer rorism
Ġt on
ĠFac ilit
versi ties
Ġcl air
Ġwe alth
Ġjam ais
Ġdiffic ile
oles e
Ġopp osed
Ġf ruit
u Ã©
ici aries
U L
Ġs qu
n ous
Ġchange ment
Ġv ary
Ġw aters
Ġconv ient
Ġloc ations
Ġse ule
) /
Un fortunately
res h
Ġelimin ating
Ġmacro economic
g eting
en sive
Ġ ,
P ublic
Ġeas y
Ġtra ck
Ġspe eches
Ġc ourage
Ġprovin ces
al ien
Ġwilling ness
H er
' .
Ġintensif y
Ġrev ital
com pl
Ġunder lined
ĠTurk men
ĠIn vestment
Ġdiscuss ing
ĠD i
Ġurg ency
F rance
eu ros
Ġs port
Ġmas sive
r ator
Ġprovin cial
ĠApp eals
Ġorgan isation
ar k
Ä ĩ
The ir
ĠSME s
Ġsent ences
Am end
Ġbec omes
Ġdou te
Ã© largissement
n et
Ġtransl ation
Ġdef er
Ġactiv itÃ©s
R D
Ġentrepren eurs
ist ing
s on
Ġmonth ly
ffor ts
Ġobjec ts
Ġpert in
ĠIn te
ĠO ff
hut an
Ġse ized
Ġpar ler
Afric an
Ġgener ated
Ġdeb ates
ĠGre en
G C
g ue
ul um
Ġar re
Ġp age
Ġnorm ally
ĠPar ticip
Ġreven ue
Ġsoft ware
p ersons
Is lamic
Ġprot Ã©g
Ġoff enders
Ġinqu i
Ġcul tiv
Ġad missibility
Ġrem ove
Ġcontr Ã´
ĠU r
av oir
we alth
Ġqu and
Ġdifficul ty
Ġannex es
Ġmanufact ure
Ġe astern
Ġchos en
ph one
Ġnational es
Ġrepatri ation
Ġapp rou
Ġhor iz
Ã©p end
Ġentrust ed
ut able
c Ã©
ĠS ir
7 2
ĠG ab
Ġappro che
op ted
ĠStand ing
Ġcontract ual
Ġw all
Ġn uc
ĠM igration
ĠR ight
pp ing
Ġplut Ã´t
Ġpar ame
it aire
Ġl ot
Ġrou te
uel s
Ġexpand ing
Ġelse where
Me eting
Ġmunicip alities
ĠextrÃªme ment
Ġl Ã©g
Ġpost pon
ol an
ĠH arm
Ġt ank
Ġprogram s
ĠAc tivities
Ġconven e
Ġf ont
ĠFore st
Ġinform ations
Ġsusp ended
ne ver
Ġsl ight
Ġh uge
Ġen qu
ĠA h
ĠM oh
a ise
ĠO ne
ĠIn vestig
Ġf ill
Ġro b
ĠMa urit
Ġl iaison
o ok
Ġre ndre
Ġme ant
ur b
ĠCl ass
Ã©gal itÃ©
c ess
assif ication
op ol
Ġclust er
Coun cil
Organiz ation
si zed
Ġv i
Ġv ast
ud a
Ġdep rivation
al est
ij i
Ġsa is
aff aires
Ġdec isive
Ġlim itation
Ġsurv ival
Ġd rop
Ġd ates
Me asures
Ġalleged ly
UN FPA
Ġdes ertification
Ġb rid
abl ishment
u ment
p ted
Ġim ports
Ġstrict ly
Ġerad icate
ĠF reedom
l aim
lan tic
n on
ĠD urban
Ġinterd epend
Ġauthor ization
Ġmondial e
Ġl ies
inde x
Ġen su
Ġtransparen ce
âĢĿ )
Ġatt ach
w enty
im m
Ġhe art
ĠH ong
ĠRepresent atives
Ori ginal
Ġlo oking
Ġen forced
ĠPro hibition
V ous
Ġ â
Ġpo orest
Ġad ult
Ġdern iÃ¨res
Ġeval uations
Ġsuff is
ec ause
Ġpup ils
Ġc elles
vant ages
Ġwhere as
Ġpattern s
ĠP oll
Ġdep ends
rin king
Ġcri tic
Ġcont ents
ĠE xt
ĠF ifty
ĠC ulture
Ġfind s
Ac tivities
U M
Ġconstitu ent
Ġrapide ment
Ġ9 8
ĠrÃ©pon dre
Ġre imbur
Ġestim ate
Ã© ric
Ġl iteracy
ri ment
E E
Ġinter active
Ġamount ed
9 00
id ing
Ġconsolid ate
Ġreg ulated
ĠbÃ©nÃ© fic
ing uis
Ġab sten
Ġdraf ted
H A
7 4
Ġemphas izes
Reaff irms
ord in
Ġris que
it ored
ĠDj ibouti
Ġpati ents
Ġconnec ted
Ġ20 20
Ġcompar ison
ĠAt omic
Ġres erve
af ter
et he
Ġcomm ended
re ts
Ġout set
ĠIn formal
Ġbudg Ã©taire
z ing
Ġc her
ĠG ra
Ġconf isc
Ġenrol ment
Ġcontra ire
ĠC ypri
ĠcompÃ© ti
Ġthere in
Ġcarri er
ĠconsÃ©qu ences
ret Ã©
ad ian
Ġvolont Ã©
> .
rib ution
Ġpurch ase
de f
Ġpermit s
ĠÃ© l
Ġmod ifications
ĠdÃ©f ense
Ġred eploy
ent es
m ans
Ġvis a
F OR
ĠF DI
Ġsusp ension
Ġorient ation
Ġinh abitants
l ure
Ġas sembly
Ġundermin e
Ġind ication
d en
ĠI f
enti eth
U S
rÃ© es
Ġfor t
d es
Ġstip ulated
Ġvill age
itiz ens
Ġincur red
ĠR io
Ġcred itors
Ġsubstanti ally
Ġimp erative
Ġw ind
Re gional
Ġsatisfact ory
ĠPunish ment
Ġt els
Ques tion
Ġdo or
v Ã©
it ative
ĠR ule
Ġass umed
Ġendor sement
Ġcomplement ary
session al
ĠSur vey
Ġencoun tered
M arch
Ġpresent ations
Ġkind ly
in stitution
Ġpropos es
Ġconcer ted
Ġremerci e
Ġbuild ings
Ġrec alls
Ġmon itored
Ġcomb ination
Ġprecise ly
Ġf ish
S p
dic tions
Ġo zone
Ġfe atures
k es
Ġrap ports
Ġsupp lÃ©ment
oi res
intÃ©r Ãªt
Ġimm un
Ġmiss ing
ud ence
Ġhosp ital
Ġdist ricts
Ġelectric ity
Ġtest ed
Ġposs ess
Ġultim ately
G E
Ġpregn ant
ul ent
ĠrÃ©du ire
Ġbure auc
Ġou ver
ĠStand ards
Ġspec ies
F R
ĠKyrgyz stan
Ġm ist
Ġimp ly
ĠG ren
Ġabsolute ly
Ġpuis se
Ġgre enhouse
et ween
Ġv ois
UN HCR
Ġacqu ired
Ġremin ded
Ġoper ative
Ġin tim
Ġcod es
Ġk il
Ġmil iti
Ġfe es
Ġbenef iciaries
ak a
Ġlors qu
Ġmal aria
Ġli able
ĠdÃ©c laration
ĠdiffÃ©rent es
Ġcon vey
ĠrÃ© form
Ġcompar ative
ult inational
Ġmod ified
Ġmeaning ful
] .
Ġsolid aritÃ©
Ġcar act
ĠP aper
Ġdep ending
ĠAnn ual
T est
a ur
de red
Ġref us
Ġpr on
Ġsyst Ã¨mes
ec i
ĠBarb ados
p ost
Ġcease fire
Ġde par
ĠMad agascar
ashing ton
D o
Ġde vant
Ġhop es
Ġcontrib uer
ĠA C
ĠItal ian
re otyp
Ġcol our
Ġindic ator
Ġanticip ated
si ves
ĠD el
Ġconsist ing
ĠN ord
Ġwant ed
Ġd ur
Ġsim ult
Ġexclusive ly
Ġun p
ĠF onds
Ġmer its
Ġgain ed
d ire
Ġpre uve
Ġsugges tion
Ġprevent ed
iew s
Ġclass es
ĠDist rict
o res
c le
Ġe ighth
ab in
Ġmod ification
Ġeas ily
Ġprov ince
ĠrÃ© jou
ethe less
elf th
EP AD
ĠT able
Ġdig ital
Ġf ile
Ġrest ore
ĠMechan ism
ond on
an nes
Ġinc idence
Ġc hers
Ġgouver nements
Ġvill ages
Ġjournal ists
Ġfondament aux
Ġw ording
Ġla y
Ġph r
ĠS a
ĠcollÃ¨g ue
Ġwrong ful
Re ports
Ġd ict
IN F
Ġpregn ancy
av ons
Ġnav igation
Ġpers istent
l aundering
ane ous
ĠMDG s
Ġtr uth
Ġv ide
ester day
a ult
A pril
Ġacc urate
ĠAd option
Ġapp el
ĠRac ism
Ġfron tiÃ¨res
Ġcomp lic
Ġhand ling
Ġinc ons
Ġla mp
Ġdeb tor
7 1
am m
ord ination
pd f
Ġch aired
Al igned
or ne
Ġpe ux
ĠCommon wealth
Ġprob ably
ĠSer ies
Ġinqu iry
Ġnuc lÃ©
Ġent ra
with standing
Ġm Ã©c
Ġst atute
T R
Li ke
u ber
Ġensure d
Ġgra titude
orig inal
7 6
Ġreg istry
Ġcontinu er
O ctober
us se
c ons
E ast
Ġproduc ing
Ġpro of
Ġro ll
Ġsole ly
ce ived
Ġle aving
Ġacqu ire
qu al
Ġenc omp
Ġencomp ass
Ġend ing
Ġmeille ure
Ġparent al
Ġfond amental
ĠD C
Ġcont am
t rial
Ġanalys es
Ġcomment ary
On ce
ack ground
Ġresident s
Ġexplicit ly
Ġpro ven
Ġsystem atically
Ġf irms
Ġreported ly
Ġco erci
Ġexpress ly
Ġb is
hol der
ĠStock holm
St rengthening
an m
Ġconv ain
Ġdef ining
ĠOS CE
qu et
Ġconc iliation
9 5
Ag ency
Ġpro spec
ĠrÃ© se
Ġsummit s
ĠA S
Ġh us
Ġargu ments
Ġ +
Ġguid ed
if ier
Ġobserv ance
ce ans
ĠT ok
Ġfound ations
ĠB otswana
ex istence
Ġir res
le b
ĠS A
ĠAr bit
Ġhealth y
Ġadv ances
u it
jud icial
al a
Y et
htm l
Ġuni versities
Ġexp ulsion
Ġdestroy ed
Ġparame ters
c ul
Ġmanifest ations
Ġbureauc ra
Ġreaff irms
ĠWork shop
Ġhead ing
li quer
ĠTob ago
j a
An n
ĠCommun autÃ©
te mps
Ã ±
r at
Ġsav ons
in ance
ĠMon aco
Ġpro ve
Ġnegoti ated
re z
C ependant
N ow
en ger
Ġsubmit ting
Ġcons ul
er o
Ġvis ible
Ġsy nerg
ĠUS D
od es
Ġco hÃ©sion
Ġvo ice
ĠIl licit
D B
ĠCommun ications
Ġperson ne
ent ed
Ġm iddle
Ġrep ar
ĠrÃ©g ime
Ġconsider ably
ĠIn s
Ġiniti ate
ĠEm ergency
k er
Ã¨ le
Ġinequ ality
Ġprosper ity
ĠA li
Ġext ending
Ġir re
y e
Ġfact o
Ġland s
Ġconting ent
ĠComb at
ĠBalk ans
Ġconsist ently
anm oins
ab a
ĠTurkmen istan
Ġgr Ã¢ce
Ġinves tis
Ġp endant
Ġfra g
Ġobstac le
Ġpub lish
Ġclos ure
Ġapp elle
ric ultural
Ġt abled
ec ted
a tifs
Ġsc en
Ġintegr ating
8 5
Ġf le
Ġgovern ed
Ġverb ale
Ġt y
Ġdi verse
Ġrepl acement
ens ity
Ġsomm et
M ain
an cer
Ġassur ances
ĠDis aster
Ġquot as
ĠInstitution s
Ġlegitim acy
Ġadopt Ã©
eng agement
ĠO DA
Ġno tion
Ġhistor ic
Ġindic ating
ĠfÃ©lic iter
Ġstand s
Ġconsist ency
D is
Ġa y
rib utions
Ġab or
ag riculture
Ġout line
Ġqual ifications
Ġquan tit
Ġinten sive
Ġt un
ĠB ranch
Ġexchang es
cipl inary
Ġwas tes
B ecause
ĠSt rip
erv es
