{
  "version": "1.0",
  "truncation": null,
  "padding": null,
  "added_tokens": [
    {
      "id": 0,
      "content": "<|endoftext|>",
      "single_word": false,
      "lstrip": false,
      "rstrip": false,
      "normalized": false,
      "special": true
    }
  ],
  "normalizer": null,
  "pre_tokenizer": {
    "type": "ByteLevel",
    "add_prefix_space": false,
    "trim_offsets": true,
    "use_regex": true
  },
  "post_processor": {
    "type": "ByteLevel",
    "add_prefix_space": true,
    "trim_offsets": true,
    "use_regex": true
  },
  "decoder": {
    "type": "ByteLevel",
    "add_prefix_space": true,
    "trim_offsets": true,
    "use_regex": true
  },
  "model": {
    "type": "BPE",
    "dropout": null,
    "unk_token": null,
    "continuing_subword_prefix": null,
    "end_of_word_suffix": null,
    "fuse_unk": false,
    "byte_fallback": false,
    "ignore_merges": false,
    "vocab": {
      "<|endoftext|>": 0,
      "!": 1,
      "\"": 2,
      "#": 3,
      "$": 4,
      "%": 5,
      "&": 6,
      "'": 7,
      "(": 8,
      ")": 9,
      "*": 10,
      "+": 11,
      ",": 12,
      "-": 13,
      ".": 14,
      "/": 15,
      "0": 16,
      "1": 17,
      "2": 18,
      "3": 19,
      "4": 20,
      "5": 21,
      "6": 22,
      "7": 23,
      "8": 24,
      "9": 25,
      ":": 26,
      ";": 27,
      "<": 28,
      "=": 29,
      ">": 30,
      "?": 31,
      "@": 32,
      "A": 33,
      "B": 34,
      "C": 35,
      "D": 36,
      "E": 37,
      "F": 38,
      "G": 39,
      "H": 40,
      "I": 41,
      "J": 42,
      "K": 43,
      "L": 44,
      "M": 45,
      "N": 46,
      "O": 47,
      "P": 48,
      "Q": 49,
      "R": 50,
      "S": 51,
      "T": 52,
      "U": 53,
      "V": 54,
      "W": 55,
      "X": 56,
      "Y": 57,
      "Z": 58,
      "[": 59,
      "\\": 60,
      "]": 61,
      "^": 62,
      "_": 63,
      "`": 64,
      "a": 65,
      "b": 66,
      "c": 67,
      "d": 68,
      "e": 69,
      "f": 70,
      "g": 71,
      "h": 72,
      "i": 73,
      "j": 74,
      "k": 75,
      "l": 76,
      "m": 77,
      "n": 78,
      "o": 79,
      "p": 80,
      "q": 81,
      "r": 82,
      "s": 83,
      "t": 84,
      "u": 85,
      "v": 86,
      "w": 87,
      "x": 88,
      "y": 89,
      "z": 90,
      "{": 91,
      "|": 92,
      "}": 93,
      "~": 94,
      "¡": 95,
      "¢": 96,
      "£": 97,
      "¤": 98,
      "¥": 99,
      "¦": 100,
      "§": 101,
      "¨": 102,
      "©": 103,
      "ª": 104,
      "«": 105,
      "¬": 106,
      "®": 107,
      "¯": 108,
      "°": 109,
      "±": 110,
      "²": 111,
      "³": 112,
      "´": 113,
      "µ": 114,
      "¶": 115,
      "·": 116,
      "¸": 117,
      "¹": 118,
      "º": 119,
      "»": 120,
      "¼": 121,
      "½": 122,
      "¾": 123,
      "¿": 124,
      "Â": 125,
      "Ã": 126,
      "Ä": 127,
      "Å": 128,
      "Æ": 129,
      "Ç": 130,
      "È": 131,
      "É": 132,
      "Ê": 133,
      "Ë": 134,
      "Ì": 135,
      "Í": 136,
      "Î": 137,
      "Ï": 138,
      "Ð": 139,
      "Ñ": 140,
      "Ö": 141,
      "×": 142,
      "Ø": 143,
      "Ù": 144,
      "á": 145,
      "â": 146,
      "ã": 147,
      "ä": 148,
      "å": 149,
      "æ": 150,
      "ç": 151,
      "è": 152,
      "é": 153,
      "î": 154,
      "ï": 155,
      "Ċ": 156,
      "Ġ": 157,
      "Ģ": 158,
      "ģ": 159,
      "Ĥ": 160,
      "ĥ": 161,
      "Ħ": 162,
      "ħ": 163,
      "Ĩ": 164,
      "ĩ": 165,
      "Ī": 166,
      "ī": 167,
      "Ĭ": 168,
      "ĭ": 169,
      "Į": 170,
      "į": 171,
      "İ": 172,
      "ı": 173,
      "Ĳ": 174,
      "ĳ": 175,
      "Ĵ": 176,
      "ĵ": 177,
      "Ķ": 178,
      "ķ": 179,
      "ĸ": 180,
      "Ĺ": 181,
      "ĺ": 182,
      "Ļ": 183,
      "ļ": 184,
      "Ľ": 185,
      "ľ": 186,
      "Ŀ": 187,
      "ŀ": 188,
      "Ł": 189,
      "ł": 190,
      "Ń": 191,
      "Ġt": 192,
      "on": 193,
      "Ġa": 194,
      "he": 195,
      "in": 196,
      "re": 197,
      "ti": 198,
      "Ġthe": 199,
      "en": 200,
      "Ġo": 201,
      "er": 202,
      "es": 203,
      "tion": 204,
      "Ġp": 205,
      "Ġof": 206,
      "Ġc": 207,
      "or": 208,
      "Ġs": 209,
      "nd": 210,
      "al": 211,
      "it": 212,
      "is": 213,
      "Ġd": 214,
      "Ġin": 215,
      "ed": 216,
      "an": 217,
      "at": 218,
      "Ġand": 219,
      "ent": 220,
      "ar": 221,
      "Ġf": 222,
      "ation": 223,
      "Ġw": 224,
      "ro": 225,
      "Ġto": 226,
      "ing": 227,
      "Ġre": 228,
      "Ġb": 229,
      "le": 230,
      "ou": 231,
      "Ġm": 232,
      "ic": 233,
      "om": 234,
      "ec": 235,
      "ment": 236,
      "Ġl": 237,
      "ve": 238,
      "Ġe": 239,
      "il": 240,
      "as": 241,
      "Ġth": 242,
      "Ġn": 243,
      "ĠC": 244,
      "si": 245,
      "ra": 246,
      "ce": 247,
      "Ġde": 248,
      "Ã©": 249,
      "Ġh": 250,
      "Ġpro": 251,
      "Ġfor": 252,
      "Ġcon": 253,
      "ri": 254,
      "ol": 255,
      "st": 256,
      "ĠS": 257,
      "ur": 258,
      "Ġon": 259,
      "qu": 260,
      "Ġbe": 261,
      "te": 262,
      "ly": 263,
      "Ġthat": 264,
      "ter": 265,
      "se": 266,
      "omm": 267,
      "ĠA": 268,
      "ts": 269,
      "im": 270,
      "ul": 271,
      "op": 272,
      "un": 273,
      "The": 274,
      "ir": 275,
      "Ġas": 276,
      "ĠP": 277,
      "res": 278,
      "Ġg": 279,
      "ations": 280,
      "por": 281,
      "Ġis": 282,
      "ver": 283,
      "ate": 284,
      "00": 285,
      "et": 286,
      "Ġ(": 287,
      "ith": 288,
      "Ġsu": 289,
      "id": 290,
      "Ġ2": 291,
      "ac": 292,
      "ĠM": 293,
      "Ġwith": 294,
      "Ġit": 295,
      "ity": 296,
      "ut": 297,
      "gh": 298,
      "sion": 299,
      "ab": 300,
      "ad": 301,
      "Ġpar": 302,
      "Ġen": 303,
      "Ġac": 304,
      "Ġ1": 305,
      "ci": 306,
      "ff": 307,
      "ĠI": 308,
      "ot": 309,
      "port": 310,
      "Ġby": 311,
      "em": 312,
      "Ġal": 313,
      "oun": 314,
      "ld": 315,
      "us": 316,
      "ion": 317,
      "Ġle": 318,
      "ĠU": 319,
      "Ġv": 320,
      "Ġst": 321,
      "Ġor": 322,
      "Ġex": 323,
      "um": 324,
      "el": 325,
      "ĠN": 326,
      "ain": 327,
      "ers": 328,
      "tic": 329,
      "Ġla": 330,
      "our": 331,
      "âĢ": 332,
      "Ġres": 333,
      "ational": 334,
      "ĠE": 335,
      "her": 336,
      "ren": 337,
      "Ġan": 338,
      "ĠR": 339,
      "ĠG": 340,
      "Ġqu": 341,
      "vel": 342,
      "end": 343,
      "Ġwh": 344,
      "est": 345,
      "ge": 346,
      "uc": 347,
      "ess": 348,
      "tive": 349,
      "ud": 350,
      "Ġim": 351,
      "ow": 352,
      "ĠComm": 353,
      "Ġare": 354,
      "ist": 355,
      "iti": 356,
      "Ġat": 357,
      "am": 358,
      "pp": 359,
      "Ġ200": 360,
      "Ġad": 361,
      "ĠD": 362,
      "ure": 363,
      "ay": 364,
      "ant": 365,
      "Ġu": 366,
      "os": 367,
      "ould": 368,
      "ary": 369,
      "ance": 370,
      "ig": 371,
      "iz": 372,
      "ill": 373,
      "oc": 374,
      "ution": 375,
      "ĠUn": 376,
      "th": 377,
      "tern": 378,
      "ĠSt": 379,
      "pec": 380,
      "and": 381,
      "ited": 382,
      "ous": 383,
      "ak": 384,
      "ie": 385,
      "Ġne": 386,
      "ch": 387,
      "ans": 388,
      "od": 389,
      "velop": 390,
      "Ġcont": 391,
      "Ġsh": 392,
      "Ġnot": 393,
      "ber": 394,
      "Ġcom": 395,
      "ven": 396,
      "Ġwe": 397,
      "Ġits": 398,
      "ments": 399,
      "ore": 400,
      "ount": 401,
      "me": 402,
      "ork": 403,
      "ther": 404,
      "gra": 405,
      "for": 406,
      "Ġinc": 407,
      "ĠT": 408,
      "rou": 409,
      "rom": 410,
      "Ġun": 411,
      "ted": 412,
      "sid": 413,
      "ĠF": 414,
      "Ġch": 415,
      "ission": 416,
      "ated": 417,
      "Ġme": 418,
      "Ġag": 419,
      "if": 420,
      "lic": 421,
      "ich": 422,
      "Ġr": 423,
      "ire": 424,
      "Ġimp": 425,
      "Ġcomm": 426,
      "over": 427,
      "Ġwas": 428,
      "eral": 429,
      "Ġha": 430,
      "ial": 431,
      "ep": 432,
      "ates": 433,
      "rop": 434,
      "Ġwhich": 435,
      "ĠUnited": 436,
      "Ġfrom": 437,
      "ĠCon": 438,
      "Ġreg": 439,
      "ard": 440,
      "Ġapp": 441,
      "ia": 442,
      "ternational": 443,
      "ĠB": 444,
      "form": 445,
      "Ġdes": 446,
      "Ġthis": 447,
      "Ġet": 448,
      "all": 449,
      "ĠÃ": 450,
      "pl": 451,
      "ĠO": 452,
      "able": 453,
      "Ġhave": 454,
      "ap": 455,
      "Âł": 456,
      "Ġdevelop": 457,
      "Ġall": 458,
      "lement": 459,
      "ities": 460,
      "Ġprov": 461,
      "ord": 462,
      "Ġj": 463,
      "ies": 464,
      "Ġdis": 465,
      "so": 466,
      "eneral": 467,
      "igh": 468,
      "ust": 469,
      "ĠNations": 470,
      "Ġhe": 471,
      "iv": 472,
      "ĠH": 473,
      "tee": 474,
      "ub": 475,
      "Ġrec": 476,
      "tions": 477,
      "ces": 478,
      "In": 479,
      "Ġpl": 480,
      "Ġcount": 481,
      "ons": 482,
      "ittee": 483,
      "Ġhas": 484,
      "Ġso": 485,
      "'s": 486,
      "Ġtheir": 487,
      "min": 488,
      "Ġcomp": 489,
      "ision": 490,
      "Ġper": 491,
      "Ġsec": 492,
      "nder": 493,
      "Ġri": 494,
      "cial": 495,
      "Ġacc": 496,
      "Ġpre": 497,
      "Ġwill": 498,
      "tiv": 499,
      "ild": 500,
      "Ġco": 501,
      "urop": 502,
      "overn": 503,
      "per": 504,
      "ĠCommittee": 505,
      "Ġpol": 506,
      "Ġles": 507,
      "uman": 508,
      "ĠL": 509,
      "ence": 510,
      "ĠÃł": 511,
      "Ġrigh": 512,
      "ue": 513,
      "ty": 514,
      "lud": 515,
      "Ġse": 516,
      "ĠSec": 517,
      "Ġeff": 518,
      "ace": 519,
      "Ġy": 520,
      "ress": 521,
      "ble": 522,
      "pport": 523,
      "red": 524,
      "gan": 525,
      "ct": 526,
      "ĠIn": 527,
      "Ġpe": 528,
      "ĠW": 529,
      "gram": 530,
      "Ġconc": 531,
      "ne": 532,
      "Ġar": 533,
      "Ġwork": 534,
      "Ġunder": 535,
      "Ġalso": 536,
      "age": 537,
      "ĠStates": 538,
      "duc": 539,
      "Ġinternational": 540,
      "99": 541,
      "Ġsub": 542,
      "tit": 543,
      "olution": 544,
      "Ġother": 545,
      "Ġbeen": 546,
      "cil": 547,
      "Ġreport": 548,
      "Ġtra": 549,
      "ries": 550,
      "Ã¨": 551,
      "ret": 552,
      "ĠCommission": 553,
      "ĠJ": 554,
      "ult": 555,
      "erv": 556,
      "ice": 557,
      "ĠCoun": 558,
      "resent": 559,
      "Ġshould": 560,
      "Ġinclud": 561,
      "ĠCouncil": 562,
      "Ġque": 563,
      "og": 564,
      "Ġest": 565,
      "ign": 566,
      "Ġtr": 567,
      "ose": 568,
      "Ġint": 569,
      "ganiz": 570,
      "ublic": 571,
      "Ġcons": 572,
      "jec": 573,
      "Ġind": 574,
      "ĠâĢ": 575,
      "ag": 576,
      "Ġrequ": 577,
      "eration": 578,
      "ry": 579,
      "onom": 580,
      "ures": 581,
      "ric": 582,
      "ession": 583,
      "ari": 584,
      "Ġ3": 585,
      "Ġprovid": 586,
      "Ġdec": 587,
      "eren": 588,
      "Ġinform": 589,
      "Ġrel": 590,
      "ative": 591,
      "Ġra": 592,
      "Ġpo": 593,
      "Ġproc": 594,
      "Ġhad": 595,
      "ms": 596,
      "Ġob": 597,
      "Ġwould": 598,
      "ome": 599,
      "Ġcountries": 600,
      "vention": 601,
      "mb": 602,
      "Ġab": 603,
      "roup": 604,
      "overnment": 605,
      "ph": 606,
      "ree": 607,
      "di": 608,
      "urope": 609,
      "Ġpr": 610,
      "Ġass": 611,
      "pon": 612,
      "ech": 613,
      "Ġfin": 614,
      "Ġrights": 615,
      "ke": 616,
      "hen": 617,
      "Ġman": 618,
      "ern": 619,
      "Ġdevelopment": 620,
      "Ġhuman": 621,
      "ties": 622,
      "ear": 623,
      "ish": 624,
      "oll": 625,
      "urity": 626,
      "ase": 627,
      "au": 628,
      "200": 629,
      "rib": 630,
      "ical": 631,
      "Ġimplement": 632,
      "Ġam": 633,
      "Ġprogram": 634,
      "ors": 635,
      "ong": 636,
      "Ġwere": 637,
      "Ġtak": 638,
      "ĠCh": 639,
      "eting": 640,
      "Ġresolution": 641,
      "ĠAs": 642,
      "âĢĿ": 643,
      "abl": 644,
      "ĠÃ©": 645,
      "reat": 646,
      "pecial": 647,
      "ĠPar": 648,
      "omen": 649,
      "iew": 650,
      "ru": 651,
      "ual": 652,
      "ĠPro": 653,
      "yst": 654,
      "tif": 655,
      "Ġchild": 656,
      "),": 657,
      "ĠEurope": 658,
      "ember": 659,
      "ast": 660,
      "Ġsupport": 661,
      "ular": 662,
      "Ġinv": 663,
      "ell": 664,
      "Ġout": 665,
      "su": 666,
      "out": 667,
      "ĠdÃ©": 668,
      "Ġcl": 669,
      "ail": 670,
      "ine": 671,
      "Ġpers": 672,
      "ĠUN": 673,
      "Ġsession": 674,
      "Ġrep": 675,
      "cip": 676,
      "pos": 677,
      "Ġsuch": 678,
      "ility": 679,
      "Ġau": 680,
      "Ġdu": 681,
      "âĢĻ": 682,
      "Ġav": 683,
      "Ġnational": 684,
      "ĠâĢľ": 685,
      "ens": 686,
      "ystem": 687,
      "Ġconsid": 688,
      "ten": 689,
      "feren": 690,
      "ĠSecret": 691,
      "sident": 692,
      ").": 693,
      "ob": 694,
      "hi": 695,
      "ating": 696,
      "Ġneed": 697,
      "Ġ-": 698,
      "tical": 699,
      "Ġorganiz": 700,
      "Ġthere": 701,
      "Ġoff": 702,
      "Ġtrans": 703,
      "Ġter": 704,
      "Ġcommun": 705,
      "ont": 706,
      "act": 707,
      "Ġinformation": 708,
      "und": 709,
      "que": 710,
      "Th": 711,
      "Ġpour": 712,
      "Ġmeeting": 713,
      "Ġ5": 714,
      "Ġ199": 715,
      "onomic": 716,
      "Ġconcern": 717,
      "Ġno": 718,
      "stit": 719,
      "semb": 720,
      "Ã©s": 721,
      "ond": 722,
      "ade": 723,
      "mes": 724,
      "ĠK": 725,
      "emb": 726,
      "graph": 727,
      "gal": 728,
      "Ġdi": 729,
      "It": 730,
      "Ġsystem": 731,
      "we": 732,
      "Ġdo": 733,
      "oy": 734,
      "ory": 735,
      "cy": 736,
      "Ġincluding": 737,
      "Ġimport": 738,
      "Ġsa": 739,
      "Ġbet": 740,
      "Ġpartic": 741,
      "ticle": 742,
      "ference": 743,
      "rough": 744,
      "sembly": 745,
      "Ġem": 746,
      "Ġaut": 747,
      "Ġpri": 748,
      "Ġpara": 749,
      "ĠState": 750,
      "tain": 751,
      "Ġregion": 752,
      "General": 753,
      "ĠConvention": 754,
      "Ġ4": 755,
      "Ġfa": 756,
      "Ġcontin": 757,
      "tec": 758,
      "Ġstr": 759,
      "Ġlaw": 760,
      "ft": 761,
      "ll": 762,
      "ĠAssembly": 763,
      "Ġactiv": 764,
      "ollow": 765,
      "Ġwomen": 766,
      "Ġdisc": 767,
      "ach": 768,
      "Ġsur": 769,
      "hed": 770,
      "Ġmore": 771,
      "Ġagain": 772,
      "Ġadop": 773,
      "Ġinter": 774,
      "ĠRep": 775,
      "ĠPre": 776,
      "ific": 777,
      "Ġcan": 778,
      "Ġserv": 779,
      "mit": 780,
      "Ġpart": 781,
      "Ġexp": 782,
      "ĠGeneral": 783,
      "Ġdra": 784,
      "Ġli": 785,
      "Ġbas": 786,
      "echn": 787,
      "Ġcent": 788,
      "rit": 789,
      "Ġestabl": 790,
      "Ġsp": 791,
      "tives": 792,
      "Ġmeas": 793,
      "Ġeffec": 794,
      "ost": 795,
      "ices": 796,
      "Ġyear": 797,
      "int": 798,
      "Ġma": 799,
      "ommend": 800,
      "Ġparticular": 801,
      "Ġmade": 802,
      "Ġdans": 803,
      "ction": 804,
      "ffic": 805,
      "stitution": 806,
      "Ġec": 807,
      "Ġnous": 808,
      "ration": 809,
      "ĠEuropean": 810,
      "cc": 811,
      "ise": 812,
      "ĠSecretary": 813,
      "ang": 814,
      "rimin": 815,
      "Ġpolic": 816,
      "Ġfollow": 817,
      "Ġpas": 818,
      "Ġqui": 819,
      "Ġsit": 820,
      "Ġimplementation": 821,
      "Ġcoop": 822,
      "are": 823,
      "ween": 824,
      "Ġinto": 825,
      "get": 826,
      "Ġce": 827,
      "ied": 828,
      "air": 829,
      "uring": 830,
      "ilit": 831,
      "Ġus": 832,
      "Ġnew": 833,
      "Ġpropos": 834,
      "Ġparti": 835,
      "Ġrespon": 836,
      "Ġany": 837,
      "Ġchildren": 838,
      "Ġbetween": 839,
      "uation": 840,
      "Ġref": 841,
      "Ġthrough": 842,
      "ĠThe": 843,
      "Ġmemb": 844,
      "Ġthose": 845,
      "man": 846,
      "ural": 847,
      "ĠGovernment": 848,
      "Ġagainst": 849,
      "Ġconf": 850,
      "ime": 851,
      "les": 852,
      "ĠRe": 853,
      "ources": 854,
      "Ġfinan": 855,
      "Ġinte": 856,
      "Ġprocess": 857,
      "ĠMr": 858,
      "iol": 859,
      "ĠrÃ©": 860,
      "ood": 861,
      "Ġrecommend": 862,
      "Ġune": 863,
      "Ġwho": 864,
      "Ġactivities": 865,
      "sible": 866,
      "de": 867,
      "ĠDe": 868,
      "Ġone": 869,
      "ĠAf": 870,
      "ove": 871,
      "dition": 872,
      "hor": 873,
      "fore": 874,
      "Ġprotec": 875,
      "Ġrev": 876,
      "Ġrem": 877,
      "der": 878,
      "Ġens": 879,
      "Ġwhe": 880,
      "ien": 881,
      "orld": 882,
      "Ġmust": 883,
      "Ġgroup": 884,
      "Ġro": 885,
      "Ġregard": 886,
      "Ġissu": 887,
      "Ġshall": 888,
      "als": 889,
      "Ġprom": 890,
      "Ġmar": 891,
      "Ġover": 892,
      "Ġeffor": 893,
      "Ġmon": 894,
      "ide": 895,
      "Ġthese": 896,
      "ocu": 897,
      "vir": 898,
      "ame": 899,
      "ange": 900,
      "Ġpeop": 901,
      "Ġwell": 902,
      "Ġthey": 903,
      "Ġassist": 904,
      "ved": 905,
      "ateg": 906,
      "Ġappro": 907,
      "par": 908,
      "Ġrepresent": 909,
      "very": 910,
      "viron": 911,
      "Ġbut": 912,
      "Ġprovision": 913,
      "Ġcountry": 914,
      "Ġlevel": 915,
      "Ġpublic": 916,
      "ĠInternational": 917,
      "Ġ6": 918,
      "Ġcap": 919,
      "Ġdecision": 920,
      "Ġtechn": 921,
      "Ġrequire": 922,
      "Ġpos": 923,
      "ight": 924,
      "xt": 925,
      "Ġpeace": 926,
      "Ġmay": 927,
      "Ġparagraph": 928,
      "Ġadd": 929,
      "ĠV": 930,
      "rent": 931,
      "Ġnon": 932,
      "Ġmeasures": 933,
      "urther": 934,
      "vent": 935,
      "go": 936,
      "ote": 937,
      "Ġthan": 938,
      "Ġprogramme": 939,
      "ĠDec": 940,
      "Ġincre": 941,
      "alth": 942,
      "Ġsocial": 943,
      "lear": 944,
      "ack": 945,
      "Ġaccord": 946,
      "Ġtw": 947,
      "irst": 948,
      "ai": 949,
      "Ġrespec": 950,
      "Ġparticip": 951,
      "hip": 952,
      "Ġdraft": 953,
      "We": 954,
      "Ġnum": 955,
      "ving": 956,
      "ute": 957,
      "ters": 958,
      "rac": 959,
      "enti": 960,
      "Ġmat": 961,
      "Ġful": 962,
      "ĠPresident": 963,
      "urs": 964,
      "ian": 965,
      "Ġthem": 966,
      "leg": 967,
      "Ġdem": 968,
      "Ġques": 969,
      "ting": 970,
      "Ġauthor": 971,
      "ĠConference": 972,
      "Ġent": 973,
      "une": 974,
      "Ġtime": 975,
      "ive": 976,
      "ĠRepublic": 977,
      "aff": 978,
      "Ġcooperation": 979,
      "cep": 980,
      "ism": 981,
      "vant": 982,
      "ake": 983,
      "Ġmin": 984,
      "its": 985,
      "ication": 986,
      "ards": 987,
      "Ġform": 988,
      "Ġviol": 989,
      "ulation": 990,
      "vironment": 991,
      "Ġour": 992,
      "ĠDevelop": 993,
      "olog": 994,
      "Ġuse": 995,
      "ite": 996,
      "land": 997,
      "sition": 998,
      "Ġmain": 999,
      "Ġup": 1000,
      "educ": 1001,
      "Ġefforts": 1002,
      "ays": 1003,
      "Ġ19": 1004,
      "pr": 1005,
      "Ġk": 1006,
      "Ġdocu": 1007,
      "Ġcontrib": 1008,
      "ights": 1009,
      "ĠAfric": 1010,
      "ject": 1011,
      "Ġsecurity": 1012,
      "Ġorder": 1013,
      "ĠSecurity": 1014,
      "Ġorganizations": 1015,
      "Ġoper": 1016,
      "iod": 1017,
      "This": 1018,
      "ants": 1019,
      "ges": 1020,
      "enda": 1021,
      "Ġdire": 1022,
      "work": 1023,
      "Ġequ": 1024,
      "Ġfund": 1025,
      "Ġop": 1026,
      "ruc": 1027,
      "ral": 1028,
      "Ġpresent": 1029,
      "tice": 1030,
      "ious": 1031,
      "Ġhis": 1032,
      "ene": 1033,
      "ĠGroup": 1034,
      "Ġonly": 1035,
      "Ġrele": 1036,
      "ful": 1037,
      "ized": 1038,
      "agement": 1039,
      "sive": 1040,
      "erg": 1041,
      "uropÃ©": 1042,
      "one": 1043,
      "Ġimportant": 1044,
      "ports": 1045,
      "Ġmembers": 1046,
      "ally": 1047,
      "itÃ©": 1048,
      "Ġpeople": 1049,
      "Ġensure": 1050,
      "Ġfac": 1051,
      "Ġeconomic": 1052,
      "itical": 1053,
      "Ġresources": 1054,
      "Ġinstitution": 1055,
      "arm": 1056,
      "ati": 1057,
      "li": 1058,
      "ĠRights": 1059,
      "Ġnumber": 1060,
      "ort": 1061,
      "Ġaddress": 1062,
      "ever": 1063,
      "Ġeduc": 1064,
      "Ġsome": 1065,
      "tre": 1066,
      "Ġright": 1067,
      "atives": 1068,
      "ĠAd": 1069,
      "Ġgu": 1070,
      "ĠeuropÃ©": 1071,
      "ĠDevelopment": 1072,
      "Ġsign": 1073,
      "Ġset": 1074,
      "Ġperson": 1075,
      "Ġarticle": 1076,
      "ety": 1077,
      "ination": 1078,
      "sib": 1079,
      "Ġperiod": 1080,
      "Ġprovide": 1081,
      "up": 1082,
      "vers": 1083,
      "ality": 1084,
      "ks": 1085,
      "rÃ©": 1086,
      "Ġservices": 1087,
      "ization": 1088,
      "Ġissues": 1089,
      "Ġsituation": 1090,
      "ished": 1091,
      "Ġinst": 1092,
      "ced": 1093,
      "ivil": 1094,
      "Ġtake": 1095,
      "Ġele": 1096,
      "lob": 1097,
      "ining": 1098,
      "Ġfurther": 1099,
      "art": 1100,
      "lu": 1101,
      "ĠMin": 1102,
      "Un": 1103,
      "Ġexper": 1104,
      "Ġwithin": 1105,
      "Ġtwo": 1106,
      "mber": 1107,
      "ploy": 1108,
      "Ġ7": 1109,
      "Ġte": 1110,
      "Ġprin": 1111,
      "Ġbec": 1112,
      "Ġser": 1113,
      "Ġcar": 1114,
      "Ġregional": 1115,
      "ient": 1116,
      "ile": 1117,
      "Ġcommit": 1118,
      "lobal": 1119,
      "Ġfinancial": 1120,
      "Ġspecial": 1121,
      "Ġassistance": 1122,
      "gis": 1123,
      "ased": 1124,
      "Ġprotection": 1125,
      "ency": 1126,
      "Ġproduc": 1127,
      "ariat": 1128,
      "ered": 1129,
      "Ġstate": 1130,
      "udget": 1131,
      "Ġpur": 1132,
      "Ġ2004": 1133,
      "Ġcould": 1134,
      "Re": 1135,
      "ability": 1136,
      "led": 1137,
      "Ġpolicy": 1138,
      "ĠMember": 1139,
      "ĠeuropÃ©en": 1140,
      "Ġif": 1141,
      "ques": 1142,
      "Ġview": 1143,
      "nex": 1144,
      "Ġhealth": 1145,
      "Ġspec": 1146,
      "Ġplan": 1147,
      "ix": 1148,
      "av": 1149,
      "reng": 1150,
      "Ġbeing": 1151,
      "hie": 1152,
      "Ġimpro": 1153,
      "Ġiniti": 1154,
      "Ġadopted": 1155,
      "Ġreview": 1156,
      "ĠHuman": 1157,
      "reed": 1158,
      "Ġprogrammes": 1159,
      "minist": 1160,
      "til": 1161,
      "sts": 1162,
      "Ġes": 1163,
      "Ġeffective": 1164,
      "stan": 1165,
      "Ġachie": 1166,
      "Ġcur": 1167,
      "aire": 1168,
      "ases": 1169,
      "ĠUnion": 1170,
      "Ġcour": 1171,
      "med": 1172,
      "Ġabout": 1173,
      "val": 1174,
      "Ġdef": 1175,
      "Ã¨re": 1176,
      "Ġlegal": 1177,
      "Ġprac": 1178,
      "Ġdiscus": 1179,
      "Ãª": 1180,
      "Ġ2000": 1181,
      "ass": 1182,
      "Ġrequest": 1183,
      "ium": 1184,
      "Ġprovided": 1185,
      "Ġ10": 1186,
      "Ã©e": 1187,
      "Ġfollowing": 1188,
      "Ġenc": 1189,
      "Ġyears": 1190,
      "Ġbel": 1191,
      "Ġaff": 1192,
      "oth": 1193,
      "king": 1194,
      "Ġagree": 1195,
      "Ġestablish": 1196,
      "Ġend": 1197,
      "ĠIs": 1198,
      "Ġ9": 1199,
      "uild": 1200,
      "ĠOr": 1201,
      "As": 1202,
      "amp": 1203,
      "owever": 1204,
      "Ġaddition": 1205,
      "then": 1206,
      "Ġpolitical": 1207,
      "Ġareas": 1208,
      "ffice": 1209,
      "ning": 1210,
      "arch": 1211,
      "rengthen": 1212,
      "Ġrespect": 1213,
      "tor": 1214,
      "Ġfirst": 1215,
      "CE": 1216,
      "Ġcapac": 1217,
      "Ġenvironment": 1218,
      "gisl": 1219,
      "ince": 1220,
      "Ġrelevant": 1221,
      "Ġeducation": 1222,
      "Ġwhere": 1223,
      "Ġstrateg": 1224,
      "ues": 1225,
      "ux": 1226,
      "Ġje": 1227,
      "Ġquestion": 1228,
      "old": 1229,
      "Ġ2005": 1230,
      "10": 1231,
      "Ġcer": 1232,
      "Ġitem": 1233,
      "rol": 1234,
      "Ġtaken": 1235,
      "ecess": 1236,
      "lar": 1237,
      "Ġdeveloping": 1238,
      "entif": 1239,
      "ale": 1240,
      "Ġaction": 1241,
      "Ġparty": 1242,
      "gress": 1243,
      "oura": 1244,
      "ov": 1245,
      "ines": 1246,
      "Ġil": 1247,
      "gramme": 1248,
      "Ġduring": 1249,
      "Ġproced": 1250,
      "com": 1251,
      "Ġsou": 1252,
      "Ġ8": 1253,
      "ĠEx": 1254,
      "Ġheld": 1255,
      "ings": 1256,
      "Ġfra": 1257,
      "ament": 1258,
      "ropri": 1259,
      "Ġpossible": 1260,
      "ew": 1261,
      "ocra": 1262,
      "Ġobjec": 1263,
      "vis": 1264,
      "Ġplus": 1265,
      "Ġsoci": 1266,
      "ĠCo": 1267,
      "Ġaccount": 1268,
      "Ġcivil": 1269,
      "icial": 1270,
      "Ġatt": 1271,
      "Ġdeleg": 1272,
      "ause": 1273,
      "ĠOffice": 1274,
      "ners": 1275,
      "ĠAr": 1276,
      "ror": 1277,
      "Ġsc": 1278,
      "ĠSpecial": 1279,
      "Ġdiff": 1280,
      "Ġext": 1281,
      "Ġloc": 1282,
      "now": 1283,
      "ette": 1284,
      "Ġstrengthen": 1285,
      "Ġsubmit": 1286,
      "ĠSo": 1287,
      "sel": 1288,
      "Ġprior": 1289,
      "Ġ20": 1290,
      "ily": 1291,
      "lig": 1292,
      "Ġnecess": 1293,
      "Ġaccordance": 1294,
      "Ġagenda": 1295,
      "ner": 1296,
      "Ġhigh": 1297,
      "tention": 1298,
      "Ġlike": 1299,
      "Ġdocument": 1300,
      "Ġmet": 1301,
      "ĠWork": 1302,
      "illion": 1303,
      "ris": 1304,
      "Ġcri": 1305,
      "Ġcontain": 1306,
      "Ġmake": 1307,
      "du": 1308,
      "Ġdev": 1309,
      "oint": 1310,
      "Ġbudget": 1311,
      "Ġappropri": 1312,
      "Ġparties": 1313,
      "ents": 1314,
      "ĠÃ©t": 1315,
      "Ġcommunity": 1316,
      "ctions": 1317,
      "Ġfact": 1318,
      "Ġdat": 1319,
      "aw": 1320,
      "ussi": 1321,
      "Ġcontinue": 1322,
      "ĠNo": 1323,
      "Ġproble": 1324,
      "Ġgeneral": 1325,
      "Ġpersons": 1326,
      "Ġwhen": 1327,
      "iss": 1328,
      "Ġrece": 1329,
      "ok": 1330,
      "Ġcurrent": 1331,
      "itor": 1332,
      "Ġmost": 1333,
      "ĠEn": 1334,
      "Ġstaff": 1335,
      "Ġstand": 1336,
      "Ġmod": 1337,
      "Mr": 1338,
      "Ġmanagement": 1339,
      "ib": 1340,
      "mework": 1341,
      "Ġyou": 1342,
      "Ġaf": 1343,
      "porte": 1344,
      "tim": 1345,
      "ĠY": 1346,
      "ĠAg": 1347,
      "ĠOrganiz": 1348,
      "ĠFor": 1349,
      "roduc": 1350,
      "Ad": 1351,
      "ĠEc": 1352,
      "Ġboth": 1353,
      "Ã©c": 1354,
      "Ġact": 1355,
      "Ġid": 1356,
      "Ġapplic": 1357,
      "ĠLe": 1358,
      "ement": 1359,
      "Ġglobal": 1360,
      "ound": 1361,
      "Ġcase": 1362,
      "aking": 1363,
      "Ġaccess": 1364,
      "Ġamend": 1365,
      "Ġinvol": 1366,
      "Ġcoord": 1367,
      "Ġamong": 1368,
      "ind": 1369,
      "ys": 1370,
      "round": 1371,
      "ared": 1372,
      "ilities": 1373,
      "Ġinstitutions": 1374,
      "Ġconflic": 1375,
      "Ġworld": 1376,
      "Ġsame": 1377,
      "Ġconsider": 1378,
      "Ġconsult": 1379,
      "At": 1380,
      "ait": 1381,
      "mp": 1382,
      "Ġavail": 1383,
      "ender": 1384,
      "Ġ2007": 1385,
      "cing": 1386,
      "Ġcapacity": 1387,
      "Ġ15": 1388,
      ");": 1389,
      "Ġcor": 1390,
      "Ġtraining": 1391,
      "Ġindic": 1392,
      "Ġrole": 1393,
      "Ġ12": 1394,
      "Ġprogress": 1395,
      "Ġ2001": 1396,
      "Ġcall": 1397,
      "ater": 1398,
      "ĠSocial": 1399,
      "jor": 1400,
      "gin": 1401,
      "Ġnecessary": 1402,
      "Ġbod": 1403,
      "arge": 1404,
      "Ġur": 1405,
      "ier": 1406,
      "ustice": 1407,
      "Ġplace": 1408,
      "uilding": 1409,
      "UN": 1410,
      "day": 1411,
      "riminal": 1412,
      "ogn": 1413,
      "Ġcontinu": 1414,
      "Ġestablished": 1415,
      "ug": 1416,
      "Ġlegisl": 1417,
      "ip": 1418,
      "Ġassess": 1419,
      "overnmental": 1420,
      "Ġprovisions": 1421,
      "ex": 1422,
      "Ġmany": 1423,
      "mer": 1424,
      "Ġinteg": 1425,
      "Ġvery": 1426,
      "rimination": 1427,
      "lia": 1428,
      "ential": 1429,
      "Ġpop": 1430,
      "ined": 1431,
      "Ġann": 1432,
      "Ġappropriate": 1433,
      "Ġcertain": 1434,
      "Ġocc": 1435,
      "sions": 1436,
      "ules": 1437,
      "Ġreports": 1438,
      "ats": 1439,
      "lim": 1440,
      "ultural": 1441,
      "ĠDecember": 1442,
      "Ġbasis": 1443,
      "ĠProgramme": 1444,
      "Ġfam": 1445,
      "An": 1446,
      "Ġmajor": 1447,
      "arian": 1448,
      "ina": 1449,
      "Ġremain": 1450,
      "ditions": 1451,
      "sue": 1452,
      "ird": 1453,
      "row": 1454,
      "sibility": 1455,
      "Ġinf": 1456,
      "stain": 1457,
      "yp": 1458,
      "Ġdeb": 1459,
      "ield": 1460,
      "ition": 1461,
      "uclear": 1462,
      "Ġ$": 1463,
      "toc": 1464,
      "Ġdist": 1465,
      "Ġissue": 1466,
      "ages": 1467,
      "Ġlong": 1468,
      "Ġrecommendations": 1469,
      "Ġmen": 1470,
      "ĠWorking": 1471,
      "cies": 1472,
      "unity": 1473,
      "cept": 1474,
      "ĠParties": 1475,
      "Ġvari": 1476,
      "Ġdata": 1477,
      "Ġexist": 1478,
      "reaty": 1479,
      "Ġbefore": 1480,
      "liament": 1481,
      "ption": 1482,
      "Ã¨s": 1483,
      "Ġworking": 1484,
      "Ġaux": 1485,
      "elle": 1486,
      "Ġoblig": 1487,
      "Ġintere": 1488,
      "gion": 1489,
      "Ġdon": 1490,
      "Ġlead": 1491,
      "Ġrest": 1492,
      "Ġexpress": 1493,
      "ples": 1494,
      "tocol": 1495,
      "ister": 1496,
      "ĠPe": 1497,
      "ĠOrganization": 1498,
      "aren": 1499,
      "Ġgo": 1500,
      "sec": 1501,
      "Ġfull": 1502,
      "ule": 1503,
      "erman": 1504,
      "Ġcomple": 1505,
      "Ġtechnical": 1506,
      "airs": 1507,
      "Ġgreat": 1508,
      "ture": 1509,
      "echan": 1510,
      "ĠInd": 1511,
      "Ġwithout": 1512,
      "Ġsustain": 1513,
      "Ġexpl": 1514,
      "Ġfore": 1515,
      "ĠWorld": 1516,
      "ough": 1517,
      "ran": 1518,
      "tal": 1519,
      "Ġmand": 1520,
      "ivid": 1521,
      "ĠEconomic": 1522,
      "Ġframework": 1523,
      "ID": 1524,
      "issions": 1525,
      "keep": 1526,
      "Ġow": 1527,
      "ĠCour": 1528,
      "lec": 1529,
      "po": 1530,
      "uly": 1531,
      "ĠAfrica": 1532,
      "Ġjud": 1533,
      "Ġcases": 1534,
      "Ġcette": 1535,
      "Ã©es": 1536,
      "ize": 1537,
      "Ġmed": 1538,
      "ique": 1539,
      "Ġsee": 1540,
      "Ġrelated": 1541,
      "Ġgroups": 1542,
      "Ġavailable": 1543,
      "Ġdifferen": 1544,
      "Ġgood": 1545,
      "Ġ2006": 1546,
      "For": 1547,
      "Ġfut": 1548,
      "Ġterror": 1549,
      "epend": 1550,
      "Ġsince": 1551,
      "ool": 1552,
      "Ġcol": 1553,
      "Ġtechnolog": 1554,
      "porteur": 1555,
      "ĠAn": 1556,
      "Ġemploy": 1557,
      "Ġmillion": 1558,
      "Ġlim": 1559,
      "Ġval": 1560,
      "Ġconcerned": 1561,
      "Ġdom": 1562,
      "Ġcontribution": 1563,
      "Ġwel": 1564,
      "sie": 1565,
      "oard": 1566,
      "ĠPal": 1567,
      "Ġsector": 1568,
      "ĠJune": 1569,
      "governmental": 1570,
      "Ġarea": 1571,
      "Ġconsideration": 1572,
      "Ġviolence": 1573,
      "rab": 1574,
      "Ġconditions": 1575,
      "iven": 1576,
      "On": 1577,
      "Ġknow": 1578,
      "Ġcompl": 1579,
      "hes": 1580,
      "Ġste": 1581,
      "There": 1582,
      "Ġ11": 1583,
      "Ġencoura": 1584,
      "Ġtrade": 1585,
      "Je": 1586,
      "Ġnow": 1587,
      "itarian": 1588,
      "ves": 1589,
      "soci": 1590,
      "Ġmechan": 1591,
      "Ġ13": 1592,
      "Ġaw": 1593,
      "rie": 1594,
      "ature": 1595,
      "Ġthree": 1596,
      "chool": 1597,
      "Ġclear": 1598,
      "Ġ2008": 1599,
      "Ġlocal": 1600,
      "Ġcre": 1601,
      "laration": 1602,
      "overty": 1603,
      "Ġprincip": 1604,
      "Ġparticularly": 1605,
      "ros": 1606,
      "Ġadminist": 1607,
      "Ġspecific": 1608,
      "Ġconte": 1609,
      "Ġused": 1610,
      "Ġfoc": 1611,
      "ban": 1612,
      "Ġsaid": 1613,
      "Ġpartners": 1614,
      "Ġimprove": 1615,
      "Ġpolicies": 1616,
      "Ġrecogn": 1617,
      "ĠCent": 1618,
      "ĠDep": 1619,
      "atory": 1620,
      "Ġidentif": 1621,
      "ended": 1622,
      "ised": 1623,
      "ĠeuropÃ©enne": 1624,
      "ivers": 1625,
      "Ġsecond": 1626,
      "Ġneeds": 1627,
      "Ġinclude": 1628,
      "Ġfuture": 1629,
      "come": 1630,
      "ĠMon": 1631,
      "Ġgra": 1632,
      "uch": 1633,
      "Ġimportance": 1634,
      "Ġsont": 1635,
      "Ġmy": 1636,
      "Ġbien": 1637,
      "aim": 1638,
      "Ġ2003": 1639,
      "Ġpriv": 1640,
      "Ġreduc": 1641,
      "enef": 1642,
      "irc": 1643,
      "Ġph": 1644,
      "ceed": 1645,
      "Ġobs": 1646,
      "Ġeach": 1647,
      "ĠCourt": 1648,
      "Ġstud": 1649,
      "Ġaim": 1650,
      "Ġwhat": 1651,
      "termin": 1652,
      "199": 1653,
      "Ġopport": 1654,
      "âĢ¦": 1655,
      "Ġproposed": 1656,
      "Ġgender": 1657,
      "Ġmonitor": 1658,
      "Ġafter": 1659,
      "ĠHe": 1660,
      "Ġbeh": 1661,
      "Ġbased": 1662,
      "read": 1663,
      "Ġcomb": 1664,
      "Ġvis": 1665,
      "Ġmeans": 1666,
      "overnments": 1667,
      "Ġbecause": 1668,
      "Ġpoliti": 1669,
      "ences": 1670,
      "Ġrap": 1671,
      "ividual": 1672,
      "encies": 1673,
      "ower": 1674,
      "nel": 1675,
      "Ġtherefore": 1676,
      "ĠPol": 1677,
      "Ġris": 1678,
      "Ġmeetings": 1679,
      "Ġconflict": 1680,
      "Ġsupp": 1681,
      "Ġresult": 1682,
      "atus": 1683,
      "outh": 1684,
      "ĠPalest": 1685,
      "Ġsti": 1686,
      "Ġparticipation": 1687,
      "Ġins": 1688,
      "alf": 1689,
      "Ġconstit": 1690,
      "Ġrequirements": 1691,
      "12": 1692,
      "stand": 1693,
      "Ġfield": 1694,
      "II": 1695,
      "Ġadv": 1696,
      "Ġbenef": 1697,
      "allen": 1698,
      "Ġinstru": 1699,
      "nium": 1700,
      "Ġconst": 1701,
      "Ġconsidered": 1702,
      "lp": 1703,
      "Ġspe": 1704,
      "000": 1705,
      "Ġsaf": 1706,
      "Ġve": 1707,
      "epte": 1708,
      "key": 1709,
      "ĠAfrican": 1710,
      "Ġsociety": 1711,
      "rael": 1712,
      "ĠJuly": 1713,
      "Ġmul": 1714,
      "Ġincrease": 1715,
      "ked": 1716,
      "ternal": 1717,
      "iter": 1718,
      "Ġindividual": 1719,
      "Ġ14": 1720,
      "Ġ18": 1721,
      "Ġcontrol": 1722,
      "ĠNational": 1723,
      "ĠAct": 1724,
      "tis": 1725,
      "Ġauthorities": 1726,
      "ital": 1727,
      "rug": 1728,
      "ateral": 1729,
      "Ġsim": 1730,
      "atis": 1731,
      "Ġtow": 1732,
      "Ġhelp": 1733,
      "Ġgiven": 1734,
      "Ġway": 1735,
      "Ġreceiv": 1736,
      "aux": 1737,
      "ĠTh": 1738,
      "Ġpoint": 1739,
      "Ġsubmitted": 1740,
      "org": 1741,
      "Ġou": 1742,
      "15": 1743,
      "ently": 1744,
      "isc": 1745,
      "oting": 1746,
      "Ġresul": 1747,
      "oin": 1748,
      "eptember": 1749,
      "istan": 1750,
      "Ġguid": 1751,
      "meric": 1752,
      "ĠProtocol": 1753,
      "Ġnuclear": 1754,
      "Ġachieve": 1755,
      "īt": 1756,
      "rative": 1757,
      "Ġpoverty": 1758,
      "jects": 1759,
      "20": 1760,
      "ged": 1761,
      "However": 1762,
      "Ġfocus": 1763,
      "sequ": 1764,
      "ĠBoard": 1765,
      "Ġallow": 1766,
      "Ġnote": 1767,
      "other": 1768,
      "Ġpopulation": 1769,
      "ulations": 1770,
      "ecu": 1771,
      "Ġdelegation": 1772,
      "lect": 1773,
      "ĠParliament": 1774,
      "ned": 1775,
      "Ġrequired": 1776,
      "Ġbelie": 1777,
      "ĠprÃ©": 1778,
      "Ġannex": 1779,
      "ĠFund": 1780,
      "ank": 1781,
      "Ġupon": 1782,
      "oir": 1783,
      "Ġvarious": 1784,
      "âĢľ": 1785,
      "Ġavec": 1786,
      "Ġconcerning": 1787,
      "ĠAff": 1788,
      "Ġnor": 1789,
      "use": 1790,
      "aran": 1791,
      "ĠChair": 1792,
      "St": 1793,
      "Ġpromote": 1794,
      "ĠGu": 1795,
      "Ġvic": 1796,
      "Ġsubstan": 1797,
      "Ġ30": 1798,
      "Ġofficial": 1799,
      "Ġconduc": 1800,
      "Ġsix": 1801,
      "uge": 1802,
      "keeping": 1803,
      "omb": 1804,
      "Ġattention": 1805,
      "apons": 1806,
      "ope": 1807,
      "Ġforce": 1808,
      "aut": 1809,
      "ecutive": 1810,
      "rant": 1811,
      "Ġschool": 1812,
      "ergy": 1813,
      "Ġchallen": 1814,
      "ators": 1815,
      "otion": 1816,
      "ately": 1817,
      "Ġproject": 1818,
      "Ġabove": 1819,
      "ruction": 1820,
      "ober": 1821,
      "abor": 1822,
      "Ġsecret": 1823,
      "Ġundert": 1824,
      "Ġfacilit": 1825,
      "ovember": 1826,
      "ĠAffairs": 1827,
      "Ġenh": 1828,
      "Ġcare": 1829,
      "tics": 1830,
      "Ġaffec": 1831,
      "Ġfl": 1832,
      "Ġhumanitarian": 1833,
      "Il": 1834,
      "Ġ2002": 1835,
      "Ġdeveloped": 1836,
      "En": 1837,
      "ĠLaw": 1838,
      "Ġpen": 1839,
      "ilitary": 1840,
      "ĠIsrael": 1841,
      "Ġsm": 1842,
      "Ġbodies": 1843,
      "ison": 1844,
      "ring": 1845,
      "ode": 1846,
      "Ġtransport": 1847,
      "Ġreform": 1848,
      "rehen": 1849,
      "Al": 1850,
      "Ġvol": 1851,
      "Ġrepresentatives": 1852,
      "ĠSeptember": 1853,
      "Ġrules": 1854,
      "ample": 1855,
      "Ġnoted": 1856,
      "ĠEU": 1857,
      "ness": 1858,
      "Ġwhether": 1859,
      "ulture": 1860,
      "ciples": 1861,
      "Ġfun": 1862,
      "ĠMay": 1863,
      "Le": 1864,
      "Ġlevels": 1865,
      "Ġchange": 1866,
      "aires": 1867,
      "istry": 1868,
      "Ġfour": 1869,
      "Ġclaim": 1870,
      "Ġlist": 1871,
      "itiz": 1872,
      "itation": 1873,
      "ww": 1874,
      "tig": 1875,
      "Ġapproach": 1876,
      "Ġcontext": 1877,
      "ises": 1878,
      "Ġeng": 1879,
      "Ġwhile": 1880,
      "mar": 1881,
      "Ġdoes": 1882,
      "Ġlegislation": 1883,
      "ps": 1884,
      "Ġgrow": 1885,
      "Ġdiffic": 1886,
      "Ġdemand": 1887,
      "Ġrepresentative": 1888,
      "ctober": 1889,
      "ĠPrÃ©": 1890,
      "ĠSecretariat": 1891,
      "Ġdep": 1892,
      "TA": 1893,
      "ĠTra": 1894,
      "artment": 1895,
      "Ġprep": 1896,
      "Add": 1897,
      "Ġpays": 1898,
      "anu": 1899,
      "Ã´": 1900,
      "goti": 1901,
      "âĢĿ.": 1902,
      "ĠAmeric": 1903,
      "see": 1904,
      "Ġsignific": 1905,
      "Ġ[": 1906,
      "Union": 1907,
      "ĠâĢĶ": 1908,
      "osed": 1909,
      "eb": 1910,
      "Ġprof": 1911,
      "Ġtout": 1912,
      "Ġ1999": 1913,
      "âĢ¦âĢ¦": 1914,
      "ross": 1915,
      "Ġ16": 1916,
      "the": 1917,
      "Ġmark": 1918,
      "rehensive": 1919,
      "Ġimpact": 1920,
      "DP": 1921,
      "ocratic": 1922,
      "Ġprevent": 1923,
      "Ġprepar": 1924,
      "Ġagreed": 1925,
      "Ġess": 1926,
      "Ġanal": 1927,
      "Nous": 1928,
      "ĠServ": 1929,
      "Ġrequested": 1930,
      "Ġposi": 1931,
      "Ġcirc": 1932,
      "Ġmais": 1933,
      "CO": 1934,
      "erc": 1935,
      "ĠÃª": 1936,
      "ais": 1937,
      "Ġcontained": 1938,
      "Ġ17": 1939,
      "reedom": 1940,
      "Ã©t": 1941,
      "Ġsubject": 1942,
      "sieur": 1943,
      "Ġtowards": 1944,
      "Ġterrit": 1945,
      "pril": 1946,
      "19": 1947,
      "Ġagencies": 1948,
      "ĠArab": 1949,
      "Ġsecretariat": 1950,
      "nes": 1951,
      "ĠPrÃ©sident": 1952,
      "Ar": 1953,
      "Ġreas": 1954,
      "Rec": 1955,
      "Ġvote": 1956,
      "rated": 1957,
      "ois": 1958,
      "Ġdiscrimination": 1959,
      "Ġadditional": 1960,
      "ĠNovember": 1961,
      "Ġagreement": 1962,
      "app": 1963,
      "Ġstruc": 1964,
      "Ġces": 1965,
      "less": 1966,
      "ĠÃīt": 1967,
      "Ġsustainable": 1968,
      "Ġher": 1969,
      "Ġpay": 1970,
      "mary": 1971,
      "Ġopen": 1972,
      "ĠPl": 1973,
      "Ġdirect": 1974,
      "pecially": 1975,
      "Ġret": 1976,
      "ĠAl": 1977,
      "Ġear": 1978,
      "building": 1979,
      "Ġsex": 1980,
      "ource": 1981,
      "Ġdifferent": 1982,
      "Ġcoll": 1983,
      "ĠChild": 1984,
      "Ġenti": 1985,
      "ĠPalestin": 1986,
      "Ġposition": 1987,
      "olid": 1988,
      "Ġnegoti": 1989,
      "ĠMarch": 1990,
      "ator": 1991,
      "ogue": 1992,
      "Ġpres": 1993,
      "pose": 1994,
      "ract": 1995,
      "enous": 1996,
      "iness": 1997,
      "ĠOctober": 1998,
      "sh": 1999,
      "ĠÃªtre": 2000,
      "Ġproposal": 2001,
      "iÃ¨re": 2002,
      "hic": 2003,
      "11": 2004,
      "Ġproper": 2005,
      "fer": 2006,
      "vious": 2007,
      "az": 2008,
      "ĠDepartment": 2009,
      "Ġdecid": 2010,
      "igenous": 2011,
      "Ġresolutions": 2012,
      "aced": 2013,
      "Ġjustice": 2014,
      "Ġprojects": 2015,
      "Ġtre": 2016,
      "Ġresponsibility": 2017,
      "ĠNew": 2018,
      "asing": 2019,
      "He": 2020,
      "Ġstatement": 2021,
      "Ġrelating": 2022,
      "Ġdesign": 2023,
      "Ãł": 2024,
      "oi": 2025,
      "hod": 2026,
      "own": 2027,
      "Ġresults": 2028,
      "Ġenvironmental": 2029,
      "Ġmember": 2030,
      "Ġevery": 2031,
      "Ġexample": 2032,
      "Ġmonitoring": 2033,
      "ccess": 2034,
      "che": 2035,
      "isation": 2036,
      "ron": 2037,
      "Ġprivate": 2038,
      "Ġexam": 2039,
      "pects": 2040,
      "Ġdro": 2041,
      "Ġstatus": 2042,
      "Ġproblems": 2043,
      "Ġont": 2044,
      "Ġespecially": 2045,
      "ying": 2046,
      "Ġrelations": 2047,
      "Ġinves": 2048,
      "ĠRepresent": 2049,
      "IV": 2050,
      "erial": 2051,
      "ialogue": 2052,
      "Ã©n": 2053,
      "Ġsystems": 2054,
      "equ": 2055,
      "ĠRes": 2056,
      "Ġreal": 2057,
      "Ġentre": 2058,
      "Ġeconom": 2059,
      "ife": 2060,
      "Ġinterest": 2061,
      "Ġstill": 2062,
      "Ġcommon": 2063,
      "ĠGovernments": 2064,
      "ĠApril": 2065,
      "anuary": 2066,
      "reatment": 2067,
      "ĠTr": 2068,
      "estic": 2069,
      "Ġcriminal": 2070,
      "omp": 2071,
      "Ġterms": 2072,
      "abour": 2073,
      "ĠParlement": 2074,
      "atic": 2075,
      "ĠFed": 2076,
      "Ġlast": 2077,
      "ĠAction": 2078,
      "Ġliv": 2079,
      "ĠCommissioner": 2080,
      "Ġland": 2081,
      "ists": 2082,
      "Ġinvest": 2083,
      "ĠWomen": 2084,
      "ĠÃ©tÃ©": 2085,
      "ĠDeclaration": 2086,
      "Ġgen": 2087,
      "Ã©g": 2088,
      "Ġdetermin": 2089,
      "Ġrapport": 2090,
      "Ġsignificant": 2091,
      "Ġentit": 2092,
      "standing": 2093,
      "ours": 2094,
      "men": 2095,
      "Ġstandards": 2096,
      "idence": 2097,
      "Ġ\"": 2098,
      "uel": 2099,
      "tices": 2100,
      "Ġmilitary": 2101,
      "va": 2102,
      "ĠMission": 2103,
      "Ġoperations": 2104,
      "Ġbehalf": 2105,
      "apporteur": 2106,
      "phas": 2107,
      "Ġeven": 2108,
      "ĠHigh": 2109,
      "Ġprocedures": 2110,
      "Ġhow": 2111,
      "Ġaddressed": 2112,
      "Ġrefer": 2113,
      "Ġperform": 2114,
      "Ġori": 2115,
      "ready": 2116,
      "rial": 2117,
      "âĢĿ,": 2118,
      "Ġtraffic": 2119,
      "RA": 2120,
      "Ġcitiz": 2121,
      "ah": 2122,
      "Sec": 2123,
      "Ġeffic": 2124,
      "Ġestablishment": 2125,
      "Ġtotal": 2126,
      "armament": 2127,
      "Ġfreedom": 2128,
      "30": 2129,
      "Ġdeal": 2130,
      "Ġexisting": 2131,
      "irect": 2132,
      "Ġfait": 2133,
      "Ġreceived": 2134,
      "Ġcarri": 2135,
      "Ġ2009": 2136,
      "Ġalready": 2137,
      "Ġcoordination": 2138,
      "Ġlarge": 2139,
      "Ġsmall": 2140,
      "Ġprinciples": 2141,
      "lusion": 2142,
      "Ã¨me": 2143,
      "Ġconn": 2144,
      "Ġfully": 2145,
      "duce": 2146,
      "La": 2147,
      "ĠÃītats": 2148,
      "Ġorganization": 2149,
      "Ġmethod": 2150,
      "ĠMinister": 2151,
      "iance": 2152,
      "gional": 2153,
      "Ġprocedure": 2154,
      "Ġpolice": 2155,
      "Ġcomprehensive": 2156,
      "Ġfamily": 2157,
      "Par": 2158,
      "eria": 2159,
      "visory": 2160,
      "aus": 2161,
      "Ġver": 2162,
      "Ġserious": 2163,
      "Con": 2164,
      "Ġpost": 2165,
      "ĠMinistry": 2166,
      "Ġown": 2167,
      "Ġindepend": 2168,
      "ĠReg": 2169,
      "Ġmandate": 2170,
      "Ġmarket": 2171,
      "Ġread": 2172,
      "force": 2173,
      "Ġtaking": 2174,
      "road": 2175,
      "Ġmaterial": 2176,
      "Ġintroduc": 2177,
      "With": 2178,
      "ding": 2179,
      "ĠJanuary": 2180,
      "Ġindust": 2181,
      "be": 2182,
      "Ġpursu": 2183,
      "IDS": 2184,
      "Ġdialogue": 2185,
      "raq": 2186,
      "Ġdirec": 2187,
      "elf": 2188,
      "Ġeval": 2189,
      "Ġservice": 2190,
      "urn": 2191,
      "isms": 2192,
      "ath": 2193,
      "irm": 2194,
      "Ġincluded": 2195,
      "tification": 2196,
      "Ġexpressed": 2197,
      "ories": 2198,
      "Ġpolitique": 2199,
      "izing": 2200,
      "Ġchar": 2201,
      "Ġdecisions": 2202,
      "Ġsuccess": 2203,
      "formation": 2204,
      "Ġev": 2205,
      "Ġadoption": 2206,
      "Ġweapons": 2207,
      "Ġcoun": 2208,
      "ink": 2209,
      "Ġtext": 2210,
      "Ġwar": 2211,
      "Ġvous": 2212,
      "Ġinvestig": 2213,
      "ĠRussi": 2214,
      "Ġexpec": 2215,
      "Ġdocuments": 2216,
      "dra": 2217,
      "dic": 2218,
      "CC": 2219,
      "Ġproceed": 2220,
      "usiness": 2221,
      "ES": 2222,
      "Ġdiscussion": 2223,
      "Ġapplication": 2224,
      "ords": 2225,
      "ĠZ": 2226,
      "seil": 2227,
      "ĠRepresentative": 2228,
      "ouse": 2229,
      "ints": 2230,
      "Ġvicti": 2231,
      "Ġentitled": 2232,
      "Ġtyp": 2233,
      "Ġassoci": 2234,
      "Ch": 2235,
      "Ġmonth": 2236,
      "Ġobligations": 2237,
      "ĠdÃ©c": 2238,
      "ĠSu": 2239,
      "Ġincreased": 2240,
      "ĠPalestinian": 2241,
      "Ġregarding": 2242,
      "Ġactions": 2243,
      "Ġlo": 2244,
      "ĠNor": 2245,
      "ĠParty": 2246,
      ".,": 2247,
      "angu": 2248,
      "Ġelect": 2249,
      "ĠExecutive": 2250,
      "Ġcontinued": 2251,
      "Ġnet": 2252,
      "Ġquestions": 2253,
      "ests": 2254,
      "ering": 2255,
      "Ġrule": 2256,
      "Ġevent": 2257,
      "ĠRapporteur": 2258,
      "Ġel": 2259,
      "ermanent": 2260,
      "Ġregular": 2261,
      "Ġless": 2262,
      "Ġwish": 2263,
      "Ġdomestic": 2264,
      "Ġsolution": 2265,
      "Ġchang": 2266,
      "view": 2267,
      "Ġ21": 2268,
      "Ġhowever": 2269,
      "ĠIraq": 2270,
      "ĠSp": 2271,
      "Ġrecent": 2272,
      "Ãªme": 2273,
      "ĠSouth": 2274,
      "Ġamount": 2275,
      "Ġ25": 2276,
      "Ġill": 2277,
      "ee": 2278,
      "Ġpractices": 2279,
      "ward": 2280,
      "Ġconsultations": 2281,
      "Ġleast": 2282,
      "Ġdecided": 2283,
      "ui": 2284,
      "Ġthird": 2285,
      "Ġgovernment": 2286,
      "Ġgovern": 2287,
      "ĠFin": 2288,
      "Ġenergy": 2289,
      "ĠÃ©c": 2290,
      "ĠTreaty": 2291,
      "not": 2292,
      "Ġsent": 2293,
      "sp": 2294,
      "Ġstrategy": 2295,
      "Ġrese": 2296,
      "Ġlack": 2297,
      "Ġarmed": 2298,
      "Ġtem": 2299,
      "cent": 2300,
      "Ġcomme": 2301,
      "ĠConseil": 2302,
      "To": 2303,
      "Ġlife": 2304,
      "Ġvehic": 2305,
      "ĠMe": 2306,
      "Comm": 2307,
      "Ġjust": 2308,
      "Ġkey": 2309,
      "Ġrecon": 2310,
      "Ġdid": 2311,
      "Ġhand": 2312,
      "Ġwater": 2313,
      "ebru": 2314,
      "ebruary": 2315,
      "Ġmembres": 2316,
      "Ġjoint": 2317,
      "Ġprevious": 2318,
      "Ġprovides": 2319,
      "Ġoccup": 2320,
      "AC": 2321,
      "Ġmechanisms": 2322,
      "These": 2323,
      "Ġproblem": 2324,
      "Ġfif": 2325,
      "Ġdet": 2326,
      "Ġincreasing": 2327,
      "ĠPermanent": 2328,
      "uted": 2329,
      "Ġobserv": 2330,
      "ribun": 2331,
      "Ġinitiatives": 2332,
      "Ġcitizens": 2333,
      "Ġcommitment": 2334,
      "amental": 2335,
      "imum": 2336,
      "ĠPeace": 2337,
      "ually": 2338,
      "Ġcover": 2339,
      "ances": 2340,
      "Ġassessment": 2341,
      "Ġdebate": 2342,
      "Ġdeli": 2343,
      "Ġfree": 2344,
      "Ġproviding": 2345,
      "ĠDem": 2346,
      "Ġlet": 2347,
      "__": 2348,
      "ĠÃ©gal": 2349,
      "Ġdue": 2350,
      "Ġproduction": 2351,
      "Ġarr": 2352,
      "Ġmaintain": 2353,
      "Ġage": 2354,
      "Ġconclud": 2355,
      "13": 2356,
      "Ġemphas": 2357,
      "Ġfunds": 2358,
      "2004": 2359,
      "Ġsum": 2360,
      "eal": 2361,
      "Ġhead": 2362,
      "Ġgive": 2363,
      "Ġrefuge": 2364,
      "That": 2365,
      "gent": 2366,
      "Ġanalys": 2367,
      "Ġsug": 2368,
      "Ġsever": 2369,
      "ars": 2370,
      "Ġproposals": 2371,
      "ising": 2372,
      "elines": 2373,
      "Ġterrorism": 2374,
      "Ġmatter": 2375,
      "ides": 2376,
      "Ġreporting": 2377,
      "Ġexerc": 2378,
      "ified": 2379,
      "Ġcontributions": 2380,
      "dom": 2381,
      "IS": 2382,
      "Ġvictims": 2383,
      "Ġinstruments": 2384,
      "Ġfound": 2385,
      "utes": 2386,
      "Article": 2387,
      "Ġmatters": 2388,
      "Ġcosts": 2389,
      "Ġdiscuss": 2390,
      "Ġthreat": 2391,
      "Ġagric": 2392,
      "ĠHIV": 2393,
      "Ã©sent": 2394,
      "Ġresponse": 2395,
      "Ġ22": 2396,
      "ications": 2397,
      "Ġrelig": 2398,
      "ivision": 2399,
      "Ġfinal": 2400,
      "Ġwelcom": 2401,
      "inion": 2402,
      "Ġemerg": 2403,
      "Ġpersonnel": 2404,
      "Ġfe": 2405,
      "ii": 2406,
      "CN": 2407,
      "ĠÃ©galement": 2408,
      "Ġactive": 2409,
      "Ġcommunication": 2410,
      "Ġpass": 2411,
      "Ġemployment": 2412,
      "ĠArticle": 2413,
      "ather": 2414,
      "Ġput": 2415,
      "Ġlangu": 2416,
      "ĠSw": 2417,
      "ĠTur": 2418,
      "Ġprevention": 2419,
      "Ġadequ": 2420,
      "If": 2421,
      "Ġseveral": 2422,
      "Ġdest": 2423,
      "Ġ31": 2424,
      "Ġ23": 2425,
      "):": 2426,
      "Ġtechnology": 2427,
      "Ġsen": 2428,
      "CR": 2429,
      "Ġestim": 2430,
      "Ġprepared": 2431,
      "Ġstrengthening": 2432,
      "63": 2433,
      "2001": 2434,
      "Ġcultural": 2435,
      "vail": 2436,
      "ĠFebruary": 2437,
      "Ġpot": 2438,
      "Ġclose": 2439,
      "ically": 2440,
      "Ġpractice": 2441,
      "Ġpriority": 2442,
      "Les": 2443,
      "sia": 2444,
      "ĠConstitution": 2445,
      "amb": 2446,
      "Ġcannot": 2447,
      "unities": 2448,
      "Ġcoordin": 2449,
      "anel": 2450,
      "Ġguaran": 2451,
      "erb": 2452,
      "Pro": 2453,
      "acc": 2454,
      "Ġtest": 2455,
      "Ġstrong": 2456,
      "ĠII": 2457,
      "Ġmes": 2458,
      "2000": 2459,
      "Ġrisk": 2460,
      "They": 2461,
      "ON": 2462,
      "Ġdel": 2463,
      "crib": 2464,
      "lands": 2465,
      "2005": 2466,
      "Ġpromotion": 2467,
      "ax": 2468,
      "EP": 2469,
      "mission": 2470,
      "Ġreported": 2471,
      "Ġfav": 2472,
      "Ġindigenous": 2473,
      "term": 2474,
      "Ġprinciple": 2475,
      "Ã¨g": 2476,
      "ible": 2477,
      "ugust": 2478,
      "Ġnext": 2479,
      "Ġpeacekeeping": 2480,
      "ulated": 2481,
      "Ġstatis": 2482,
      "ĠAdminist": 2483,
      "Ġable": 2484,
      "side": 2485,
      "hold": 2486,
      "Ġche": 2487,
      "iation": 2488,
      "Ġinvolved": 2489,
      "Ġbetter": 2490,
      "Ġresponsible": 2491,
      "ĠRo": 2492,
      "ĠDirect": 2493,
      "sif": 2494,
      "ĠChar": 2495,
      "Ġcris": 2496,
      "nement": 2497,
      "Ġchallenges": 2498,
      "Ġ24": 2499,
      "Ġobjectives": 2500,
      "Ġadministrative": 2501,
      "aged": 2502,
      "Ġvou": 2503,
      "Ġnou": 2504,
      "Ġprob": 2505,
      "ledge": 2506,
      "Ġshe": 2507,
      "Ġnature": 2508,
      "Ġconven": 2509,
      "Ġplay": 2510,
      "hile": 2511,
      "Ġ198": 2512,
      "Ġorgan": 2513,
      "Ġbusiness": 2514,
      "Ġlight": 2515,
      "ls": 2516,
      "though": 2517,
      "Ġorigin": 2518,
      "self": 2519,
      "25": 2520,
      "ief": 2521,
      "rime": 2522,
      "gether": 2523,
      "Ġtogether": 2524,
      "ression": 2525,
      "ici": 2526,
      "hib": 2527,
      "ending": 2528,
      "Ġaussi": 2529,
      "United": 2530,
      "iste": 2531,
      "Ġaspects": 2532,
      "eth": 2533,
      "ancing": 2534,
      "ler": 2535,
      "Ġabs": 2536,
      "gu": 2537,
      "vision": 2538,
      "Ġcred": 2539,
      "Ġexc": 2540,
      "Ġresearch": 2541,
      "Ġcaus": 2542,
      "14": 2543,
      "60": 2544,
      "atural": 2545,
      "Ġvot": 2546,
      "Ġpartnership": 2547,
      "ording": 2548,
      "Ġagreements": 2549,
      "ĠChairman": 2550,
      "Ġfood": 2551,
      "based": 2552,
      "ĠInter": 2553,
      "ania": 2554,
      "De": 2555,
      "Ġconnec": 2556,
      "Ġmight": 2557,
      "ĠAgree": 2558,
      "Ġpa": 2559,
      "ght": 2560,
      "Ġsi": 2561,
      "Ġtransfer": 2562,
      "Ġquality": 2563,
      "Ġbroad": 2564,
      "Ġharm": 2565,
      "eti": 2566,
      "Ġtreatment": 2567,
      "Ġacts": 2568,
      "abilit": 2569,
      "Ġarrange": 2570,
      "59": 2571,
      "CEF": 2572,
      "fficient": 2573,
      "Ġcarried": 2574,
      "Ġgrowth": 2575,
      "Ġbelieve": 2576,
      "ĠMan": 2577,
      "action": 2578,
      "Ġforeign": 2579,
      "Ġfive": 2580,
      "ables": 2581,
      "ĠrÃ©s": 2582,
      "illen": 2583,
      "Ġappl": 2584,
      "Ag": 2585,
      "lected": 2586,
      "Ġfaire": 2587,
      "ĠAmerica": 2588,
      "Ġclim": 2589,
      "Ġback": 2590,
      "Ġ1998": 2591,
      "ĠDirector": 2592,
      "ela": 2593,
      "Ġneeded": 2594,
      "Ġopinion": 2595,
      "ĠUNI": 2596,
      "Ġgreater": 2597,
      "Ġconsist": 2598,
      "venant": 2599,
      "Ġapproved": 2600,
      "illennium": 2601,
      "Ġcourse": 2602,
      "raft": 2603,
      "ticles": 2604,
      "ĠEast": 2605,
      "aken": 2606,
      "Ġessential": 2607,
      "rast": 2608,
      "ograph": 2609,
      "Ġdetail": 2610,
      "lection": 2611,
      "Ġhold": 2612,
      "Ġexplo": 2613,
      "orture": 2614,
      "Ġmove": 2615,
      "Ġmention": 2616,
      "eneva": 2617,
      "Ġminor": 2618,
      "Ġapply": 2619,
      "Ġhig": 2620,
      "ĠSub": 2621,
      "ĠKing": 2622,
      "Ġissued": 2623,
      "Ġcost": 2624,
      "rait": 2625,
      "ĠCode": 2626,
      "Dec": 2627,
      "Ġmuch": 2628,
      "af": 2629,
      "ask": 2630,
      "Ġforces": 2631,
      "Ġsection": 2632,
      "Ġtoday": 2633,
      "ĠDis": 2634,
      "AIDS": 2635,
      "co": 2636,
      "GO": 2637,
      "ĠPlan": 2638,
      "Ġfar": 2639,
      "Ġconv": 2640,
      "Ġnotre": 2641,
      "ification": 2642,
      "change": 2643,
      "Ġeffect": 2644,
      "ior": 2645,
      "Europe": 2646,
      "ĠTer": 2647,
      "Ġcrime": 2648,
      "Ġbecome": 2649,
      "elles": 2650,
      "Ġmission": 2651,
      "rence": 2652,
      "ĠCont": 2653,
      "rate": 2654,
      "Ġanother": 2655,
      "here": 2656,
      "17": 2657,
      "ada": 2658,
      "Ġsan": 2659,
      "cer": 2660,
      "Ġdistrib": 2661,
      "Ġbest": 2662,
      "Ġthen": 2663,
      "Ġreduction": 2664,
      "ĠAugust": 2665,
      "Ġbring": 2666,
      "veness": 2667,
      "ians": 2668,
      "ĠEnvironment": 2669,
      "Ġpeoples": 2670,
      "uations": 2671,
      "Ġfundamental": 2672,
      "Ġopportunity": 2673,
      "Ġfind": 2674,
      "Ġbasic": 2675,
      "Ġdate": 2676,
      "Ġequality": 2677,
      "gn": 2678,
      "Ġfunding": 2679,
      "ribunal": 2680,
      "acy": 2681,
      "Ġpurpose": 2682,
      "Ġaccept": 2683,
      "oung": 2684,
      "Ġsafety": 2685,
      "Ġforward": 2686,
      "Ġdated": 2687,
      "Ġmeet": 2688,
      "Ġ27": 2689,
      "Ġground": 2690,
      "Ġcommitted": 2691,
      "Ġtreaty": 2692,
      "Ġ28": 2693,
      "na": 2694,
      "Ġson": 2695,
      "ĠBel": 2696,
      "ĠCovenant": 2697,
      "ience": 2698,
      "ĠAgreement": 2699,
      "Ġsexual": 2700,
      "ĠService": 2701,
      "ĠFore": 2702,
      "rance": 2703,
      "position": 2704,
      "aring": 2705,
      "Ġtrafficking": 2706,
      "Ġsett": 2707,
      "18": 2708,
      "ĠQ": 2709,
      "Ġstrategies": 2710,
      "els": 2711,
      "ĠMal": 2712,
      "Ġren": 2713,
      "Ġbelow": 2714,
      "Ġviolations": 2715,
      "Ġtransp": 2716,
      "igration": 2717,
      "Ġpositive": 2718,
      "ones": 2719,
      "lam": 2720,
      "Ġdrug": 2721,
      "pro": 2722,
      "ador": 2723,
      "Ġaccording": 2724,
      "Ġpress": 2725,
      "ĠKingdom": 2726,
      "ipment": 2727,
      "ached": 2728,
      "Ġ26": 2729,
      "fin": 2730,
      "Ġreference": 2731,
      "Ġdraw": 2732,
      "ĠSum": 2733,
      "Ġforms": 2734,
      "limin": 2735,
      "shop": 2736,
      "29": 2737,
      "medi": 2738,
      "Ġavons": 2739,
      "ensus": 2740,
      "Ġstatements": 2741,
      "tors": 2742,
      "IC": 2743,
      "Ġrural": 2744,
      "Ġleaders": 2745,
      "ĠMillennium": 2746,
      "ĠTrans": 2747,
      "Ġleur": 2748,
      "alling": 2749,
      "Ġplanning": 2750,
      "Ġcamp": 2751,
      "Ġdone": 2752,
      "Ġcomplain": 2753,
      "Ġdoit": 2754,
      "Ġcalled": 2755,
      "Ġpromoting": 2756,
      "Ġsci": 2757,
      "Ġaimed": 2758,
      "Ġexperts": 2759,
      "to": 2760,
      "ave": 2761,
      "Ġeth": 2762,
      "areness": 2763,
      "ple": 2764,
      "ĠReport": 2765,
      "Ġpast": 2766,
      "reci": 2767,
      "erson": 2768,
      "ĠCriminal": 2769,
      "Ġlaws": 2770,
      "ĠRussian": 2771,
      "ĠHead": 2772,
      "Ġfail": 2773,
      "Ġtous": 2774,
      "Ġauthority": 2775,
      "rastruc": 2776,
      "tection": 2777,
      "tilateral": 2778,
      "gest": 2779,
      "Ġannual": 2780,
      "ĠMeeting": 2781,
      "lo": 2782,
      "Ġshow": 2783,
      "Ġbal": 2784,
      "Ġcommer": 2785,
      "Ġaid": 2786,
      "Ġnatural": 2787,
      "iques": 2788,
      "Ġprovisional": 2789,
      "Ġrecord": 2790,
      "ĠDemocratic": 2791,
      "Ġadequate": 2792,
      "Ġrate": 2793,
      "2007": 2794,
      "Ġfamil": 2795,
      "Ġcommunities": 2796,
      "Ġcas": 2797,
      "Ġtook": 2798,
      "Ġinten": 2799,
      "Ġimplementing": 2800,
      "Ġimm": 2801,
      "tiveness": 2802,
      "Ġenhance": 2803,
      "lementation": 2804,
      "ployment": 2805,
      "55": 2806,
      "ĠAust": 2807,
      "level": 2808,
      "ouv": 2809,
      "Ġdisarmament": 2810,
      "agraph": 2811,
      "arters": 2812,
      "Further": 2813,
      "Ex": 2814,
      "Ġple": 2815,
      "Ġadopt": 2816,
      "Ġair": 2817,
      "Ġcommission": 2818,
      "Ġrecommended": 2819,
      "Ġstress": 2820,
      "Ġsem": 2821,
      "Ġhaving": 2822,
      "Ġcourt": 2823,
      "rief": 2824,
      "forcement": 2825,
      "ĠMonsieur": 2826,
      "of": 2827,
      "Ġlabour": 2828,
      "ger": 2829,
      "ither": 2830,
      "Ã©d": 2831,
      "Ġfunction": 2832,
      "Ġarms": 2833,
      "ĠForum": 2834,
      "Ġpursuant": 2835,
      "Ġplans": 2836,
      "Ġnetwork": 2837,
      "Ġrequests": 2838,
      "Ġpoints": 2839,
      "Ġinvestment": 2840,
      "Ġequal": 2841,
      "ĠAss": 2842,
      "Ġcollabor": 2843,
      "uis": 2844,
      "obil": 2845,
      "cont": 2846,
      "ĠFederation": 2847,
      "ĠTo": 2848,
      "ĠtrÃ¨s": 2849,
      "Ġvo": 2850,
      "ĠCan": 2851,
      "ghan": 2852,
      "Ġsteps": 2853,
      "Ġcurrently": 2854,
      "Ġgir": 2855,
      "Ġspace": 2856,
      "Ġspeak": 2857,
      "Ġfacilitate": 2858,
      "Ġmeasure": 2859,
      "unt": 2860,
      "EC": 2861,
      "Ġworkers": 2862,
      "Ġreason": 2863,
      "Ġtran": 2864,
      "Ġsupported": 2865,
      "Ġexpected": 2866,
      "Ġsay": 2867,
      "oss": 2868,
      "uty": 2869,
      "ĠAdvisory": 2870,
      "tees": 2871,
      "Ġcontribute": 2872,
      "Ġer": 2873,
      "ging": 2874,
      "Ġstudy": 2875,
      "ront": 2876,
      "embers": 2877,
      "Ġnegotiations": 2878,
      "Ġanalysis": 2879,
      "thern": 2880,
      "ĠCentral": 2881,
      "Ġgrant": 2882,
      "Ġsuff": 2883,
      "Ġconcerns": 2884,
      "Ġawareness": 2885,
      "ock": 2886,
      "Ġappreci": 2887,
      "Ġyoung": 2888,
      "IN": 2889,
      "Ġundertaken": 2890,
      "ĠCentre": 2891,
      "itÃ©s": 2892,
      "23": 2893,
      "Ġhope": 2894,
      "Ġknowledge": 2895,
      "Ġorganized": 2896,
      "operation": 2897,
      "While": 2898,
      "Ġthus": 2899,
      "ĠJustice": 2900,
      "Ġvul": 2901,
      "con": 2902,
      "ĠBank": 2903,
      "ĠCharter": 2904,
      "stances": 2905,
      "rel": 2906,
      "ĠmÃªme": 2907,
      "quarters": 2908,
      "ires": 2909,
      "Ġaffected": 2910,
      "Ġinformal": 2911,
      "anced": 2912,
      "Ġcontract": 2913,
      "Ġsep": 2914,
      "Ġhere": 2915,
      "ĠDivision": 2916,
      "limination": 2917,
      "Ġoffic": 2918,
      "ĠCommunity": 2919,
      "Ġreferred": 2920,
      "ilar": 2921,
      "nic": 2922,
      "Ġcompeti": 2923,
      "Ġcrisis": 2924,
      "Ġshort": 2925,
      "16": 2926,
      "ditional": 2927,
      "Ġproperty": 2928,
      "Ġcateg": 2929,
      "Ġguidelines": 2930,
      "Ġcompet": 2931,
      "Ġinitiative": 2932,
      "Ġpresented": 2933,
      "selves": 2934,
      "Ġopportunities": 2935,
      "Ġimplemented": 2936,
      "ĠPeop": 2937,
      "lÃ©": 2938,
      "Ġoperational": 2939,
      "Ġmaking": 2940,
      "Ġequipment": 2941,
      "orpor": 2942,
      "Ġrein": 2943,
      "Ġrespective": 2944,
      "Ġfinancing": 2945,
      "Ġpotential": 2946,
      "Ġwhole": 2947,
      "ology": 2948,
      "Ġoften": 2949,
      "ĠSummit": 2950,
      "Acc": 2951,
      "Ġ29": 2952,
      "order": 2953,
      "ĠRec": 2954,
      "Ġinformed": 2955,
      "Ġdelegations": 2956,
      "Ġcombat": 2957,
      "Ġyet": 2958,
      "ĠUNDP": 2959,
      "Ġensuring": 2960,
      "abilities": 2961,
      "Ġtravail": 2962,
      "PA": 2963,
      "Ġearly": 2964,
      "Ġothers": 2965,
      "iscrimination": 2966,
      "Ġwrit": 2967,
      "Ġlimited": 2968,
      "anda": 2969,
      "Ġobjective": 2970,
      "ĠChina": 2971,
      "Ġliving": 2972,
      "way": 2973,
      "Ġinfrastruc": 2974,
      "Ġenter": 2975,
      "Ã¨res": 2976,
      "line": 2977,
      "stitute": 2978,
      "Ġbiennium": 2979,
      "Ġvulner": 2980,
      "ilateral": 2981,
      "Ġpower": 2982,
      "Ġregions": 2983,
      "ĠdÃ©velop": 2984,
      "ĠTrade": 2985,
      "ably": 2986,
      "Ġname": 2987,
      "DC": 2988,
      "Ġclimate": 2989,
      "Ġsafe": 2990,
      "Ġconsequ": 2991,
      "Ġmainten": 2992,
      "Ġpeut": 2993,
      "Ġunderstanding": 2994,
      "Ġprofession": 2995,
      "Ġtar": 2996,
      "Ġmissions": 2997,
      "ducation": 2998,
      "Ġliber": 2999,
      "ĠRoom": 3000,
      "ĠGeneva": 3001,
      "Annex": 3002,
      "apter": 3003,
      "Ġself": 3004,
      "Ġperformance": 3005,
      "ĠdÃ©b": 3006,
      "Ġevaluation": 3007,
      "EN": 3008,
      "Ġcircum": 3009,
      "pons": 3010,
      "Ġmulti": 3011,
      "Ġindependent": 3012,
      "Ġsy": 3013,
      "Ġprotect": 3014,
      "Ġyour": 3015,
      "Ġobtain": 3016,
      "apan": 3017,
      "Ġfem": 3018,
      "Ġcarry": 3019,
      "Ġdifficult": 3020,
      "Ġarrangements": 3021,
      "ĠTribunal": 3022,
      "met": 3023,
      "ferences": 3024,
      "Ġtransition": 3025,
      "Ġsepar": 3026,
      "Ġstrategic": 3027,
      "Ġachieved": 3028,
      "uris": 3029,
      "aster": 3030,
      "ions": 3031,
      "Ġpub": 3032,
      "Ġsatis": 3033,
      "Ġhim": 3034,
      "ĠGerman": 3035,
      "Ġprem": 3036,
      "Ġcentral": 3037,
      "Ġsatisf": 3038,
      "All": 3039,
      "Ġreserv": 3040,
      "Ġrepl": 3041,
      "Ġqual": 3042,
      "50": 3043,
      "Ġnotes": 3044,
      "bs": 3045,
      "ustom": 3046,
      "Ġten": 3047,
      "Ġdispl": 3048,
      "Ġstated": 3049,
      "erous": 3050,
      "Ġbegin": 3051,
      "Ġinterests": 3052,
      "Ġalloc": 3053,
      "Ġoffice": 3054,
      "Ġcrit": 3055,
      "teg": 3056,
      "Ġline": 3057,
      "Mon": 3058,
      "ĠNet": 3059,
      "Ġconsum": 3060,
      "sibilities": 3061,
      "Ġparticipate": 3062,
      "part": 3063,
      "Ġstructure": 3064,
      "Ġgrand": 3065,
      "Ġconnection": 3066,
      "onst": 3067,
      "62": 3068,
      "Ġexperience": 3069,
      "Ġtim": 3070,
      "Fin": 3071,
      "Ġexchange": 3072,
      "ifth": 3073,
      "Ġmonths": 3074,
      "Ġgoals": 3075,
      "Ġrecommendation": 3076,
      "going": 3077,
      "ĠLi": 3078,
      "Ġdevons": 3079,
      "ĠMar": 3080,
      "Ġanti": 3081,
      "Ġarticles": 3082,
      "Ġconduct": 3083,
      "spec": 3084,
      "ĠAfghan": 3085,
      "ĠÃ©conom": 3086,
      "Ġrestric": 3087,
      "Pre": 3088,
      "ĠImp": 3089,
      "ha": 3090,
      "OP": 3091,
      "Ġgoods": 3092,
      "Ġfacilities": 3093,
      "Ġinternal": 3094,
      "jet": 3095,
      "Ġitself": 3096,
      "Ġintegration": 3097,
      "Ġdirective": 3098,
      "Ġdroits": 3099,
      "ĠYork": 3100,
      "ĠCol": 3101,
      "vere": 3102,
      "Ġfifty": 3103,
      "Ġcompan": 3104,
      "Ġregulations": 3105,
      "ales": 3106,
      "AT": 3107,
      "Ġincome": 3108,
      "aine": 3109,
      "Ġgirls": 3110,
      "Ġfew": 3111,
      "Ġz": 3112,
      "by": 3113,
      "unish": 3114,
      "jour": 3115,
      "Ġ50": 3116,
      "Ġmanner": 3117,
      "Ġworkshop": 3118,
      "Ġproceedings": 3119,
      "Ġbrief": 3120,
      "ĠHealth": 3121,
      "Ġeconomy": 3122,
      "Ġrecommends": 3123,
      "Ġmultilateral": 3124,
      "ze": 3125,
      "Ġprobl": 3126,
      "enth": 3127,
      "Ġparagraphs": 3128,
      "Ġprimary": 3129,
      "iversity": 3130,
      "ling": 3131,
      "According": 3132,
      "ECE": 3133,
      "24": 3134,
      "Ġalleg": 3135,
      "Ġimmedi": 3136,
      "Ġamendments": 3137,
      "ĠCongo": 3138,
      "Ġinstitutional": 3139,
      "Ġchanges": 3140,
      "ĠMs": 3141,
      "Ã§": 3142,
      "ĠAll": 3143,
      "ulate": 3144,
      "Ġexpert": 3145,
      "Ġju": 3146,
      "Ġmechanism": 3147,
      "gment": 3148,
      "Ġapproval": 3149,
      "Ġpreparation": 3150,
      "Ġlow": 3151,
      "Ġaltern": 3152,
      "aper": 3153,
      "ĠChildren": 3154,
      "Ġformer": 3155,
      "Ġtro": 3156,
      "ĠSud": 3157,
      "tified": 3158,
      "Ġinvited": 3159,
      "poses": 3160,
      "endit": 3161,
      "Ġdou": 3162,
      "ident": 3163,
      "Ġintegrated": 3164,
      "rateg": 3165,
      "Ġdefin": 3166,
      "oles": 3167,
      "Ġvalue": 3168,
      "Ġprison": 3169,
      "reg": 3170,
      "ĠTechn": 3171,
      "Ġutil": 3172,
      "Ġdeux": 3173,
      "enty": 3174,
      "Ġdiscussions": 3175,
      "Ġbody": 3176,
      "Ġasse": 3177,
      "Ġbenefit": 3178,
      "iversal": 3179,
      "Ġcommitments": 3180,
      "Ġnos": 3181,
      "rer": 3182,
      "aties": 3183,
      "Ġsituations": 3184,
      "Ġsources": 3185,
      "ronic": 3186,
      "ĠUNC": 3187,
      "Ġcompliance": 3188,
      "pre": 3189,
      "Ġinvolve": 3190,
      "Ġoverall": 3191,
      "tem": 3192,
      "Ġcrimes": 3193,
      "Ġfulf": 3194,
      "Ġ1997": 3195,
      "ĠAb": 3196,
      "WP": 3197,
      "ĠAsia": 3198,
      "ception": 3199,
      "Ġbuilding": 3200,
      "Ġeffects": 3201,
      "Report": 3202,
      "Ġmarch": 3203,
      "Ġtax": 3204,
      "ÂłÂł": 3205,
      "Ġcircumstances": 3206,
      "Ġpurposes": 3207,
      "Ġprohib": 3208,
      "akes": 3209,
      "Ġmo": 3210,
      "Ġprocesses": 3211,
      "Ġviews": 3212,
      "Ġcomplete": 3213,
      "mal": 3214,
      "Ġtorture": 3215,
      "Ġrefugees": 3216,
      "Ġremains": 3217,
      "Ġcompon": 3218,
      "ana": 3219,
      "cribed": 3220,
      "Ã©rie": 3221,
      "Ġterritory": 3222,
      "Ġwant": 3223,
      "ĠPanel": 3224,
      "Ġfamilies": 3225,
      "ĠNGO": 3226,
      "Ġbenefits": 3227,
      "related": 3228,
      "Ġencourage": 3229,
      "ĠdÃ©velopp": 3230,
      "Ġdown": 3231,
      "tes": 3232,
      "Ġdeath": 3233,
      "Ġcru": 3234,
      "iency": 3235,
      "ends": 3236,
      "See": 3237,
      "ounts": 3238,
      "ins": 3239,
      "Ġcooper": 3240,
      "Ġoutcome": 3241,
      "Ġschools": 3242,
      "io": 3243,
      "ĠCoord": 3244,
      "ourth": 3245,
      "Ġeffort": 3246,
      "Ġexercise": 3247,
      "Ġcontre": 3248,
      "prises": 3249,
      "ĠprÃ©sent": 3250,
      "Ã©ri": 3251,
      "ĠProtection": 3252,
      "ĠInformation": 3253,
      "oyens": 3254,
      "esp": 3255,
      "Ġjus": 3256,
      "Ġreduce": 3257,
      "put": 3258,
      "Ã©r": 3259,
      "Ġposts": 3260,
      "yl": 3261,
      "Ġbre": 3262,
      "Ġuntil": 3263,
      "Ġindividuals": 3264,
      "Ġfond": 3265,
      "Ġenj": 3266,
      "NS": 3267,
      "Ġenable": 3268,
      "Ġrecognized": 3269,
      "Ġoffices": 3270,
      "ĠMad": 3271,
      "ĠOffic": 3272,
      "ĠTerrit": 3273,
      "Ġrespons": 3274,
      "lav": 3275,
      "Ġdemonst": 3276,
      "entific": 3277,
      "ombre": 3278,
      "Ġtoo": 3279,
      "Ġsurve": 3280,
      "iferation": 3281,
      "untary": 3282,
      "rants": 3283,
      "Ġjudicial": 3284,
      "ĠRom": 3285,
      "bit": 3286,
      "Ġinfrastructure": 3287,
      "Ġstandard": 3288,
      "Ġproducts": 3289,
      "Ġadministration": 3290,
      "Ġusing": 3291,
      "Ġbl": 3292,
      "tique": 3293,
      "Ġincorpor": 3294,
      "Ġcounter": 3295,
      "ille": 3296,
      "âĢ¦âĢ¦âĢ¦âĢ¦": 3297,
      "Af": 3298,
      "Ġfunctions": 3299,
      "âĢ¢": 3300,
      "Ġcentres": 3301,
      "Ġprosec": 3302,
      "osov": 3303,
      "rought": 3304,
      "ĠFrance": 3305,
      "Ġinstrument": 3306,
      "year": 3307,
      "Ġidentified": 3308,
      "itable": 3309,
      "ude": 3310,
      "2003": 3311,
      "just": 3312,
      "ream": 3313,
      "Ġtype": 3314,
      "Ã©cess": 3315,
      "Ġreturn": 3316,
      "ĠnÃ©cess": 3317,
      "Ġculture": 3318,
      "Ġsubstantive": 3319,
      "Ġ--": 3320,
      "Ġaud": 3321,
      "Ġwee": 3322,
      "Ġcontr": 3323,
      "Ġalia": 3324,
      "Ġlear": 3325,
      "aches": 3326,
      "Ġtable": 3327,
      ".âĢĿ": 3328,
      "Other": 3329,
      "legal": 3330,
      "Ġindicated": 3331,
      "Ġvoudra": 3332,
      "ER": 3333,
      "26": 3334,
      "ites": 3335,
      "Ġdemocra": 3336,
      "ouver": 3337,
      "Ġlors": 3338,
      "ĠCub": 3339,
      "eed": 3340,
      "Ġabuse": 3341,
      "Ġrespond": 3342,
      "rest": 3343,
      "Ġtool": 3344,
      "Ġobser": 3345,
      "sement": 3346,
      "Ġban": 3347,
      "Ġenjoy": 3348,
      "Ġterm": 3349,
      "Ġcomments": 3350,
      "Ġday": 3351,
      "ĠExper": 3352,
      "Ġnombre": 3353,
      "diction": 3354,
      "Ġcompens": 3355,
      "27": 3356,
      "oid": 3357,
      "aries": 3358,
      "Ġevidence": 3359,
      "andid": 3360,
      "Ġsuccessful": 3361,
      "Ġofficials": 3362,
      "Ġethnic": 3363,
      "ĠSudan": 3364,
      "ĠManagement": 3365,
      "Ġgovernance": 3366,
      "ĠInstitute": 3367,
      "rench": 3368,
      "Ġatte": 3369,
      "Ġjuris": 3370,
      "Ġfollows": 3371,
      "Ġcapital": 3372,
      "Ġsectors": 3373,
      "semin": 3374,
      "ways": 3375,
      "Ġdetention": 3376,
      "ustain": 3377,
      "ĠKosov": 3378,
      "auc": 3379,
      "ipp": 3380,
      "mitted": 3381,
      "ama": 3382,
      "Ã©nÃ©": 3383,
      "More": 3384,
      "Ġmedia": 3385,
      "tt": 3386,
      "mical": 3387,
      "Ġactivity": 3388,
      "Ġwhose": 3389,
      "Ġcorre": 3390,
      "Ġvehicle": 3391,
      "Ġshare": 3392,
      "During": 3393,
      "mis": 3394,
      "Sub": 3395,
      "Ġfight": 3396,
      "Ġrelation": 3397,
      "Ġletter": 3398,
      "ils": 3399,
      "Ġsufficient": 3400,
      "Ġinn": 3401,
      "cell": 3402,
      "Ġthroughout": 3403,
      "ĠBur": 3404,
      "ousing": 3405,
      "Ġeffectively": 3406,
      "Ġexpendit": 3407,
      "Ġenforcement": 3408,
      "Ġharmon": 3409,
      "Ġapplied": 3410,
      "Ġpriorities": 3411,
      "Ġtop": 3412,
      "UE": 3413,
      "Ġsessions": 3414,
      "Ġconducted": 3415,
      "Ġelements": 3416,
      "ĠCivil": 3417,
      "Ġimproving": 3418,
      "Ġstruct": 3419,
      "ĠIsraeli": 3420,
      "Ġpouv": 3421,
      "ico": 3422,
      "IT": 3423,
      "ĠPublic": 3424,
      "Ġoperation": 3425,
      "ey": 3426,
      "Ġextre": 3427,
      "Ġvoudrais": 3428,
      "lements": 3429,
      "Ġdam": 3430,
      "Ġintroduced": 3431,
      "Ġextent": 3432,
      "ĠLat": 3433,
      "Ġnom": 3434,
      "Ġelections": 3435,
      "Ġthemselves": 3436,
      "40": 3437,
      "Ġrapporteur": 3438,
      "Ġattack": 3439,
      "Ġlin": 3440,
      "Ġ1996": 3441,
      "Ġsubsid": 3442,
      "Ġparticipants": 3443,
      "DA": 3444,
      "ĠForce": 3445,
      "Ġcandid": 3446,
      "Ġtarget": 3447,
      "ĠForeign": 3448,
      "lusions": 3449,
      "ĠCanada": 3450,
      "Ġcritical": 3451,
      "Ġofficers": 3452,
      "enary": 3453,
      "Ġitems": 3454,
      "ĠCount": 3455,
      "Ġindicators": 3456,
      "56": 3457,
      "Ġmond": 3458,
      "Ġperman": 3459,
      "more": 3460,
      "ĠKosovo": 3461,
      "ĠAnnex": 3462,
      "Ġhist": 3463,
      "ĠCrime": 3464,
      "Ġparticul": 3465,
      "Ġwelcome": 3466,
      "Ġ0": 3467,
      "Ġmean": 3468,
      "Ġopp": 3469,
      "Ġloss": 3470,
      "ĠLeban": 3471,
      "ored": 3472,
      "ĠApp": 3473,
      "making": 3474,
      "ĠGlobal": 3475,
      "Ġacqu": 3476,
      "Ġcela": 3477,
      "Ġlaun": 3478,
      "Ġrevised": 3479,
      "iting": 3480,
      "Ġdevelopments": 3481,
      "ĠJapan": 3482,
      "Ġsl": 3483,
      "ĠWe": 3484,
      "eng": 3485,
      "Ġclaims": 3486,
      "Ġconference": 3487,
      "ĠUNICEF": 3488,
      "Ġclearly": 3489,
      "acter": 3490,
      "Ġsol": 3491,
      "Ġroad": 3492,
      "ya": 3493,
      "Ġmethods": 3494,
      "Ġide": 3495,
      "TAD": 3496,
      "Ġcomment": 3497,
      "Ġrather": 3498,
      "Ġcreate": 3499,
      "idd": 3500,
      "Ġlegislative": 3501,
      "Ġtechnologies": 3502,
      "ĠGo": 3503,
      "isters": 3504,
      "ured": 3505,
      "Ġstates": 3506,
      "izes": 3507,
      "Ġphys": 3508,
      "HR": 3509,
      "ury": 3510,
      "ĠTim": 3511,
      "One": 3512,
      "Ġcollaboration": 3513,
      "ĠCl": 3514,
      "fact": 3515,
      "Ġperspec": 3516,
      "rin": 3517,
      "Ġexem": 3518,
      "abit": 3519,
      "Ġdang": 3520,
      "ĠrÃ¨g": 3521,
      "person": 3522,
      "Ms": 3523,
      "uro": 3524,
      "Ġsuggest": 3525,
      "Ġbuild": 3526,
      "Ġdonc": 3527,
      "Ġobligation": 3528,
      "Ġneg": 3529,
      "Ġresol": 3530,
      "2009": 3531,
      "Ġmal": 3532,
      "reland": 3533,
      "Ġstability": 3534,
      "Ġbase": 3535,
      "Monsieur": 3536,
      "Ġproposition": 3537,
      "Ġteam": 3538,
      "Ġhon": 3539,
      "ĠReview": 3540,
      "Ġscope": 3541,
      "rict": 3542,
      "uting": 3543,
      "ĠStrateg": 3544,
      "comm": 3545,
      "ched": 3546,
      "Ġpoor": 3547,
      "Ġcal": 3548,
      "Ġkind": 3549,
      "know": 3550,
      "ĠdÃ©veloppement": 3551,
      "Ã©ration": 3552,
      "ndre": 3553,
      "Ġ197": 3554,
      "Ġupd": 3555,
      "Ġhigher": 3556,
      "Ġdisp": 3557,
      "ological": 3558,
      "tial": 3559,
      "Ġsomm": 3560,
      "Res": 3561,
      "lications": 3562,
      "ĠOper": 3563,
      "Ġthank": 3564,
      "Ġthink": 3565,
      "Ġconcer": 3566,
      "Ġcit": 3567,
      "Ġeither": 3568,
      "Ġfavour": 3569,
      "Ġconsolid": 3570,
      "oslav": 3571,
      "ureau": 3572,
      "Ġavoid": 3573,
      "Ġonce": 3574,
      "Ġreasons": 3575,
      "lex": 3576,
      "ees": 3577,
      "Ġmajority": 3578,
      "Ġpractical": 3579,
      "hat": 3580,
      "Ġapplicable": 3581,
      "ĠX": 3582,
      "Ġongoing": 3583,
      "ĠAm": 3584,
      "ingle": 3585,
      "insi": 3586,
      "Ġsimilar": 3587,
      "Ġdont": 3588,
      "Ġattend": 3589,
      "kets": 3590,
      "ĠUS": 3591,
      "Some": 3592,
      "No": 3593,
      "nership": 3594,
      "yc": 3595,
      "ĠdÃ©m": 3596,
      "Ġcommercial": 3597,
      "ibility": 3598,
      "Ġcome": 3599,
      "ĠCooperation": 3600,
      "Ġmentioned": 3601,
      "Ġdissemin": 3602,
      "aign": 3603,
      "lish": 3604,
      "28": 3605,
      "Ġwww": 3606,
      "Ġjour": 3607,
      "Ġpenal": 3608,
      "Ġresponsibilities": 3609,
      "Ġsubsequ": 3610,
      "venth": 3611,
      "oire": 3612,
      "portion": 3613,
      "Ġillegal": 3614,
      "ĠcrÃ©": 3615,
      "Ġ1995": 3616,
      "Ġtransparen": 3617,
      "ĠGermany": 3618,
      "Ġsolid": 3619,
      "Ġdebt": 3620,
      "Ġways": 3621,
      "Ġdifficul": 3622,
      "Ġmedical": 3623,
      "Ġlat": 3624,
      "Ġcommunications": 3625,
      "icit": 3626,
      "ĠAgency": 3627,
      "Ġsans": 3628,
      "ĠPeople": 3629,
      "Ġtwenty": 3630,
      "Ġface": 3631,
      "Ġ40": 3632,
      "Ġmass": 3633,
      "osition": 3634,
      "Ġreach": 3635,
      "Ġsoit": 3636,
      "oins": 3637,
      "Is": 3638,
      "lamic": 3639,
      "Ġwide": 3640,
      "Ind": 3641,
      "Ġhighl": 3642,
      "ica": 3643,
      "Ġconsultation": 3644,
      "tifs": 3645,
      "AR": 3646,
      "verse": 3647,
      "Ġminimum": 3648,
      "ruit": 3649,
      "Since": 3650,
      "ĠAssist": 3651,
      "ugoslav": 3652,
      "ustainable": 3653,
      "ĠRegulation": 3654,
      "ume": 3655,
      "oral": 3656,
      "Ġconsensus": 3657,
      "Ġspecif": 3658,
      "58": 3659,
      "Ġpunish": 3660,
      "Ġcours": 3661,
      "ĠÃ©v": 3662,
      "ruption": 3663,
      "sidency": 3664,
      "Ġeffectiveness": 3665,
      "IR": 3666,
      "ĠAfghanistan": 3667,
      "Ġcharacter": 3668,
      "Ġcreation": 3669,
      "ĠEducation": 3670,
      "Ġmax": 3671,
      "ĠItal": 3672,
      "Ġhost": 3673,
      "OS": 3674,
      "Ġlanguage": 3675,
      "Ġentities": 3676,
      "Ġacces": 3677,
      "Ġdistribution": 3678,
      "ames": 3679,
      "ĠYugoslav": 3680,
      "Ġpeu": 3681,
      "Ġincludes": 3682,
      "aps": 3683,
      "ersons": 3684,
      "Ġsup": 3685,
      "ĠCons": 3686,
      "ĠKore": 3687,
      "Ġestablishing": 3688,
      "Ġcross": 3689,
      "Ġjob": 3690,
      "Agenda": 3691,
      "Ġextra": 3692,
      "Ġencore": 3693,
      "Ġintergovernmental": 3694,
      "jourd": 3695,
      "alled": 3696,
      "jected": 3697,
      "ĠMembers": 3698,
      "Ġassi": 3699,
      "Ġdirectly": 3700,
      "Ġachieving": 3701,
      "Ġcourts": 3702,
      "ĠUnit": 3703,
      "Recalling": 3704,
      "Ġdemocratic": 3705,
      "Ġmut": 3706,
      "Ġconform": 3707,
      "venir": 3708,
      "Ġreached": 3709,
      "alls": 3710,
      "Ġconclusion": 3711,
      "regional": 3712,
      "used": 3713,
      "erci": 3714,
      "Ġdim": 3715,
      "Ġtreaties": 3716,
      "ics": 3717,
      "Ġmig": 3718,
      "1999": 3719,
      "ĠAssoci": 3720,
      "EA": 3721,
      "Ġresource": 3722,
      "Ġge": 3723,
      "Ġrates": 3724,
      "Ġaccep": 3725,
      "urement": 3726,
      "Ġir": 3727,
      "ĠAt": 3728,
      "ĠIran": 3729,
      "Ã©qu": 3730,
      "raz": 3731,
      "ĠIreland": 3732,
      "Ġcriteria": 3733,
      "inc": 3734,
      "ense": 3735,
      "arity": 3736,
      "Ã©cur": 3737,
      "Under": 3738,
      "bon": 3739,
      "Ġrange": 3740,
      "tiÃ¨re": 3741,
      "Ġwhy": 3742,
      "Ġoutside": 3743,
      "asion": 3744,
      "Ġrelationship": 3745,
      "oph": 3746,
      "Ġtri": 3747,
      "ĠNon": 3748,
      "RANS": 3749,
      "wide": 3750,
      "Ġmaterials": 3751,
      "iddle": 3752,
      "Ġreligious": 3753,
      "most": 3754,
      "Ġdays": 3755,
      "urer": 3756,
      "Ġpermanent": 3757,
      "Ġwords": 3758,
      "Ġwelcomed": 3759,
      "ante": 3760,
      "Ġsk": 3761,
      "ĠComp": 3762,
      "kra": 3763,
      "Ġstatistics": 3764,
      "Ġconstitution": 3765,
      "ĠDiscrimination": 3766,
      "Ã©curitÃ©": 3767,
      "Ġconflicts": 3768,
      "International": 3769,
      "Ġstake": 3770,
      "Ġinitial": 3771,
      "herlands": 3772,
      "sc": 3773,
      "hui": 3774,
      "Ġsuper": 3775,
      "new": 3776,
      "amber": 3777,
      "Ġmobil": 3778,
      "Ã»": 3779,
      "ĠEm": 3780,
      "Ġcro": 3781,
      "Ġguarantee": 3782,
      "Ġainsi": 3783,
      "ĠSe": 3784,
      "Ġpack": 3785,
      "Ġperiodic": 3786,
      "Ġindustry": 3787,
      "arents": 3788,
      "lective": 3789,
      "irmed": 3790,
      "porary": 3791,
      "ension": 3792,
      "ĠFrench": 3793,
      "Ġimproved": 3794,
      "ody": 3795,
      "Ġvulnerable": 3796,
      "Ġses": 3797,
      "Ġdiscussed": 3798,
      "Ġreceive": 3799,
      "issaire": 3800,
      "ivent": 3801,
      "Ġtask": 3802,
      "rid": 3803,
      "Ġexten": 3804,
      "Ġcontinuing": 3805,
      "Ġeducational": 3806,
      "2006": 3807,
      "ening": 3808,
      "Ġnouvel": 3809,
      "Ġadvance": 3810,
      "ĠSupp": 3811,
      "ĠHeadquarters": 3812,
      "Ġreflect": 3813,
      "Ġurban": 3814,
      "inary": 3815,
      "Ġbrought": 3816,
      "Ġcho": 3817,
      "Ġsingle": 3818,
      "holders": 3819,
      "Ġsanctions": 3820,
      "Ġstep": 3821,
      "Ġtravel": 3822,
      "sidence": 3823,
      "ĠIC": 3824,
      "Ġappeal": 3825,
      "Ġmom": 3826,
      "option": 3827,
      "ĠServices": 3828,
      "Ġcomplex": 3829,
      "Ġobst": 3830,
      "Ġphysical": 3831,
      "ĠMrs": 3832,
      "Ġexport": 3833,
      "Ġexpand": 3834,
      "ĠsÃ©curitÃ©": 3835,
      "Furthermore": 3836,
      "ĠdÃ©bat": 3837,
      "Ġcampaign": 3838,
      "rian": 3839,
      "Ã´le": 3840,
      "Ġappreciation": 3841,
      "ĠBureau": 3842,
      "Ġintended": 3843,
      "ĠSection": 3844,
      "21": 3845,
      "hers": 3846,
      "Ġgener": 3847,
      "Ã®": 3848,
      "Ġcalls": 3849,
      "Ġvoluntary": 3850,
      "ĠImplementation": 3851,
      "Ġterrorist": 3852,
      "Ġguidance": 3853,
      "uses": 3854,
      "Ġcontact": 3855,
      "Ġpor": 3856,
      "ventions": 3857,
      "Ġans": 3858,
      "arent": 3859,
      "Ġfinance": 3860,
      "Ġbud": 3861,
      "akistan": 3862,
      "Ġbon": 3863,
      "Ġalthough": 3864,
      "Ġadap": 3865,
      "Ġforest": 3866,
      "Ġevents": 3867,
      "Ġconclusions": 3868,
      "gr": 3869,
      "ierra": 3870,
      "Ġcause": 3871,
      "Ġbalance": 3872,
      "Ġfig": 3873,
      "Ġsupply": 3874,
      "Ġlimit": 3875,
      "Ġexploitation": 3876,
      "razil": 3877,
      "Ġden": 3878,
      "Ġidentify": 3879,
      "Ġtoute": 3880,
      "Ġextreme": 3881,
      "ick": 3882,
      "alities": 3883,
      "Ġsal": 3884,
      "Ġdemocracy": 3885,
      "Ġviolation": 3886,
      "ĠSy": 3887,
      "ĠGe": 3888,
      "Ġemb": 3889,
      "adre": 3890,
      "Ġhousing": 3891,
      "Ġmind": 3892,
      "Ġsoon": 3893,
      "coming": 3894,
      "Ġmis": 3895,
      "Ġdern": 3896,
      "AS": 3897,
      "Ġsuis": 3898,
      "Ġconsequences": 3899,
      "Ġfaut": 3900,
      "yan": 3901,
      "Ġ60": 3902,
      "PR": 3903,
      "Ġcontinues": 3904,
      "Ġsupporting": 3905,
      "Ġparts": 3906,
      "Ġexternal": 3907,
      "Such": 3908,
      "Ġaddressing": 3909,
      "Ġcop": 3910,
      "ades": 3911,
      "exico": 3912,
      "IL": 3913,
      "pret": 3914,
      "Ġoccur": 3915,
      "Ġpeaceful": 3916,
      "Ġracial": 3917,
      "urance": 3918,
      "quests": 3919,
      "Ġdoll": 3920,
      "ĠIII": 3921,
      "Ġadjust": 3922,
      "osp": 3923,
      "first": 3924,
      "roduction": 3925,
      "Ġassociated": 3926,
      "Ġelectronic": 3927,
      "ĠAdministrative": 3928,
      "arib": 3929,
      "Ġseek": 3930,
      "Ġexperien": 3931,
      "Ġdesigned": 3932,
      "Ġdecl": 3933,
      "Ġcontra": 3934,
      "respon": 3935,
      "Ġconvention": 3936,
      "Ġreaff": 3937,
      "ĠHer": 3938,
      "Ġdefined": 3939,
      "Ġelimin": 3940,
      "Ġrequires": 3941,
      "ĠLeone": 3942,
      "osn": 3943,
      "onia": 3944,
      "Ġmoment": 3945,
      "ĠPolitical": 3946,
      "ION": 3947,
      "rable": 3948,
      "Ġconcept": 3949,
      "ompl": 3950,
      "ĠCuba": 3951,
      "Ġsource": 3952,
      "ĠBar": 3953,
      "Ġthough": 3954,
      "Ġappoint": 3955,
      "Ġcond": 3956,
      "ptional": 3957,
      "Ġreiter": 3958,
      "ĠAut": 3959,
      "Ġentire": 3960,
      "Ġtrend": 3961,
      "ung": 3962,
      "Ġraised": 3963,
      "cted": 3964,
      "Ġpat": 3965,
      "Ġparents": 3966,
      "Ġmesures": 3967,
      "comes": 3968,
      "iers": 3969,
      "Ġpaper": 3970,
      "Ġemergency": 3971,
      "Ġleg": 3972,
      "Ġcivilian": 3973,
      "Ġdeep": 3974,
      "Ġconcluded": 3975,
      "Ġemp": 3976,
      "bean": 3977,
      "ĠTurkey": 3978,
      "Let": 3979,
      "Ġprec": 3980,
      "mbass": 3981,
      "Ġspecialized": 3982,
      "ocument": 3983,
      "Also": 3984,
      "Ġefficiency": 3985,
      "ternet": 3986,
      "aribbean": 3987,
      "uts": 3988,
      "ĠRegional": 3989,
      "Ġgiv": 3990,
      "zer": 3991,
      "Ġrelative": 3992,
      "ĠLiber": 3993,
      "ĠmarchÃ©": 3994,
      "ĠKorea": 3995,
      "ĠmatiÃ¨re": 3996,
      "ufact": 3997,
      "vered": 3998,
      "ĠCor": 3999,
      "ĠSerb": 4000,
      "Ġregime": 4001,
      "lusive": 4002,
      "Ġestimated": 4003,
      "gov": 4004,
      "Ġcompensation": 4005,
      "nal": 4006,
      "Ġmaintenance": 4007,
      "Ġquel": 4008,
      "aces": 4009,
      "Ġflow": 4010,
      "Ġfactors": 4011,
      "Ġbilateral": 4012,
      "icy": 4013,
      "ĠNGOs": 4014,
      "ĠSierra": 4015,
      "Ġencouraged": 4016,
      "Ġcohe": 4017,
      "ria": 4018,
      "uer": 4019,
      "ik": 4020,
      "Ġalways": 4021,
      "Ġcommittee": 4022,
      "istration": 4023,
      "Ġinj": 4024,
      "Ġsyst": 4025,
      "Ġcustom": 4026,
      "Ġcovered": 4027,
      "Ġdisplaced": 4028,
      "aiti": 4029,
      "Ġappear": 4030,
      "aria": 4031,
      "Ġuseful": 4032,
      "73": 4033,
      "Ġagricultural": 4034,
      "Ġdetailed": 4035,
      "Ġpense": 4036,
      "Ġmanufact": 4037,
      "Ġdri": 4038,
      "State": 4039,
      "ĠGoals": 4040,
      "habilit": 4041,
      "ĠCaribbean": 4042,
      "Ġvehicles": 4043,
      "ĠrÃ©gion": 4044,
      "Ġasked": 4045,
      "Ġcitoyens": 4046,
      "ralia": 4047,
      "Ġclos": 4048,
      "ĠNetherlands": 4049,
      "inth": 4050,
      "Ġstage": 4051,
      "Ġpaid": 4052,
      "assif": 4053,
      "Ġled": 4054,
      "ĠEng": 4055,
      "Ġsigned": 4056,
      "Ġinnov": 4057,
      "wise": 4058,
      "____": 4059,
      "Ġ1990": 4060,
      "rorism": 4061,
      "iment": 4062,
      "Ġgouver": 4063,
      "ĠChamber": 4064,
      "Ġentry": 4065,
      "ills": 4066,
      "ĠdÃ©f": 4067,
      "Ġconstruction": 4068,
      "Ġdise": 4069,
      "Ġ55": 4070,
      "Ġlanguages": 4071,
      "Ġeconomies": 4072,
      "inea": 4073,
      "Ġrecover": 4074,
      "ĠThis": 4075,
      "ĠUNCTAD": 4076,
      "Ã¹": 4077,
      "Ġcrucial": 4078,
      "Ġelle": 4079,
      "Ġplenary": 4080,
      "Ġfair": 4081,
      "ĠPart": 4082,
      "Ġdelivery": 4083,
      "Ã¨mes": 4084,
      "HCR": 4085,
      "ane": 4086,
      "ĠOptional": 4087,
      "Ġpermet": 4088,
      "Ġclar": 4089,
      "acific": 4090,
      "Ġreproduc": 4091,
      "Ġcompanies": 4092,
      "ĠElimination": 4093,
      "oted": 4094,
      "oh": 4095,
      "ĠBosn": 4096,
      "time": 4097,
      "Ġleurs": 4098,
      "Ġarbit": 4099,
      "Ġamendment": 4100,
      "astern": 4101,
      "ash": 4102,
      "ole": 4103,
      "ĠSystem": 4104,
      "Ġforum": 4105,
      "ton": 4106,
      "ĠCountries": 4107,
      "ienna": 4108,
      "Ġbo": 4109,
      "posi": 4110,
      "Ġalternative": 4111,
      "Ġperp": 4112,
      "Ġjurisdiction": 4113,
      "Ġefficient": 4114,
      "ishes": 4115,
      "omal": 4116,
      "Ġaround": 4117,
      "22": 4118,
      "But": 4119,
      "Ġrecently": 4120,
      "Ġvalues": 4121,
      "Ġnive": 4122,
      "Ġconsistent": 4123,
      "Ġimplications": 4124,
      "Ġassets": 4125,
      "Ġuniversal": 4126,
      "Ġurgent": 4127,
      "ulg": 4128,
      "Ġinvolving": 4129,
      "Ġattemp": 4130,
      "anish": 4131,
      "Ġnouve": 4132,
      "Ġrac": 4133,
      "Ġforth": 4134,
      "ĠSustainable": 4135,
      "cri": 4136,
      "Ġcet": 4137,
      "Ġinterpret": 4138,
      "Ġphase": 4139,
      "Ġgroupe": 4140,
      "itors": 4141,
      "ĠIt": 4142,
      "ĠSwed": 4143,
      "utor": 4144,
      "abled": 4145,
      "Ġyouth": 4146,
      "ĠlÃ©": 4147,
      "Ġbar": 4148,
      "ĠFederal": 4149,
      "economic": 4150,
      "iser": 4151,
      "illed": 4152,
      "Ġdoivent": 4153,
      "www": 4154,
      "kraine": 4155,
      "ĠLabour": 4156,
      "gyp": 4157,
      "Ġsubmission": 4158,
      "Ġdroit": 4159,
      "OM": 4160,
      "Ġund": 4161,
      "Ġsixty": 4162,
      "Commission": 4163,
      "Ġconstruc": 4164,
      "stream": 4165,
      "uw": 4166,
      "Ġlib": 4167,
      "Ġafin": 4168,
      "any": 4169,
      "Ġchallenge": 4170,
      "ets": 4171,
      "aud": 4172,
      "ague": 4173,
      "Ġfil": 4174,
      "Ġsched": 4175,
      "aj": 4176,
      "ĠTimor": 4177,
      "ij": 4178,
      "Paragraph": 4179,
      "Ġred": 4180,
      "ĠPh": 4181,
      "lier": 4182,
      "plom": 4183,
      "Ġpolitiques": 4184,
      "ĠJoint": 4185,
      "Ġemissions": 4186,
      "Ġstakeholders": 4187,
      "Ġconcent": 4188,
      "vantage": 4189,
      "Ġfulfil": 4190,
      "acts": 4191,
      "App": 4192,
      "riv": 4193,
      "itzer": 4194,
      "Ce": 4195,
      "aient": 4196,
      "SC": 4197,
      "Ġinvestigation": 4198,
      "ĠdÃ©j": 4199,
      "itzerland": 4200,
      "Ġsolutions": 4201,
      "ĠIndia": 4202,
      "She": 4203,
      "Ġdestruction": 4204,
      "Ġdifficulties": 4205,
      "Ġcreated": 4206,
      "Ġ2010": 4207,
      "Ġinvolvement": 4208,
      "Ġpresence": 4209,
      "AM": 4210,
      "irms": 4211,
      "Ġserve": 4212,
      "Ġstar": 4213,
      "ĠPort": 4214,
      "Ġsommes": 4215,
      "autres": 4216,
      "Ġrenew": 4217,
      "OR": 4218,
      "Ġaver": 4219,
      "national": 4220,
      "Requests": 4221,
      "ĠdÃ©jÃł": 4222,
      "ĠIslamic": 4223,
      "Ġalong": 4224,
      "bour": 4225,
      "ĠGuinea": 4226,
      "Ġobservations": 4227,
      "Ġstudies": 4228,
      "Ġdirection": 4229,
      "Ġactors": 4230,
      "sy": 4231,
      "Ġremed": 4232,
      "Ġdefinition": 4233,
      "Ġhours": 4234,
      "Ġport": 4235,
      "Ġlook": 4236,
      "Ġerad": 4237,
      "Ġregulation": 4238,
      "Ġpossibility": 4239,
      "Ġpositions": 4240,
      "Ġmarkets": 4241,
      "iable": 4242,
      "ĠrÃ©g": 4243,
      "Ġsusp": 4244,
      "Ġ'": 4245,
      "ĠSci": 4246,
      "ĠAmerican": 4247,
      "Ġdetain": 4248,
      "itness": 4249,
      "tegration": 4250,
      "ĠRel": 4251,
      "Ġcompetent": 4252,
      "ĠAssociation": 4253,
      "Ġfreedoms": 4254,
      "draw": 4255,
      "Ġlonger": 4256,
      "ĠSupport": 4257,
      "ously": 4258,
      "roll": 4259,
      "Ġreflected": 4260,
      "formal": 4261,
      "Ġpartnerships": 4262,
      "apon": 4263,
      "61": 4264,
      "ĠoÃ¹": 4265,
      "Ġcadre": 4266,
      "ĠKy": 4267,
      "Ġ1994": 4268,
      "DE": 4269,
      "ĠBe": 4270,
      "icate": 4271,
      "ĠÃ©conomique": 4272,
      "Although": 4273,
      "ĠprÃ©c": 4274,
      "Ġconcre": 4275,
      "third": 4276,
      "ogical": 4277,
      "FPA": 4278,
      "Ġachievement": 4279,
      "Ġsettlement": 4280,
      "Ġdescribed": 4281,
      "tically": 4282,
      "owers": 4283,
      "itions": 4284,
      "Table": 4285,
      "ĠRw": 4286,
      "Ġmovement": 4287,
      "unic": 4288,
      "Ġsuggested": 4289,
      "Ġsemin": 4290,
      "Ġflex": 4291,
      "Ġsav": 4292,
      "roliferation": 4293,
      "ĠmaniÃ¨re": 4294,
      "requ": 4295,
      "hÃ©": 4296,
      "ĠMes": 4297,
      "ground": 4298,
      "Ġfer": 4299,
      "Ġgoal": 4300,
      "Ġhouse": 4301,
      "45": 4302,
      "pt": 4303,
      "67": 4304,
      "Ġpressure": 4305,
      "ains": 4306,
      "Ġjudge": 4307,
      "teur": 4308,
      "sian": 4309,
      "ued": 4310,
      "iens": 4311,
      "Ġadvoc": 4312,
      "ĠNig": 4313,
      "Ġaujourd": 4314,
      "Ġseem": 4315,
      "Ġillicit": 4316,
      "ival": 4317,
      "Ġtransparency": 4318,
      "istic": 4319,
      "ĠPakistan": 4320,
      "Ġarrest": 4321,
      "Draft": 4322,
      "ĠTransport": 4323,
      "estern": 4324,
      "Ġparas": 4325,
      "sieurs": 4326,
      "Ġconferences": 4327,
      "Ġperpet": 4328,
      "urd": 4329,
      "ĠBrazil": 4330,
      "Ġtrou": 4331,
      "Ġshown": 4332,
      "habilitation": 4333,
      "ĠLegal": 4334,
      "Ġlit": 4335,
      "Ġlater": 4336,
      "Ġ100": 4337,
      "Ġfinanci": 4338,
      "aging": 4339,
      "ann": 4340,
      "Moreover": 4341,
      "Ġmodel": 4342,
      "Ġprepare": 4343,
      "Ġimprovement": 4344,
      "ĠnÃ©": 4345,
      "Ġcompris": 4346,
      "ffec": 4347,
      "Ġtraditional": 4348,
      "itim": 4349,
      "ĠGre": 4350,
      "Ġcompar": 4351,
      "Ġjudges": 4352,
      "Ġinflu": 4353,
      "ĠEqu": 4354,
      "lication": 4355,
      "Ġcompleted": 4356,
      "Ġdollars": 4357,
      "Ġold": 4358,
      "arus": 4359,
      "irth": 4360,
      "Ġsouti": 4361,
      "tise": 4362,
      "yond": 4363,
      "teurs": 4364,
      "Ġwelcomes": 4365,
      "Ġseries": 4366,
      "Ġduty": 4367,
      "Ġmoney": 4368,
      "ĠdÃ©cision": 4369,
      "ishing": 4370,
      "ĠSomal": 4371,
      "positions": 4372,
      "Ġcapacities": 4373,
      "Ġapproaches": 4374,
      "Ġobstac": 4375,
      "Ġbeyond": 4376,
      "ĠMiddle": 4377,
      "uter": 4378,
      "Ġconcerne": 4379,
      "umed": 4380,
      "quer": 4381,
      "ĠdiffÃ©": 4382,
      "Ġtal": 4383,
      "Ġcentre": 4384,
      "teenth": 4385,
      "Ġformal": 4386,
      "Ġindustrial": 4387,
      "Ġunits": 4388,
      "ĠBosnia": 4389,
      "ify": 4390,
      "Ġcyc": 4391,
      "Ġwithdraw": 4392,
      "Ġintern": 4393,
      "Ġregul": 4394,
      "Ġsite": 4395,
      "xim": 4396,
      "Ġtant": 4397,
      "Ġsafegu": 4398,
      "Ġpermit": 4399,
      "ece": 4400,
      "second": 4401,
      "Ġnegative": 4402,
      "onesia": 4403,
      "Ġplaced": 4404,
      "Ġclosely": 4405,
      "jud": 4406,
      "zegov": 4407,
      "ĠMexico": 4408,
      "Ġradi": 4409,
      "ĠItaly": 4410,
      "Ġtimes": 4411,
      "Ġwor": 4412,
      "zegovina": 4413,
      "ĠPrevention": 4414,
      "Ġlink": 4415,
      "igned": 4416,
      "Ġpoll": 4417,
      "Ġperspective": 4418,
      "Ġintegr": 4419,
      "Ġpersonal": 4420,
      "Ġunique": 4421,
      "Ġsimp": 4422,
      "Ġcommunaut": 4423,
      "ĠVienna": 4424,
      "ĠrÃ©al": 4425,
      "ired": 4426,
      "uv": 4427,
      "Ġcompetition": 4428,
      "Ġborder": 4429,
      "Ġcore": 4430,
      "Ġmaximum": 4431,
      "Ġtypes": 4432,
      "erve": 4433,
      "Ġcollective": 4434,
      "session": 4435,
      "tle": 4436,
      "Ġabsence": 4437,
      "amment": 4438,
      "ervation": 4439,
      "ĠWest": 4440,
      "Ġacknow": 4441,
      "What": 4442,
      "ĠInternet": 4443,
      "Ġchemical": 4444,
      "tify": 4445,
      "hood": 4446,
      "ĠHouse": 4447,
      "Ġstressed": 4448,
      "Ġbeginning": 4449,
      "orial": 4450,
      "ĠFra": 4451,
      "Ġamended": 4452,
      "Ġconcrete": 4453,
      "ĠStatis": 4454,
      "ck": 4455,
      "Ġorganis": 4456,
      "vereign": 4457,
      "Ġprodu": 4458,
      "Ġscientific": 4459,
      "Ġelected": 4460,
      "Ġdamage": 4461,
      "ĠPolicy": 4462,
      "undi": 4463,
      "Ġdepend": 4464,
      "Ġdelay": 4465,
      "ĠLatin": 4466,
      "Ġleadership": 4467,
      "mbassador": 4468,
      "Item": 4469,
      "ĠHerzegovina": 4470,
      "Ġdealing": 4471,
      "ĠAuthor": 4472,
      "Ġcorrespon": 4473,
      "ĠAdministration": 4474,
      "ĠLebanon": 4475,
      "Ġexec": 4476,
      "Ġsovereign": 4477,
      "Ġdepart": 4478,
      "bur": 4479,
      "Ġexception": 4480,
      "ĠdÃ©mocra": 4481,
      "uj": 4482,
      "rison": 4483,
      "Ġdivers": 4484,
      "Ãªtre": 4485,
      "ĠProsec": 4486,
      "iÃ¨me": 4487,
      "ĠStand": 4488,
      "Ġfollowed": 4489,
      "ĠPer": 4490,
      "Ġpublication": 4491,
      "oup": 4492,
      "Ġnever": 4493,
      "Ġrepr": 4494,
      "Not": 4495,
      "ĠÂ": 4496,
      "Ġetc": 4497,
      "active": 4498,
      "Ġindependence": 4499,
      "Ġprofessional": 4500,
      "Ġcontains": 4501,
      "Ġtex": 4502,
      "Ġweek": 4503,
      "ighth": 4504,
      "earch": 4505,
      "udgetary": 4506,
      "212": 4507,
      "Ġniveau": 4508,
      "sych": 4509,
      "Ġcivilians": 4510,
      "ĠgÃ©nÃ©": 4511,
      "Ġord": 4512,
      "Ġcauses": 4513,
      "Ġlive": 4514,
      "EM": 4515,
      "Ġdisaster": 4516,
      "lease": 4517,
      "ĠGovern": 4518,
      "Ġaware": 4519,
      "Ġremar": 4520,
      "Ġregistration": 4521,
      "ese": 4522,
      "Ġdetermined": 4523,
      "Ġcomprom": 4524,
      "Ġcaused": 4525,
      "occ": 4526,
      "Ġresulting": 4527,
      "//": 4528,
      "Ġratification": 4529,
      "Ġspecified": 4530,
      "Ġdocumentation": 4531,
      "AP": 4532,
      "lished": 4533,
      "unicip": 4534,
      "Ġtemps": 4535,
      "Ġsera": 4536,
      "sight": 4537,
      "Ġrecovery": 4538,
      "ĠUNECE": 4539,
      "Ġgenerally": 4540,
      "ĠUNM": 4541,
      "Ġtroop": 4542,
      "ĠKuw": 4543,
      "tation": 4544,
      "Ġmarri": 4545,
      "ements": 4546,
      "ĠmÃ©": 4547,
      "roati": 4548,
      "ĠEnglish": 4549,
      "Ġacross": 4550,
      "Ġstart": 4551,
      "Ġconventions": 4552,
      "ĠRules": 4553,
      "Ġoffences": 4554,
      "Ġcat": 4555,
      "Ġside": 4556,
      "licit": 4557,
      "Ġnamely": 4558,
      "rain": 4559,
      "umb": 4560,
      "abilitÃ©": 4561,
      "Ġdesp": 4562,
      "Ġsubstances": 4563,
      "Ġmembership": 4564,
      "Ġthir": 4565,
      "vironnement": 4566,
      "ĠPacific": 4567,
      "Ġcategory": 4568,
      "Ġwitness": 4569,
      "oor": 4570,
      "tieth": 4571,
      "Ġmort": 4572,
      "Ġgas": 4573,
      "Ġexceed": 4574,
      "TO": 4575,
      "Ġbu": 4576,
      "ĠlÃ©gisl": 4577,
      "reating": 4578,
      "ĠEth": 4579,
      "rend": 4580,
      "Ġspeakers": 4581,
      "://": 4582,
      "Ġdeclaration": 4583,
      "ĠSpain": 4584,
      "jan": 4585,
      "Ġseen": 4586,
      "ĠDisarmament": 4587,
      "Follow": 4588,
      "istered": 4589,
      "ĠPersons": 4590,
      "Ġdiplom": 4591,
      "ĠproblÃ¨me": 4592,
      "Ġstatistical": 4593,
      "By": 4594,
      "ttp": 4595,
      "ateurs": 4596,
      "Ġtakes": 4597,
      "mark": 4598,
      "Ġlie": 4599,
      "ental": 4600,
      "2008": 4601,
      "Ġlegitim": 4602,
      "Ġsugges": 4603,
      "ua": 4604,
      "ĠAcc": 4605,
      "ĠDrug": 4606,
      "Ġ58": 4607,
      "Ġhalf": 4608,
      "lev": 4609,
      "First": 4610,
      "Ġbes": 4611,
      "33": 4612,
      "ciliation": 4613,
      "Ġinspec": 4614,
      "ĠFramework": 4615,
      "Am": 4616,
      "Ġcontent": 4617,
      "Cont": 4618,
      "Ġdispos": 4619,
      "49": 4620,
      "When": 4621,
      "omme": 4622,
      "Ġrapid": 4623,
      "Ġalleged": 4624,
      "Ġgrowing": 4625,
      "iary": 4626,
      "ĠcollÃ¨g": 4627,
      "Ġspecifically": 4628,
      "ylum": 4629,
      "Ġgaran": 4630,
      "gypt": 4631,
      "istics": 4632,
      "yn": 4633,
      "zech": 4634,
      "tiques": 4635,
      "isons": 4636,
      "Ġcombating": 4637,
      "flic": 4638,
      "Ġimpos": 4639,
      "ape": 4640,
      "Ġbillion": 4641,
      "Ġhome": 4642,
      "Ġessenti": 4643,
      "Ġpersonnes": 4644,
      "Ġspons": 4645,
      "ĠMed": 4646,
      "Ġdonors": 4647,
      "Ġleave": 4648,
      "ĠMor": 4649,
      "aving": 4650,
      "Ġmor": 4651,
      "resolution": 4652,
      "idents": 4653,
      "Ġmedium": 4654,
      "Ġaccompl": 4655,
      "Ġextended": 4656,
      "Ġsetting": 4657,
      "Ġraison": 4658,
      "Ġfocused": 4659,
      "ĠAustralia": 4660,
      "Int": 4661,
      "cipl": 4662,
      "struction": 4663,
      "Ġconfidence": 4664,
      "ĠSecond": 4665,
      "Ã¢": 4666,
      "ancial": 4667,
      "Ġsubregional": 4668,
      "2002": 4669,
      "Ġvisit": 4670,
      "Ġconsent": 4671,
      "Ġexpenditure": 4672,
      "Second": 4673,
      "Ġsummary": 4674,
      "Ġtrial": 4675,
      "New": 4676,
      "ĠChief": 4677,
      "rices": 4678,
      "AL": 4679,
      "Chair": 4680,
      "Ġoffer": 4681,
      "ots": 4682,
      "Ġauc": 4683,
      "ĠMinisters": 4684,
      "Ġdonn": 4685,
      "Ġseparate": 4686,
      "tÃ©": 4687,
      "Ġwritten": 4688,
      "Ġrecruit": 4689,
      "Ġgrounds": 4690,
      "Ġconvic": 4691,
      "Ġcooperate": 4692,
      "lined": 4693,
      "Ġundertake": 4694,
      "Ġnation": 4695,
      "Ġoperating": 4696,
      "CP": 4697,
      "Ġdecre": 4698,
      "Ġaverage": 4699,
      "Ġcomply": 4700,
      "ancy": 4701,
      "Note": 4702,
      "set": 4703,
      "omes": 4704,
      "ĠAdd": 4705,
      "Ġdisabilities": 4706,
      "ĠOperations": 4707,
      "oration": 4708,
      "ĠNorway": 4709,
      "actions": 4710,
      "luding": 4711,
      "ta": 4712,
      "Ġreligion": 4713,
      "Ġlog": 4714,
      "Ġmainstream": 4715,
      "54": 4716,
      "vance": 4717,
      "ĠTe": 4718,
      "Ġrecognition": 4719,
      "Finally": 4720,
      "Ġminist": 4721,
      "Ġskills": 4722,
      "tivity": 4723,
      "ĠSwitzerland": 4724,
      "fois": 4725,
      "aines": 4726,
      "abil": 4727,
      "Ġrehabilitation": 4728,
      "Ġimmediate": 4729,
      "ĠVice": 4730,
      "Ġcollection": 4731,
      "ĠUkraine": 4732,
      "Ġparce": 4733,
      "Ġhapp": 4734,
      "ypr": 4735,
      "lles": 4736,
      "Ġoccupied": 4737,
      "yprus": 4738,
      "Ġdespite": 4739,
      "Ġmess": 4740,
      "Ġ963": 4741,
      "Ġtimely": 4742,
      "ĠGeorg": 4743,
      "Ġlower": 4744,
      "prise": 4745,
      "ĠColomb": 4746,
      "ĠStrategy": 4747,
      "Ġavant": 4748,
      "ĠrÃ©pon": 4749,
      "iop": 4750,
      "ĠBurundi": 4751,
      "HE": 4752,
      "Ġround": 4753,
      "Ġdetermine": 4754,
      "ealand": 4755,
      "ĠAc": 4756,
      "Ġactively": 4757,
      "agit": 4758,
      "acement": 4759,
      "ĠreprÃ©sent": 4760,
      "Ġcorpor": 4761,
      "argets": 4762,
      "Ġreducing": 4763,
      "hest": 4764,
      "Pour": 4765,
      "Ġallowed": 4766,
      "titude": 4767,
      "ĠExperts": 4768,
      "Ġimposed": 4769,
      "Ġexplain": 4770,
      "Ġtemporary": 4771,
      "My": 4772,
      "Ġindicate": 4773,
      "Ġdit": 4774,
      "Rev": 4775,
      "Ġinclusion": 4776,
      "Ġinternationally": 4777,
      "Ġstructures": 4778,
      "Ã©li": 4779,
      "ĠCoordination": 4780,
      "Ġoffence": 4781,
      "ilitÃ©": 4782,
      "ĠMa": 4783,
      "ĠPop": 4784,
      "Ġreduced": 4785,
      "Ġfuel": 4786,
      "Ġrun": 4787,
      "Ġremained": 4788,
      "Ġtit": 4789,
      "Ġminorities": 4790,
      "AN": 4791,
      "Ġbirth": 4792,
      "Ġenvis": 4793,
      "ĠEst": 4794,
      "Ġprocurement": 4795,
      "Ġgranted": 4796,
      "ĠAuthority": 4797,
      "uay": 4798,
      "ĠFirst": 4799,
      "Ġhop": 4800,
      "Ġcomplement": 4801,
      "Ġrelief": 4802,
      "ĠCommun": 4803,
      "Ġcomponent": 4804,
      "lov": 4805,
      "ma": 4806,
      "PT": 4807,
      "Ġmandates": 4808,
      "Ġpra": 4809,
      "Ġexpertise": 4810,
      "ĠSh": 4811,
      "Ġdefence": 4812,
      "Ġendors": 4813,
      "Ġtools": 4814,
      "Conc": 4815,
      "Ġfarm": 4816,
      "flict": 4817,
      "quoi": 4818,
      "Ġpayment": 4819,
      "Ġleading": 4820,
      "Nations": 4821,
      "accord": 4822,
      "Ġabsol": 4823,
      "tr": 4824,
      "Ġunderstand": 4825,
      "Ġmodern": 4826,
      "Ġtargets": 4827,
      "iles": 4828,
      "ĠSweden": 4829,
      "ĠEl": 4830,
      "ointed": 4831,
      "ĠOther": 4832,
      "Ġrepresented": 4833,
      "Ġgeograph": 4834,
      "Ġtrust": 4835,
      "ĠRegulations": 4836,
      "itiative": 4837,
      "Ġstrengthened": 4838,
      "ighted": 4839,
      "Ġdatab": 4840,
      "Ġtas": 4841,
      "ean": 4842,
      "AD": 4843,
      "Ġ54": 4844,
      "Ġ($": 4845,
      "ĠHaiti": 4846,
      "Ġcoordinated": 4847,
      "ĠâĢĵ": 4848,
      "Ġrefugee": 4849,
      "Ġder": 4850,
      "III": 4851,
      "Ġfois": 4852,
      "ĠYugoslavia": 4853,
      "Ġconstitute": 4854,
      "ĠTerritory": 4855,
      "Ġ%": 4856,
      "ĠUNHCR": 4857,
      "HC": 4858,
      "ĠNuclear": 4859,
      "Ġpossib": 4860,
      "Ġrequirement": 4861,
      "37": 4862,
      "Ġassessments": 4863,
      "Ġpunishment": 4864,
      "ĠIndonesia": 4865,
      "Ġunit": 4866,
      "Ġautres": 4867,
      "elling": 4868,
      "Ġ1993": 4869,
      "Ġ.": 4870,
      "Ġfemale": 4871,
      "47": 4872,
      "Ġannoun": 4873,
      "Or": 4874,
      "ĠWeapons": 4875,
      "ĠPolice": 4876,
      "gen": 4877,
      "Ġlives": 4878,
      "Please": 4879,
      "Ġpercent": 4880,
      "emic": 4881,
      "Ġnear": 4882,
      "inued": 4883,
      "Ġgovernments": 4884,
      "Ġpublished": 4885,
      "35": 4886,
      "Ġencourages": 4887,
      "Ġwid": 4888,
      "Ġaccepted": 4889,
      "ĠGreat": 4890,
      "issance": 4891,
      "Ġreforms": 4892,
      "Ġchap": 4893,
      "ened": 4894,
      "racts": 4895,
      "Ġtoutes": 4896,
      "Ġfourth": 4897,
      "aza": 4898,
      "Ġproportion": 4899,
      "Imp": 4900,
      "Ġattacks": 4901,
      "Ġconcernant": 4902,
      "ĠCyprus": 4903,
      "six": 4904,
      "adies": 4905,
      "Ġquan": 4906,
      "Ġdeliber": 4907,
      "Ġinh": 4908,
      "ĠconsÃ©qu": 4909,
      "Ġseu": 4910,
      "ĠChairperson": 4911,
      "gentina": 4912,
      "Ġamb": 4913,
      "oon": 4914,
      "ĠCroati": 4915,
      "Ġaccountability": 4916,
      "sels": 4917,
      "South": 4918,
      "enders": 4919,
      "Ġremerci": 4920,
      "Ġability": 4921,
      "ĠRef": 4922,
      "Ġlar": 4923,
      "Ġtermin": 4924,
      "enses": 4925,
      "Ġcertains": 4926,
      "ĠUniversity": 4927,
      "Ġhonour": 4928,
      "Ġasylum": 4929,
      "ĠRwanda": 4930,
      "UNI": 4931,
      "ĠAgenda": 4932,
      "ĠTurk": 4933,
      "Ġ37": 4934,
      "Secret": 4935,
      "ĠOF": 4936,
      "ĠResearch": 4937,
      "ĠEC": 4938,
      "oler": 4939,
      "ĠdÃ©p": 4940,
      "Ġsein": 4941,
      "Ġcondition": 4942,
      "Ġenhancing": 4943,
      "Ġaffect": 4944,
      "Ġelabor": 4945,
      "ĠBelg": 4946,
      "ĠCultural": 4947,
      "Ġvalid": 4948,
      "Ġsentence": 4949,
      "Ġknown": 4950,
      "ert": 4951,
      "ĠPrin": 4952,
      "ĠAmbassador": 4953,
      "Ġsche": 4954,
      "Ġoil": 4955,
      "Ġoccupation": 4956,
      "Ġneigh": 4957,
      "ĠCzech": 4958,
      "mon": 4959,
      "Ġpsych": 4960,
      "Ġengage": 4961,
      "akh": 4962,
      "Ġstudents": 4963,
      "rea": 4964,
      "Ġ48": 4965,
      "Ã¡": 4966,
      "Ġdegra": 4967,
      "Ġdomaine": 4968,
      "Ġlaunched": 4969,
      "Ġmakes": 4970,
      "hol": 4971,
      "Ġlikely": 4972,
      "Ġuni": 4973,
      "Ġemphasis": 4974,
      "December": 4975,
      "ĠcoopÃ©ration": 4976,
      "ĠProced": 4977,
      "38": 4978,
      "iological": 4979,
      "atute": 4980,
      "ximately": 4981,
      "Ġadvice": 4982,
      "Ġincreasingly": 4983,
      "ugal": 4984,
      "inding": 4985,
      "Ġget": 4986,
      "ninth": 4987,
      "Ġsubsequent": 4988,
      "Ġstip": 4989,
      "Ġheard": 4990,
      "homme": 4991,
      "ĠPalestine": 4992,
      "Ġapplications": 4993,
      "ĠUnder": 4994,
      "isme": 4995,
      "Ġvital": 4996,
      "Ġremo": 4997,
      "Ġimmediately": 4998,
      "DG": 4999,
      "oto": 5000,
      "Ġterritories": 5001,
      "Ġextend": 5002,
      "Ġchapter": 5003,
      "Ġplanned": 5004,
      "fifth": 5005,
      "bid": 5006,
      "Ġprotocol": 5007,
      "ming": 5008,
      "So": 5009,
      "pect": 5010,
      "Ġspeed": 5011,
      "President": 5012,
      "Ġroom": 5013,
      "rig": 5014,
      "Ġpowers": 5015,
      "ĠNorthern": 5016,
      "Ġcategories": 5017,
      "Ġparticipating": 5018,
      "ands": 5019,
      "48": 5020,
      "Ġregret": 5021,
      "tie": 5022,
      "Ġvue": 5023,
      "stance": 5024,
      "Ġpopulations": 5025,
      "Ġdonor": 5026,
      "Ġintention": 5027,
      "Ġspir": 5028,
      "ĠrÃ©solution": 5029,
      "Ġfis": 5030,
      "ĠUNEP": 5031,
      "Ġdoub": 5032,
      "TS": 5033,
      "Dans": 5034,
      "Ġoptions": 5035,
      "Introduction": 5036,
      "Ġagriculture": 5037,
      "ĠSyrian": 5038,
      "ĠProm": 5039,
      "Ġmother": 5040,
      "Ġaffairs": 5041,
      "Ġmoins": 5042,
      "afety": 5043,
      "with": 5044,
      "ĠDar": 5045,
      "Ġfix": 5046,
      "ĠZealand": 5047,
      "Ġshared": 5048,
      "Ġhighest": 5049,
      "inter": 5050,
      "tir": 5051,
      "ĠFam": 5052,
      "Ġdeg": 5053,
      "rary": 5054,
      "Ġelection": 5055,
      "bo": 5056,
      "Ġcreating": 5057,
      "Ãªt": 5058,
      "spo": 5059,
      "programme": 5060,
      "Ġcorruption": 5061,
      "ĠsystÃ¨me": 5062,
      "iner": 5063,
      "mail": 5064,
      "lies": 5065,
      "ĠRac": 5066,
      "fourth": 5067,
      "Ġfailure": 5068,
      "ifty": 5069,
      "Ġstrat": 5070,
      "Ġzone": 5071,
      "Ġenhanced": 5072,
      "Ġaccounts": 5073,
      "Ġparticipated": 5074,
      "Ġcr": 5075,
      "ĠSupplement": 5076,
      "Ġfo": 5077,
      "Ġmunicip": 5078,
      "unis": 5079,
      "Work": 5080,
      "Ġtransl": 5081,
      "ĠBang": 5082,
      "Ġforced": 5083,
      "zerb": 5084,
      "ht": 5085,
      "His": 5086,
      "ginal": 5087,
      "ticip": 5088,
      "Ġworkshops": 5089,
      "ĠTask": 5090,
      "ĠBr": 5091,
      "Ġsupplement": 5092,
      "uration": 5093,
      "utri": 5094,
      "ressive": 5095,
      "Ġunem": 5096,
      "Ġkeep": 5097,
      "Ġtour": 5098,
      "theless": 5099,
      "Ġrisks": 5100,
      "Ġintroduction": 5101,
      "Ġglobalization": 5102,
      "Ġmonde": 5103,
      "orn": 5104,
      "Ġdiver": 5105,
      "Ġracism": 5106,
      "Ġproduce": 5107,
      "ĠrÃ©f": 5108,
      "Ġmainly": 5109,
      "Ġunless": 5110,
      "uled": 5111,
      "Ġcle": 5112,
      "Ġactual": 5113,
      "ĠNam": 5114,
      "ches": 5115,
      "Mad": 5116,
      "Ġcompared": 5117,
      "illing": 5118,
      "ĠprocÃ©d": 5119,
      "ĠPeacekeeping": 5120,
      "ĠJama": 5121,
      "lÃ©e": 5122,
      "Ġforty": 5123,
      "prÃ¨s": 5124,
      "ĠNorth": 5125,
      "Ġfost": 5126,
      "Ġevalu": 5127,
      "ĠSomalia": 5128,
      "ĠAud": 5129,
      "Ġtransmit": 5130,
      "Ġmigration": 5131,
      "ĠIslands": 5132,
      "Ġreviewed": 5133,
      "ĠproblÃ¨mes": 5134,
      "Ġrecruitment": 5135,
      "Ġpu": 5136,
      "LO": 5137,
      "gans": 5138,
      "Ġprol": 5139,
      "Ġdeployment": 5140,
      "Ġseulement": 5141,
      "Ġregards": 5142,
      "ilipp": 5143,
      "Ġmutual": 5144,
      "Ġrepe": 5145,
      "IP": 5146,
      "itig": 5147,
      "utions": 5148,
      "Ġ59": 5149,
      "Ã©ment": 5150,
      "ophob": 5151,
      "mble": 5152,
      "tement": 5153,
      "aijan": 5154,
      "Ġconformity": 5155,
      "Therefore": 5156,
      "zerbaijan": 5157,
      "Ġproduced": 5158,
      "Ġconsiderable": 5159,
      "Ġexcell": 5160,
      "))": 5161,
      "Ġcongr": 5162,
      "Ġhistor": 5163,
      "Ġteac": 5164,
      "puts": 5165,
      "abitat": 5166,
      "racting": 5167,
      "ĠProc": 5168,
      "Ġcondem": 5169,
      "sixth": 5170,
      "Ġturn": 5171,
      "gard": 5172,
      "ĠeuropÃ©ens": 5173,
      "Ġexpect": 5174,
      "eals": 5175,
      "ST": 5176,
      "Ġargu": 5177,
      "article": 5178,
      "Ġscale": 5179,
      "Ġanaly": 5180,
      "Ġsubstantial": 5181,
      "Ġurges": 5182,
      "riculture": 5183,
      "Ġdign": 5184,
      "Ġ35": 5185,
      "Ġinterested": 5186,
      "Ġsecondary": 5187,
      "Ġeas": 5188,
      "spoke": 5189,
      "Ġpil": 5190,
      "tra": 5191,
      "ĠECE": 5192,
      "Ġlisted": 5193,
      "ĠAsian": 5194,
      "Ġ`": 5195,
      "Ġmettre": 5196,
      "Ġreintegration": 5197,
      "ĠTechnical": 5198,
      "Ġcongrat": 5199,
      "ĠWestern": 5200,
      "Ġauthorized": 5201,
      "Wel": 5202,
      "Ġemphasized": 5203,
      "iring": 5204,
      "Ġraise": 5205,
      "ĠstratÃ©g": 5206,
      "ĠMod": 5207,
      "Ġenterprises": 5208,
      "Ġ39": 5209,
      "ĠSal": 5210,
      "Ġceux": 5211,
      "iÃ¨rement": 5212,
      "Ġcomponents": 5213,
      "Ġstri": 5214,
      "usal": 5215,
      "Ġengaged": 5216,
      "Ġcalc": 5217,
      "Ġobtained": 5218,
      "uvre": 5219,
      "ĠSession": 5220,
      "ĠEnergy": 5221,
      "Ġsensi": 5222,
      "Ġcompte": 5223,
      "termination": 5224,
      "ĠSerbia": 5225,
      "ĠMme": 5226,
      "Ġpoin": 5227,
      "Ġgoing": 5228,
      "ĠQues": 5229,
      "Ġtasks": 5230,
      "Ġeliminate": 5231,
      "fur": 5232,
      "Ġurged": 5233,
      "fort": 5234,
      "Ġobservers": 5235,
      "ĠICT": 5236,
      "Ġpourquoi": 5237,
      "Ġidenti": 5238,
      "HO": 5239,
      "Ġexpression": 5240,
      "Ġlic": 5241,
      "Ġconstructive": 5242,
      "Ġlieu": 5243,
      "31": 5244,
      "htm": 5245,
      "Ġ1992": 5246,
      "Ġcomplaints": 5247,
      "paragraph": 5248,
      "lovak": 5249,
      "oyen": 5250,
      "ruct": 5251,
      "ME": 5252,
      "Ġarri": 5253,
      "Ġclass": 5254,
      "Ġspirit": 5255,
      "ĠEthiop": 5256,
      "Ġobstacles": 5257,
      "Ġrespectively": 5258,
      "Ġ:": 5259,
      "Ġwhom": 5260,
      "Ġparliament": 5261,
      "asters": 5262,
      "44": 5263,
      "Ġclassif": 5264,
      "ĠLis": 5265,
      "goci": 5266,
      "Ġtot": 5267,
      "TRANS": 5268,
      "Ġnetworks": 5269,
      "Ġterritorial": 5270,
      "Ġbi": 5271,
      "Ġvictim": 5272,
      "Ġprices": 5273,
      "AO": 5274,
      "Ġask": 5275,
      "ĠBal": 5276,
      "ĠSpace": 5277,
      "ÃŃ": 5278,
      "Ġbudgetary": 5279,
      "Ġsocio": 5280,
      "Many": 5281,
      "ĠEgypt": 5282,
      "ĠForms": 5283,
      "Ġmise": 5284,
      "Ġadded": 5285,
      "ĠOfficial": 5286,
      "Ġhaz": 5287,
      "atform": 5288,
      "Ġotherwise": 5289,
      "oods": 5290,
      "Ġwriting": 5291,
      "Ġmillions": 5292,
      "entle": 5293,
      "Ġdemande": 5294,
      "Ġinterpretation": 5295,
      "util": 5296,
      "Ġwaste": 5297,
      "Ġalmost": 5298,
      "Ġsecure": 5299,
      "Ġcandidates": 5300,
      "iet": 5301,
      "ĠTHE": 5302,
      "Ġsurvey": 5303,
      "Ġearlier": 5304,
      "Ġhousehold": 5305,
      "Ġappointed": 5306,
      "Ġgentle": 5307,
      "ĠCoordin": 5308,
      "Ġconsomm": 5309,
      "Ġelement": 5310,
      "Ġsummit": 5311,
      "Ġmanif": 5312,
      "Ġadoles": 5313,
      "Ġassig": 5314,
      "Ġ61": 5315,
      "Ġidentification": 5316,
      "ĠFinland": 5317,
      "ĠRomania": 5318,
      "Ġoriginal": 5319,
      "ĠnÃ©goci": 5320,
      "Ġ1991": 5321,
      "Reaff": 5322,
      "Ġpointed": 5323,
      "Ec": 5324,
      "Ġthreats": 5325,
      "lique": 5326,
      "Ġsupports": 5327,
      "Ġpreventing": 5328,
      "Ġcontributed": 5329,
      "chang": 5330,
      "Ac": 5331,
      "arily": 5332,
      "Ġsavoir": 5333,
      "Ġorganizational": 5334,
      "Recommend": 5335,
      "Ġgouvernement": 5336,
      "nerg": 5337,
      "Ġadvis": 5338,
      "Ġratified": 5339,
      "ĠLib": 5340,
      "irming": 5341,
      "Ġholding": 5342,
      "Ġaims": 5343,
      "ĠCar": 5344,
      "Ġfunctioning": 5345,
      "vez": 5346,
      "Ġhar": 5347,
      "Ġbelong": 5348,
      "Ġsound": 5349,
      "ĠBelarus": 5350,
      "ĠLisbon": 5351,
      "Ġpouvoir": 5352,
      "ĠKuwait": 5353,
      "erver": 5354,
      "39": 5355,
      "Ã³": 5356,
      "57": 5357,
      "Ġsecteur": 5358,
      "occo": 5359,
      "Ġcharge": 5360,
      "venile": 5361,
      "Ġoption": 5362,
      "iciary": 5363,
      "greg": 5364,
      "Ġentered": 5365,
      "Recogn": 5366,
      "Ġgentlemen": 5367,
      "Ġ77": 5368,
      "Ġrepresentation": 5369,
      "IDO": 5370,
      "yer": 5371,
      "Ġrestrictions": 5372,
      "Ġfirm": 5373,
      "After": 5374,
      "Ġdecide": 5375,
      "Ġincorporated": 5376,
      "Ġorgans": 5377,
      "Ġexistence": 5378,
      "ĠRefuge": 5379,
      "Ġdissemination": 5380,
      "ĠCommit": 5381,
      "Ġsuc": 5382,
      "SP": 5383,
      "Ġprocessus": 5384,
      "Ġcommissions": 5385,
      "Ġcycle": 5386,
      "ĠPopulation": 5387,
      "Those": 5388,
      "Ġstrongly": 5389,
      "Ġap": 5390,
      "ĠSpanish": 5391,
      "ĠColombia": 5392,
      "etary": 5393,
      "aucoup": 5394,
      "Cor": 5395,
      "ganda": 5396,
      "ĠAssistance": 5397,
      "ĠgÃ©nÃ©ral": 5398,
      "Ġaudit": 5399,
      "Ġ57": 5400,
      "Ġsout": 5401,
      "itoring": 5402,
      "Ġpros": 5403,
      "fully": 5404,
      "Ġavoir": 5405,
      "Ġremin": 5406,
      "Ġdistin": 5407,
      "ĠDeputy": 5408,
      "Ġx": 5409,
      "ĠTrust": 5410,
      "Ġrecorded": 5411,
      "ĠBulg": 5412,
      "Ġdrawn": 5413,
      "oliv": 5414,
      "Ġremaining": 5415,
      "Ġdiscrimin": 5416,
      "Ġleft": 5417,
      "ĠFac": 5418,
      "ivered": 5419,
      "Ġextremely": 5420,
      "Ġprop": 5421,
      "Ġimprison": 5422,
      "continued": 5423,
      "ĠLiberia": 5424,
      "Ġburd": 5425,
      "Ġendorsed": 5426,
      "Ġintro": 5427,
      "ĠOn": 5428,
      "Ġparticulier": 5429,
      "ĠHung": 5430,
      "Ġtele": 5431,
      "Ġresulted": 5432,
      "Ġminority": 5433,
      "lying": 5434,
      "Ġreservations": 5435,
      "Ġfrequ": 5436,
      "Ġmont": 5437,
      "Iv": 5438,
      "enh": 5439,
      "loc": 5440,
      "Ġconsumption": 5441,
      "ifications": 5442,
      "Ġeu": 5443,
      "Ġconstitutional": 5444,
      "Ġprot": 5445,
      "liminary": 5446,
      "Ġadvisory": 5447,
      "Ġfields": 5448,
      "aching": 5449,
      "Ġreconstruction": 5450,
      "Ġintegrity": 5451,
      "WG": 5452,
      "Ġseven": 5453,
      "Ã´te": 5454,
      "orer": 5455,
      "Ġsouten": 5456,
      "itime": 5457,
      "Ġgrande": 5458,
      "Ġgross": 5459,
      "olerance": 5460,
      "ĠChile": 5461,
      "asures": 5462,
      "ND": 5463,
      "Ġtouj": 5464,
      "Ġtoujours": 5465,
      "ĠLa": 5466,
      "Ġtransparent": 5467,
      "Ġpropose": 5468,
      "Ġdoing": 5469,
      "ived": 5470,
      "abling": 5471,
      "eg": 5472,
      "Ġestimates": 5473,
      "Ġnorms": 5474,
      "ĠDarfur": 5475,
      "Ġemerging": 5476,
      "Ġtrends": 5477,
      "Ġgiving": 5478,
      "Ġhighlighted": 5479,
      "Ġcontaining": 5480,
      "Ġdrugs": 5481,
      "coura": 5482,
      "ĠPoland": 5483,
      "Ġmer": 5484,
      "Ġdelivered": 5485,
      "rust": 5486,
      "Ġexemple": 5487,
      "Ġthings": 5488,
      "Ġlittle": 5489,
      "committee": 5490,
      "Ġconsidering": 5491,
      "Ġ45": 5492,
      "weapon": 5493,
      "Ġsous": 5494,
      "Ġcommune": 5495,
      "fare": 5496,
      "reme": 5497,
      "Ġgain": 5498,
      "ĠSan": 5499,
      "ĠFifth": 5500,
      "Ġbriefing": 5501,
      "Ġdevrait": 5502,
      "ĠChe": 5503,
      "Ġgrave": 5504,
      "ĠPortugal": 5505,
      "Ġpanel": 5506,
      "Åĵ": 5507,
      "Ġspeaking": 5508,
      "Ġlut": 5509,
      "Ġago": 5510,
      "ED": 5511,
      "lades": 5512,
      "Ġapproximately": 5513,
      "ĠCroatia": 5514,
      "utrition": 5515,
      "ira": 5516,
      "Ġconcluding": 5517,
      "ĠAustria": 5518,
      "ĠGeorgia": 5519,
      "Ġattain": 5520,
      "Ġ49": 5521,
      "Ġdisapp": 5522,
      "Ġsolidarity": 5523,
      "ĠTerritories": 5524,
      "ĠprÃ©sident": 5525,
      "Ġrise": 5526,
      "ĠPrepar": 5527,
      "uelle": 5528,
      "endum": 5529,
      "Ġstrict": 5530,
      "Ġinsurance": 5531,
      "Ġplu": 5532,
      "Ġwishes": 5533,
      "34": 5534,
      "Ġindeed": 5535,
      "atemal": 5536,
      "Ġplease": 5537,
      "Ġnations": 5538,
      "pe": 5539,
      "rong": 5540,
      "Ġoutcomes": 5541,
      "ĠPhilipp": 5542,
      "Ġoccasion": 5543,
      "Ġbeaucoup": 5544,
      "Ġisland": 5545,
      "Ġpuis": 5546,
      "proliferation": 5547,
      "Decides": 5548,
      "HCHR": 5549,
      "Ġ34": 5550,
      "Ġplaces": 5551,
      "iii": 5552,
      "Ġnationality": 5553,
      "Me": 5554,
      "Ġfindings": 5555,
      "lle": 5556,
      "DCs": 5557,
      "Ġreconciliation": 5558,
      "Ġinstance": 5559,
      "Ivoire": 5560,
      "ĠUNFPA": 5561,
      "Ġsens": 5562,
      "ĠRecords": 5563,
      "Ġsoutien": 5564,
      "Ġfloor": 5565,
      "Ġhard": 5566,
      "Ġencouraging": 5567,
      "Ġtransit": 5568,
      "Ġautor": 5569,
      "Ġentreprises": 5570,
      "geria": 5571,
      "Adoption": 5572,
      "Ġsujet": 5573,
      "enced": 5574,
      "istent": 5575,
      "Ġdangerous": 5576,
      "Ġenjoyment": 5577,
      "Ġpresentation": 5578,
      "Ġperpetr": 5579,
      "Ġexamination": 5580,
      "ola": 5581,
      "Ġstop": 5582,
      "Ġnotamment": 5583,
      "raient": 5584,
      "ĠSea": 5585,
      "Ġhy": 5586,
      "Ġsegment": 5587,
      "Ġsea": 5588,
      "ithu": 5589,
      "Ġdiversity": 5590,
      "Ġconver": 5591,
      "Ġsubsidiary": 5592,
      "ĠGaza": 5593,
      "ĠDen": 5594,
      "States": 5595,
      "Ġfacing": 5596,
      "rob": 5597,
      "quelle": 5598,
      "table": 5599,
      "Ġ47": 5600,
      "ladesh": 5601,
      "Ġprice": 5602,
      "aily": 5603,
      "Ġlaquelle": 5604,
      "ĠPrime": 5605,
      "ĠCommissaire": 5606,
      "Ġarising": 5607,
      "law": 5608,
      "ara": 5609,
      "Ġmob": 5610,
      "Ġanim": 5611,
      "Ġversion": 5612,
      "Ġconsiders": 5613,
      "Ġlatter": 5614,
      "Ġpenalty": 5615,
      "Ġlinked": 5616,
      "Ġregistered": 5617,
      "Ġreproductive": 5618,
      "ĠProsecutor": 5619,
      "36": 5620,
      "ĠObs": 5621,
      "Ġsatisfaction": 5622,
      "ĠProcedure": 5623,
      "ĠdÃ©put": 5624,
      "ĠIndigenous": 5625,
      "Ġtrois": 5626,
      "semblÃ©e": 5627,
      "ĠrÃ¨glement": 5628,
      "wo": 5629,
      "ynam": 5630,
      "tioned": 5631,
      "ĠAzerbaijan": 5632,
      "Ġhighly": 5633,
      "Ġmatern": 5634,
      "Ġclosed": 5635,
      "Ġaccused": 5636,
      "Our": 5637,
      "mm": 5638,
      "Ġoutre": 5639,
      "Ġresponses": 5640,
      "agn": 5641,
      "Ġconstra": 5642,
      "gets": 5643,
      "Ġformulation": 5644,
      "Rep": 5645,
      "missions": 5646,
      "Ġfon": 5647,
      "ĠKen": 5648,
      "Ġassociations": 5649,
      "Ġmeaning": 5650,
      "Ġelimination": 5651,
      "Ġprendre": 5652,
      "Secretary": 5653,
      "Ġsenior": 5654,
      "Ġacknowled": 5655,
      "Ġcolle": 5656,
      "Ġaccession": 5657,
      "orm": 5658,
      "Ġheav": 5659,
      "NF": 5660,
      "enophob": 5661,
      "ula": 5662,
      "duction": 5663,
      "empl": 5664,
      "Ġtrue": 5665,
      "Ġthirty": 5666,
      "Thus": 5667,
      "OC": 5668,
      "Ġrecognize": 5669,
      "Ġretur": 5670,
      "Ġsoul": 5671,
      "ĠNigeria": 5672,
      "Ġprotected": 5673,
      "Ġpropositions": 5674,
      "ĠThird": 5675,
      "ste": 5676,
      "Si": 5677,
      "Ġbackground": 5678,
      "Ġnormal": 5679,
      "nial": 5680,
      "ĠSup": 5681,
      "Ġsubstance": 5682,
      "ĠJud": 5683,
      "dre": 5684,
      "ĠAng": 5685,
      "Ġsignature": 5686,
      "antÃ©": 5687,
      "Ġaccomp": 5688,
      "Ġautre": 5689,
      "Ġorganisations": 5690,
      "ĠtraitÃ©": 5691,
      "\".": 5692,
      "ĠInternal": 5693,
      "Ġexcellent": 5694,
      "Ġproduct": 5695,
      "llect": 5696,
      "Ġopening": 5697,
      "ded": 5698,
      "Ġavailability": 5699,
      "ĠBrit": 5700,
      "Ġcredit": 5701,
      "Following": 5702,
      "Ġguarantees": 5703,
      "ocks": 5704,
      "Ġ38": 5705,
      "cents": 5706,
      "Ġcertif": 5707,
      "veur": 5708,
      "Ġresolve": 5709,
      "quÃ©": 5710,
      "Ġpartie": 5711,
      "Ġnorm": 5712,
      "ĠPresidency": 5713,
      "Ġhear": 5714,
      "Ġquite": 5715,
      "ĠrÃ´le": 5716,
      "Ġexperiences": 5717,
      "Ġintervention": 5718,
      "avi": 5719,
      "cription": 5720,
      "ĠBelgium": 5721,
      "Ġconsci": 5722,
      "ĠTechnology": 5723,
      "mentioned": 5724,
      "Ġregulatory": 5725,
      "oundary": 5726,
      "Ġurg": 5727,
      "Ġsuiv": 5728,
      "198": 5729,
      "audi": 5730,
      "uls": 5731,
      "Ġcourses": 5732,
      "Ġduties": 5733,
      "Ġwebs": 5734,
      "ova": 5735,
      "los": 5736,
      "Ġfaveur": 5737,
      "Ġembar": 5738,
      "ĠSafety": 5739,
      "Ġsimply": 5740,
      "Ġress": 5741,
      "Ġobserved": 5742,
      "Ġexamine": 5743,
      "ata": 5744,
      "Ġresident": 5745,
      "Ġvir": 5746,
      "Ġcompletion": 5747,
      "Ġgre": 5748,
      "Ġsor": 5749,
      "Ġselected": 5750,
      "ĠIV": 5751,
      "ĠEthiopia": 5752,
      "Ġcontracts": 5753,
      "ĠcollÃ¨gues": 5754,
      "aid": 5755,
      "Mais": 5756,
      "Ġlessons": 5757,
      "ĠArgentina": 5758,
      "Ġcoverage": 5759,
      "istence": 5760,
      "Ġradio": 5761,
      "Ġesp": 5762,
      "Ġdead": 5763,
      "Ġprincipal": 5764,
      "ĠControl": 5765,
      "vest": 5766,
      "ircraft": 5767,
      "Ġdetermination": 5768,
      "Of": 5769,
      "osta": 5770,
      "Ġtoler": 5771,
      "Ã©p": 5772,
      "Ġsignificantly": 5773,
      "my": 5774,
      "ĠBas": 5775,
      "Ġsharing": 5776,
      "Ġconcur": 5777,
      "sell": 5778,
      "hÃ©sion": 5779,
      "orders": 5780,
      "Special": 5781,
      "Ġdepos": 5782,
      "Ġvac": 5783,
      "Ġallocated": 5784,
      "ĠGuid": 5785,
      "Ġmarriage": 5786,
      "Co": 5787,
      "head": 5788,
      "heries": 5789,
      "ĠsantÃ©": 5790,
      "ÃĢ": 5791,
      "Document": 5792,
      "1998": 5793,
      "Ġfaced": 5794,
      "Ġpreparing": 5795,
      "Ġreven": 5796,
      "Ġmigrants": 5797,
      "Ġsovereignty": 5798,
      "Ġjobs": 5799,
      "Six": 5800,
      "Ġmesure": 5801,
      "Ġgoverning": 5802,
      "ĠspÃ©": 5803,
      "ĠPartnership": 5804,
      "Ġvoting": 5805,
      "âĢ¦âĢ¦âĢ¦âĢ¦âĢ¦âĢ¦âĢ¦âĢ¦": 5806,
      "Ġmortality": 5807,
      "ĠSupreme": 5808,
      "Ġves": 5809,
      "Ġjuri": 5810,
      "Ġoffered": 5811,
      "Ġautom": 5812,
      "ĠSlovak": 5813,
      "yanmar": 5814,
      "via": 5815,
      "Ġvill": 5816,
      "Ġsought": 5817,
      "ĠnÃ©cessaire": 5818,
      "ourable": 5819,
      "Ġoutstanding": 5820,
      "Ġacce": 5821,
      "onday": 5822,
      "Ġrelease": 5823,
      "Ġbudg": 5824,
      "Over": 5825,
      "Ġdifferences": 5826,
      "ĠHoc": 5827,
      "Ġmaintained": 5828,
      "Ġinsu": 5829,
      "Ġeffet": 5830,
      "Ġpleased": 5831,
      "fortun": 5832,
      "bers": 5833,
      "Ġsense": 5834,
      "Ġdiseases": 5835,
      "Ġfemmes": 5836,
      "atemala": 5837,
      "elon": 5838,
      "aysia": 5839,
      "Ġpouvons": 5840,
      "68": 5841,
      "Ġrevision": 5842,
      "RE": 5843,
      "Ġpreparatory": 5844,
      "ĠTunis": 5845,
      "ĠUganda": 5846,
      "Ġadmin": 5847,
      "Ġidentity": 5848,
      "sidential": 5849,
      "Ġmanag": 5850,
      "ĠfÃ©": 5851,
      "Any": 5852,
      "leurs": 5853,
      "ailand": 5854,
      "Human": 5855,
      "Ġmitig": 5856,
      "Ġbesoin": 5857,
      "ĠrÃ©sult": 5858,
      "Ġseeking": 5859,
      "Ġcod": 5860,
      "charge": 5861,
      "atri": 5862,
      "Ġsevere": 5863,
      "Ġinternally": 5864,
      "Ġclaire": 5865,
      "Ġsoient": 5866,
      "ĠMadame": 5867,
      "Ġpreviously": 5868,
      "emor": 5869,
      "Noting": 5870,
      "Ġrecords": 5871,
      "Ġenabling": 5872,
      "Ġvotre": 5873,
      "ĠSm": 5874,
      "Ġmondial": 5875,
      "Ġrend": 5876,
      "ĠDrugs": 5877,
      "Ġcode": 5878,
      "Ġvision": 5879,
      "Ġvie": 5880,
      "Consid": 5881,
      "ĠCÃ´te": 5882,
      "rations": 5883,
      "ometh": 5884,
      "fic": 5885,
      "Ġtheme": 5886,
      "Ġchair": 5887,
      "ĠTraining": 5888,
      "Ġcarrying": 5889,
      "Ġrealization": 5890,
      "Ġvoted": 5891,
      "Ġthereby": 5892,
      "enez": 5893,
      "udes": 5894,
      "uxemb": 5895,
      "SR": 5896,
      "valuation": 5897,
      "marily": 5898,
      "Ġinqu": 5899,
      "Ġweb": 5900,
      "ĠCom": 5901,
      "Ġansw": 5902,
      "Ġactually": 5903,
      "Ġpollution": 5904,
      "Ġmessage": 5905,
      "ĠLithu": 5906,
      "Ġchos": 5907,
      "Ġdatabase": 5908,
      "loven": 5909,
      "Ġfactor": 5910,
      "Cela": 5911,
      "Ġenough": 5912,
      "atures": 5913,
      "ĠBritain": 5914,
      "Ġinvestigations": 5915,
      "Ġeradication": 5916,
      "Ġappointment": 5917,
      "Ġparent": 5918,
      "uxembour": 5919,
      "Ġdynam": 5920,
      "UC": 5921,
      "Ġfed": 5922,
      "Ġvers": 5923,
      "Women": 5924,
      "Deleg": 5925,
      "ansion": 5926,
      "onds": 5927,
      "Ġaircraft": 5928,
      "ĠFood": 5929,
      "icated": 5930,
      "Ġengagement": 5931,
      "oz": 5932,
      "rely": 5933,
      "Ġactuel": 5934,
      "Ġpreliminary": 5935,
      "ventive": 5936,
      "icro": 5937,
      "where": 5938,
      "anz": 5939,
      "ployed": 5940,
      "inese": 5941,
      "Ġwelfare": 5942,
      "Ġhum": 5943,
      "care": 5944,
      "omin": 5945,
      "Ġprisoners": 5946,
      "Ġheadquarters": 5947,
      "Ġattrib": 5948,
      "Ġintensif": 5949,
      "ĠFamily": 5950,
      "iller": 5951,
      "omething": 5952,
      "51": 5953,
      "Ã§on": 5954,
      "Ġrecher": 5955,
      "Ġdecent": 5956,
      "Ġinfluence": 5957,
      "Ġamounts": 5958,
      "Ã©tÃ©": 5959,
      "Another": 5960,
      "essment": 5961,
      "Letter": 5962,
      "Ġstock": 5963,
      "Ġmaintaining": 5964,
      "Ġserait": 5965,
      "Ġretain": 5966,
      "ĠMorocco": 5967,
      "oring": 5968,
      "Ġdignity": 5969,
      "Ġextensive": 5970,
      "Ġhistory": 5971,
      "Ġdrafting": 5972,
      "Ġcoming": 5973,
      "Ġsystematic": 5974,
      "Ġempower": 5975,
      "Ġfisc": 5976,
      "Ġdisasters": 5977,
      "imb": 5978,
      "unction": 5979,
      "Ġequitable": 5980,
      "ĠIndepend": 5981,
      "Ġtopic": 5982,
      "uds": 5983,
      "Ġbehavi": 5984,
      "espite": 5985,
      "Ġexplan": 5986,
      "Ġexpos": 5987,
      "Ġliability": 5988,
      "gressive": 5989,
      "eline": 5990,
      "Ġladies": 5991,
      "IA": 5992,
      "ĠStatistics": 5993,
      "Ġpregn": 5994,
      "tivities": 5995,
      "ĠStatus": 5996,
      "ĠInitiative": 5997,
      "amer": 5998,
      "istance": 5999,
      "cessive": 6000,
      "Ġ36": 6001,
      "Ġsites": 6002,
      "Ġfire": 6003,
      "Cette": 6004,
      "Ġdetails": 6005,
      "Ġbro": 6006,
      "Ġdeliver": 6007,
      "Ġunable": 6008,
      "Ġshows": 6009,
      "ett": 6010,
      "Ġjuridi": 6011,
      "ĠannÃ©es": 6012,
      "Ġsimpl": 6013,
      "oking": 6014,
      "Ġfeel": 6015,
      "Ġfonction": 6016,
      "Ġorient": 6017,
      "Ġmainstreaming": 6018,
      "RC": 6019,
      "Ġthematic": 6020,
      "oming": 6021,
      "32": 6022,
      "riday": 6023,
      "Economic": 6024,
      "Ġteachers": 6025,
      "seventh": 6026,
      "70": 6027,
      "ĠOfficer": 6028,
      "Ġdeter": 6029,
      "Ġjo": 6030,
      "Ġtargeted": 6031,
      "Ġvoul": 6032,
      "Ġamendements": 6033,
      "Ġdegree": 6034,
      "ĠGreece": 6035,
      "dep": 6036,
      "Ġsomething": 6037,
      "Ġpayments": 6038,
      "Ġ44": 6039,
      "Ġquick": 6040,
      "Ġ80": 6041,
      "Ġprotecting": 6042,
      "ĠKyoto": 6043,
      "Ġsurv": 6044,
      "Ġobjectifs": 6045,
      "Ġimprisonment": 6046,
      "Ġassigned": 6047,
      "ĠIM": 6048,
      "ĠAIDS": 6049,
      "ordan": 6050,
      "ĠAlban": 6051,
      "eighth": 6052,
      "ĠUNIDO": 6053,
      "Ġlimits": 6054,
      "Ġnouvelle": 6055,
      "Ġaffecting": 6056,
      "Ġengine": 6057,
      "ĠTIR": 6058,
      "ĠYear": 6059,
      "Ġupdated": 6060,
      "Ġprimarily": 6061,
      "uxembourg": 6062,
      "ĠErit": 6063,
      "Ġbarri": 6064,
      "Ġcorrect": 6065,
      "Ġowing": 6066,
      "Ġtransactions": 6067,
      "para": 6068,
      "Ġminim": 6069,
      "Ġhoc": 6070,
      "Ãªche": 6071,
      "Ġinfec": 6072,
      "ĠFinancial": 6073,
      "thing": 6074,
      "ĠLDCs": 6075,
      "Ġmid": 6076,
      "Ġvig": 6077,
      "Ġinterim": 6078,
      "Ġreservation": 6079,
      "onization": 6080,
      "ĠSubcommittee": 6081,
      "conflict": 6082,
      "ĠGoverning": 6083,
      "ĠprÃ©v": 6084,
      "Ġtransmitted": 6085,
      "Ġfall": 6086,
      "Ġallocation": 6087,
      "ET": 6088,
      "ka": 6089,
      "ĠHumanitarian": 6090,
      "itement": 6091,
      "everal": 6092,
      "Ġunemployment": 6093,
      "llectual": 6094,
      "ĠSur": 6095,
      "Ġownership": 6096,
      "Ġnumbers": 6097,
      "ĠPreparatory": 6098,
      "Ġexpenditures": 6099,
      "epal": 6100,
      "uador": 6101,
      "Ġlearned": 6102,
      "69": 6103,
      "ĠIndust": 6104,
      "Ġbelief": 6105,
      "ĠProf": 6106,
      "Ġlearning": 6107,
      "Ġdiplomatic": 6108,
      "STA": 6109,
      "500": 6110,
      "ĠWTO": 6111,
      "apers": 6112,
      "ĠRefugees": 6113,
      "ĠVer": 6114,
      "Ġexcept": 6115,
      "Ġassessed": 6116,
      "Ġsole": 6117,
      "ĠSoci": 6118,
      "Ġundermin": 6119,
      "Ġsustained": 6120,
      "WA": 6121,
      "ursday": 6122,
      "Ġinitiated": 6123,
      "enophobia": 6124,
      "ump": 6125,
      "Ġinvent": 6126,
      "From": 6127,
      "ĠEastern": 6128,
      "Ġnouveau": 6129,
      "Ġbr": 6130,
      "Ġ32": 6131,
      "Ġemployees": 6132,
      "ESCO": 6133,
      "Ġexecutive": 6134,
      "cl": 6135,
      "Ġliberal": 6136,
      "ĠvÃ©": 6137,
      "ursue": 6138,
      "Ġever": 6139,
      "off": 6140,
      "ĠSix": 6141,
      "ican": 6142,
      "determination": 6143,
      "Ġ33": 6144,
      "Ġneighbour": 6145,
      "ĠBah": 6146,
      "ĠPhilippines": 6147,
      "Ġflows": 6148,
      "Ġscience": 6149,
      "Ġcust": 6150,
      "Ġsoulign": 6151,
      "rions": 6152,
      "Despite": 6153,
      "Ġpeuvent": 6154,
      "ĠÃ©tait": 6155,
      "Ġlegitimate": 6156,
      "Ġici": 6157,
      "certain": 6158,
      "Ġweeks": 6159,
      "ĠDenmark": 6160,
      "tered": 6161,
      "Ġ42": 6162,
      "ĠBen": 6163,
      "azakh": 6164,
      "Ġmine": 6165,
      "Ã©rence": 6166,
      "ĠProject": 6167,
      "Rule": 6168,
      "enezuel": 6169,
      "Ġgeographical": 6170,
      "ocide": 6171,
      "Ġfacilitating": 6172,
      "Ġmanifest": 6173,
      "Ġdealt": 6174,
      "accept": 6175,
      "Ġlui": 6176,
      "teneg": 6177,
      "Ġsettlements": 6178,
      "ĠAnn": 6179,
      "heure": 6180,
      "exp": 6181,
      "Ibid": 6182,
      "Ġinterventions": 6183,
      "Ġplayed": 6184,
      "ĠContracting": 6185,
      "Ġsanitation": 6186,
      "haps": 6187,
      "ulating": 6188,
      "Ġexpansion": 6189,
      "ĠHungary": 6190,
      "att": 6191,
      "Ġbinding": 6192,
      "Ġcompany": 6193,
      "Ġpackage": 6194,
      "Ġtransf": 6195,
      "Third": 6196,
      "Ġlaunch": 6197,
      "lin": 6198,
      "rolled": 6199,
      "adequ": 6200,
      "ĠCongress": 6201,
      "ĠQuestions": 6202,
      "rates": 6203,
      "Ġpursue": 6204,
      "let": 6205,
      "ĠdÃ©fin": 6206,
      "Ġimprovements": 6207,
      "ares": 6208,
      "eties": 6209,
      "ĠSaudi": 6210,
      "ECD": 6211,
      "ĠMyanmar": 6212,
      "64": 6213,
      "inated": 6214,
      "Ġ70": 6215,
      "Ġcha": 6216,
      "Ġbudgets": 6217,
      "Ġeight": 6218,
      "ĠDecade": 6219,
      "Ġprovin": 6220,
      "ĠKenya": 6221,
      "Ġed": 6222,
      "Ġnumerous": 6223,
      "Ã´t": 6224,
      "Ġstructural": 6225,
      "imp": 6226,
      "Ġprostitution": 6227,
      "Ġacting": 6228,
      "Dep": 6229,
      "Ġidea": 6230,
      "Ġconfirmed": 6231,
      "Ġils": 6232,
      "ertification": 6233,
      "vey": 6234,
      "Ġcontrary": 6235,
      "ns": 6236,
      "Information": 6237,
      "ĠFinancing": 6238,
      "Ġ53": 6239,
      "Ġcondu": 6240,
      "Ġzones": 6241,
      "Ġdimension": 6242,
      "Ġcommittees": 6243,
      "Ġ51": 6244,
      "akers": 6245,
      "ĠMaced": 6246,
      "Ġemission": 6247,
      "Ġi": 6248,
      "Ġrace": 6249,
      "And": 6250,
      "Ġacquis": 6251,
      "Ġdepartments": 6252,
      "ĠAmend": 6253,
      "EF": 6254,
      "Ġmarine": 6255,
      "Ġfigures": 6256,
      "lan": 6257,
      "ctive": 6258,
      "Ġassociation": 6259,
      "tenegro": 6260,
      "Ġfifth": 6261,
      "Ġresumed": 6262,
      "porteurs": 6263,
      "Ġcontrols": 6264,
      "inal": 6265,
      "Ġsuffering": 6266,
      "sequently": 6267,
      "Tra": 6268,
      "Ġreally": 6269,
      "Ġextension": 6270,
      "Ġapplies": 6271,
      "UNDP": 6272,
      "Several": 6273,
      "Ġ56": 6274,
      "ousands": 6275,
      "Ã©m": 6276,
      "Ġvisits": 6277,
      "Ġbringing": 6278,
      "Ġattended": 6279,
      "Exp": 6280,
      "Ġfailed": 6281,
      "Ġmil": 6282,
      "Ġrapp": 6283,
      "Ġgr": 6284,
      "Ġ90": 6285,
      "Ġproduits": 6286,
      "Ġcommissaire": 6287,
      "uine": 6288,
      "Ġadverse": 6289,
      "unte": 6290,
      "ĠOp": 6291,
      "Ġjointly": 6292,
      "endant": 6293,
      "Ġhazard": 6294,
      "ambia": 6295,
      "ndering": 6296,
      "Ġwilling": 6297,
      "Ġelectoral": 6298,
      "ednes": 6299,
      "Ġhosp": 6300,
      "Ġreasonable": 6301,
      "ĠArmen": 6302,
      "ependant": 6303,
      "ĠScientific": 6304,
      "ĠSer": 6305,
      "ranch": 6306,
      "ĠLithuania": 6307,
      "ĠPen": 6308,
      "Ġouter": 6309,
      "Ġburden": 6310,
      "Ġ46": 6311,
      "Ġlinks": 6312,
      "Ġelectric": 6313,
      "Ġusers": 6314,
      "Ġsouh": 6315,
      "ĠDef": 6316,
      "ednesday": 6317,
      "ĠGuatemala": 6318,
      "Ġwidely": 6319,
      "Ġbehaviour": 6320,
      "IG": 6321,
      "ommod": 6322,
      "hing": 6323,
      "lovenia": 6324,
      "Ġdistributed": 6325,
      "Ġpreced": 6326,
      "larations": 6327,
      "Ġwebsite": 6328,
      "Informal": 6329,
      "azakhstan": 6330,
      "Ġvra": 6331,
      "urrent": 6332,
      "Ġcirculated": 6333,
      "Ġdiscipl": 6334,
      "Ġlate": 6335,
      "Ġacceptable": 6336,
      "nent": 6337,
      "anim": 6338,
      "sues": 6339,
      "Ġabsolute": 6340,
      "Ġweak": 6341,
      "ĠBulgaria": 6342,
      "ĠMinisterial": 6343,
      "bek": 6344,
      "Ġcompetence": 6345,
      "ĠEnvironmental": 6346,
      "ĠcontrÃ´le": 6347,
      "Ġadaptation": 6348,
      "iterran": 6349,
      "Ġeveryone": 6350,
      "alement": 6351,
      "iry": 6352,
      "ĠModel": 6353,
      "ĠGender": 6354,
      "Security": 6355,
      "Ġcentury": 6356,
      "Ġjoin": 6357,
      "ives": 6358,
      "SO": 6359,
      "Ã©rieur": 6360,
      "usement": 6361,
      "ĠÃ©qu": 6362,
      "Ġdepuis": 6363,
      "ĠIA": 6364,
      "National": 6365,
      "uable": 6366,
      "Ġsouhait": 6367,
      "umption": 6368,
      "Ġexamples": 6369,
      "gement": 6370,
      "anka": 6371,
      "Ġinnovative": 6372,
      "Ġquestionn": 6373,
      "ĠconsidÃ©": 6374,
      "Ġscheduled": 6375,
      "Com": 6376,
      "TC": 6377,
      "Ġattached": 6378,
      "ĠMonitoring": 6379,
      "Ġdesignated": 6380,
      "forced": 6381,
      "ĠCosta": 6382,
      "lines": 6383,
      "Ãīt": 6384,
      "bal": 6385,
      "ĠdiffÃ©ren": 6386,
      "utors": 6387,
      "Ġmeille": 6388,
      "ĠPrinciples": 6389,
      "Ġcomplainant": 6390,
      "organiz": 6391,
      "Committee": 6392,
      "Ġallegations": 6393,
      "Ġsubsequently": 6394,
      "Ġborders": 6395,
      "Ġcoordinate": 6396,
      "Ġconvened": 6397,
      "iÃ¨res": 6398,
      "Ġwrong": 6399,
      "Ġstat": 6400,
      "tant": 6401,
      "Ġende": 6402,
      "ĠBangladesh": 6403,
      "ĠPeru": 6404,
      "quel": 6405,
      "riend": 6406,
      "Ġequival": 6407,
      "Em": 6408,
      "Ġalors": 6409,
      "Ġpublications": 6410,
      "arc": 6411,
      "atell": 6412,
      "Ġendeav": 6413,
      "ĠThailand": 6414,
      "Ġtel": 6415,
      "Ġcommod": 6416,
      "Ġjuvenile": 6417,
      "ambod": 6418,
      "rang": 6419,
      "item": 6420,
      "ift": 6421,
      "Ġdele": 6422,
      "oks": 6423,
      "inced": 6424,
      "Ġpilot": 6425,
      "oman": 6426,
      "tish": 6427,
      "Ġtack": 6428,
      "ĠaprÃ¨s": 6429,
      "Ġnav": 6430,
      "Ġidentifying": 6431,
      "Ġpurch": 6432,
      "enezuela": 6433,
      "ĠExpert": 6434,
      "Ġacceptance": 6435,
      "free": 6436,
      "Ġexclud": 6437,
      "Ġbelieves": 6438,
      "eu": 6439,
      "ĠLuxembourg": 6440,
      "Ġadvantage": 6441,
      "ĠVol": 6442,
      "Ġda": 6443,
      "Ġaspect": 6444,
      "Ġexclusive": 6445,
      "Ġgenuine": 6446,
      "ĠIraqi": 6447,
      "ĠMontenegro": 6448,
      "Ġcrise": 6449,
      "ĠNetwork": 6450,
      "Ġmental": 6451,
      "environnement": 6452,
      "Part": 6453,
      "Ġship": 6454,
      "Ġcrois": 6455,
      "Ġspread": 6456,
      "Ġcombined": 6457,
      "Ġtrop": 6458,
      "Ġlocated": 6459,
      "Ġaway": 6460,
      "oys": 6461,
      "Ġrecalled": 6462,
      "ĠfaÃ§on": 6463,
      "Ġcampaigns": 6464,
      "Ġcontributing": 6465,
      "Ġcopy": 6466,
      "sign": 6467,
      "Ġresidence": 6468,
      "Ġobserver": 6469,
      "Ġmach": 6470,
      "face": 6471,
      "Ġdaily": 6472,
      "Ġconsultative": 6473,
      "ustoms": 6474,
      "Ġaccounting": 6475,
      "ĠTRANS": 6476,
      "CCC": 6477,
      "Ġsubjected": 6478,
      "ĠâĢ¦": 6479,
      "100": 6480,
      "mbuds": 6481,
      "ĠBudgetary": 6482,
      "ults": 6483,
      "COM": 6484,
      "Where": 6485,
      "Ġimpacts": 6486,
      "Ã©ral": 6487,
      "iling": 6488,
      "ĠItem": 6489,
      "Ġfunded": 6490,
      "Ġrenfor": 6491,
      "ĠAND": 6492,
      "ĠMacedonia": 6493,
      "Ġinadequ": 6494,
      "Ġacceler": 6495,
      "ĠCommon": 6496,
      "riti": 6497,
      "Ġtests": 6498,
      "Ġnine": 6499,
      "ĠIl": 6500,
      "Ġabol": 6501,
      "tel": 6502,
      "ĠCOP": 6503,
      "Delegations": 6504,
      "Ġsubprogramme": 6505,
      "ĠStatute": 6506,
      "ĠRoma": 6507,
      "Ġinvite": 6508,
      "ĠstratÃ©gie": 6509,
      "Ġprincipe": 6510,
      "Ġfigure": 6511,
      "Ġsize": 6512,
      "Ġquelques": 6513,
      "ffective": 6514,
      "DI": 6515,
      "Ġ52": 6516,
      "ocal": 6517,
      "ĠInspec": 6518,
      "ĠViol": 6519,
      "Ġhoped": 6520,
      "mbol": 6521,
      "Calls": 6522,
      "Ġaccommod": 6523,
      "Ġinvitation": 6524,
      "Ġachievements": 6525,
      "ĠDire": 6526,
      "missible": 6527,
      "Ġconstitu": 6528,
      "arco": 6529,
      "ĠMold": 6530,
      "Ġseminar": 6531,
      "ĠTorture": 6532,
      "Ġalone": 6533,
      "Ġsociale": 6534,
      "Ġrail": 6535,
      "Ġremedies": 6536,
      "ĠRica": 6537,
      "Ġacced": 6538,
      "ĠMove": 6539,
      "ĠJer": 6540,
      "Ġgrate": 6541,
      "Ġinstruc": 6542,
      "Ġworldwide": 6543,
      "orient": 6544,
      "fortunately": 6545,
      "Ġconj": 6546,
      "Ġoccurred": 6547,
      "ishment": 6548,
      "endre": 6549,
      "Ġprosecution": 6550,
      "times": 6551,
      "Ġpercentage": 6552,
      "Ġpreventive": 6553,
      "ĠILO": 6554,
      "Ġcertainly": 6555,
      "ĠdÃ©putÃ©s": 6556,
      "resses": 6557,
      "Ġsustainability": 6558,
      "Ġfishing": 6559,
      "Ġcomplaint": 6560,
      "ijing": 6561,
      "Per": 6562,
      "Ġeuro": 6563,
      "alle": 6564,
      "ĠBri": 6565,
      "Ġgrateful": 6566,
      "ĠpÃªche": 6567,
      "ĠprÃ©sidence": 6568,
      "Ġinequ": 6569,
      "Ġaward": 6570,
      "Ġdanger": 6571,
      "usalem": 6572,
      "porter": 6573,
      "ength": 6574,
      "Ġagency": 6575,
      "isterial": 6576,
      "Ġunilateral": 6577,
      "auriti": 6578,
      "Ġrepresents": 6579,
      "Ġdism": 6580,
      "Ġjudiciary": 6581,
      "Ġdeclared": 6582,
      "Ġvotes": 6583,
      "Ġimpunity": 6584,
      "Ġadvocacy": 6585,
      "ĠTraffic": 6586,
      "ĠMessieurs": 6587,
      "Ġ43": 6588,
      "Ġconting": 6589,
      "dames": 6590,
      "tition": 6591,
      "ĠPR": 6592,
      "Ġurge": 6593,
      "Ġconclude": 6594,
      "ony": 6595,
      "agne": 6596,
      "ĠrÃ¨gles": 6597,
      "aint": 6598,
      "Ġfell": 6599,
      "ĠrÃ©gions": 6600,
      "Ġlines": 6601,
      "ĠpremiÃ¨re": 6602,
      "elt": 6603,
      "Ġprocessing": 6604,
      "Leste": 6605,
      "Ġworked": 6606,
      "Ġafford": 6607,
      "Ġdemonstrated": 6608,
      "Ġphen": 6609,
      "ilt": 6610,
      "ĠLanka": 6611,
      "Ġgrad": 6612,
      "Ġformation": 6613,
      "Ġnouvelles": 6614,
      "ĠNepal": 6615,
      "Ġconstant": 6616,
      "Ġsale": 6617,
      "XX": 6618,
      "Ġreceiving": 6619,
      "Ġcommerce": 6620,
      "Ġsubstanti": 6621,
      "**": 6622,
      "ĠOver": 6623,
      "ĠSmall": 6624,
      "ĠAnd": 6625,
      "ows": 6626,
      "Ġtechnological": 6627,
      "Ġassisting": 6628,
      "Ġready": 6629,
      "Ġseriously": 6630,
      "Ġpled": 6631,
      "Ġhttp": 6632,
      "Ġconstraints": 6633,
      "ĠBoliv": 6634,
      "Ġacad": 6635,
      "ĠStaff": 6636,
      "ĠResources": 6637,
      "Ġcomposition": 6638,
      "ĠEritrea": 6639,
      "Ã¶": 6640,
      "Ġproch": 6641,
      "Ġdispute": 6642,
      "Ġentity": 6643,
      "Ġ41": 6644,
      "Ġrepeated": 6645,
      "Ġfederal": 6646,
      "53": 6647,
      "ĠSri": 6648,
      "Ġesc": 6649,
      "Ġnationals": 6650,
      "ĠlÃł": 6651,
      "endix": 6652,
      "Ġexamined": 6653,
      "Ġheads": 6654,
      "Ġgovernmental": 6655,
      "Ġreality": 6656,
      "zed": 6657,
      "ĠPrÃ©sidente": 6658,
      "Pol": 6659,
      "ĠEcuador": 6660,
      "Ġjournal": 6661,
      "IM": 6662,
      "Ġinstall": 6663,
      "Ġdivision": 6664,
      "Ġrecherche": 6665,
      "Ġframeworks": 6666,
      "hel": 6667,
      "Ġconfront": 6668,
      "ĠConsult": 6669,
      "ĠRacial": 6670,
      "Ġphenomen": 6671,
      "Ġassign": 6672,
      "emploi": 6673,
      "Ġdurable": 6674,
      "quid": 6675,
      "Ġtechniques": 6676,
      "ĠMalaysia": 6677,
      "Ur": 6678,
      "Â»": 6679,
      "Ãªts": 6680,
      "Ġcopies": 6681,
      "ĠPeoples": 6682,
      "ĠCE": 6683,
      "Ġimmigration": 6684,
      "Ġenlar": 6685,
      "issent": 6686,
      "Ġign": 6687,
      "asc": 6688,
      "ĠJordan": 6689,
      "ĠDeveloping": 6690,
      "Ġteams": 6691,
      "Ġconfirm": 6692,
      "Ġperpetrators": 6693,
      "uesday": 6694,
      "98": 6695,
      "Mal": 6696,
      "Åĵuvre": 6697,
      "Ġpension": 6698,
      "auritius": 6699,
      "Ġinsufficient": 6700,
      "Ġadolescents": 6701,
      "dis": 6702,
      "Ġfonds": 6703,
      "Ġpattern": 6704,
      "Ġexpenses": 6705,
      "Ġcustoms": 6706,
      "Ġannounced": 6707,
      "ĠdÃ©l": 6708,
      "Ġdemands": 6709,
      "Ġlatest": 6710,
      "Ġdeem": 6711,
      "teed": 6712,
      "Ġprecise": 6713,
      "matic": 6714,
      "Signed": 6715,
      "ox": 6716,
      "atically": 6717,
      "auv": 6718,
      "ĠProv": 6719,
      "ĠPromotion": 6720,
      "lects": 6721,
      "mps": 6722,
      "Ġbonne": 6723,
      "Ġmicro": 6724,
      "Last": 6725,
      "Ġinvestments": 6726,
      "Ġsocieties": 6727,
      "ĠsÃ»": 6728,
      "Ġchose": 6729,
      "Office": 6730,
      "atique": 6731,
      "rÃ©e": 6732,
      "ĠTurkish": 6733,
      "zbek": 6734,
      "iteracy": 6735,
      "78": 6736,
      "boundary": 6737,
      "igence": 6738,
      "Ġpresidency": 6739,
      "Ġboard": 6740,
      "ager": 6741,
      "Ġintroduce": 6742,
      "Ġgap": 6743,
      "Ġstations": 6744,
      "ĠSlovenia": 6745,
      "orest": 6746,
      "antes": 6747,
      "46": 6748,
      "Ġprejud": 6749,
      "Ġreviews": 6750,
      "espÃ¨re": 6751,
      "Ġhor": 6752,
      "atar": 6753,
      "ĠparticuliÃ¨rement": 6754,
      "Ġcash": 6755,
      "Ġni": 6756,
      "roy": 6757,
      "avenir": 6758,
      "Ġ?": 6759,
      "nements": 6760,
      "enegal": 6761,
      "Ġattempt": 6762,
      "tile": 6763,
      "isp": 6764,
      "Fifty": 6765,
      "Su": 6766,
      "Ġword": 6767,
      "Ġmanufacturer": 6768,
      "Ġimpar": 6769,
      "Ġsafeguards": 6770,
      "Ġtrain": 6771,
      "Ġmoi": 6772,
      "ĠdÃ©s": 6773,
      "Ġclean": 6774,
      "Ġbreak": 6775,
      "Ġcharges": 6776,
      "Ġprojet": 6777,
      "Ter": 6778,
      "ĠeuropÃ©ennes": 6779,
      "Ġlength": 6780,
      "IOS": 6781,
      "ieux": 6782,
      "ĠamÃ©li": 6783,
      "ologies": 6784,
      "ĠCD": 6785,
      "Ġlegally": 6786,
      "Ġsections": 6787,
      "oute": 6788,
      "Ã©l": 6789,
      "1997": 6790,
      "sements": 6791,
      "Ġreconna": 6792,
      "onial": 6793,
      "Ġwarning": 6794,
      "ĠAngola": 6795,
      "occup": 6796,
      "mbudsman": 6797,
      "ocational": 6798,
      "import": 6799,
      "Ġnouveaux": 6800,
      "Ġuns": 6801,
      "Ġcovering": 6802,
      "Ġstarted": 6803,
      "Ġguaranteed": 6804,
      "cre": 6805,
      "ransition": 6806,
      "cast": 6807,
      "Ġapplying": 6808,
      "ĠBeijing": 6809,
      "Ġsimple": 6810,
      "Ġbound": 6811,
      "Ġhumanity": 6812,
      "Ġseems": 6813,
      "aide": 6814,
      "arag": 6815,
      "52": 6816,
      "nels": 6817,
      "Ġjou": 6818,
      "European": 6819,
      "ĠsÃ©": 6820,
      "Ġprohibited": 6821,
      "ster": 6822,
      "cher": 6823,
      "ĠWater": 6824,
      "Ġven": 6825,
      "Ġul": 6826,
      "hors": 6827,
      "Ġexports": 6828,
      "Ġcapable": 6829,
      "Ġbecoming": 6830,
      "Ġcommunautaire": 6831,
      "SA": 6832,
      "CRC": 6833,
      "ĠPan": 6834,
      "Ġtent": 6835,
      "vency": 6836,
      "Ġintolerance": 6837,
      "Ġproductive": 6838,
      "ĠCambod": 6839,
      "Ã©taire": 6840,
      "Ġsafeguard": 6841,
      "ĠAlgeria": 6842,
      "ĠKazakhstan": 6843,
      "Ġbank": 6844,
      "Au": 6845,
      "Ġcustody": 6846,
      "orig": 6847,
      "ographic": 6848,
      "ĠCustoms": 6849,
      "Sim": 6850,
      "ĠArabia": 6851,
      "Ġovercome": 6852,
      "ĠRespon": 6853,
      "ĠBritish": 6854,
      "Ġsecured": 6855,
      "ĠIAEA": 6856,
      "ĠVenezuela": 6857,
      "including": 6858,
      "Ġtend": 6859,
      "Ġrecip": 6860,
      "Ġnames": 6861,
      "Ġbegan": 6862,
      "tegrated": 6863,
      "Ġdoubt": 6864,
      "Recognizing": 6865,
      "Ġpreparations": 6866,
      "Given": 6867,
      "robi": 6868,
      "Ġdeliberations": 6869,
      "vi": 6870,
      "Ġregularly": 6871,
      "Ġproliferation": 6872,
      "airobi": 6873,
      "Ġseminars": 6874,
      "ĠUniversal": 6875,
      "room": 6876,
      "evertheless": 6877,
      "ĠTanz": 6878,
      "Ġmarginal": 6879,
      "terrorism": 6880,
      "je": 6881,
      "Ġoutlined": 6882,
      "Ġcollect": 6883,
      "ĠJoh": 6884,
      "Ġpending": 6885,
      "Ġ62": 6886,
      "rons": 6887,
      "Organiz": 6888,
      "Ġexpanded": 6889,
      "rengthening": 6890,
      "ĠJerusalem": 6891,
      "acro": 6892,
      "gle": 6893,
      "Ġaccompan": 6894,
      "anc": 6895,
      "Ġmobilization": 6896,
      "ĠlÃ©gislation": 6897,
      "Ab": 6898,
      "Ġenvisaged": 6899,
      "Ġsoldi": 6900,
      "acceptable": 6901,
      "yers": 6902,
      "ĠEuro": 6903,
      "Ġcurric": 6904,
      "ĠOHCHR": 6905,
      "Afric": 6906,
      "ĠCorr": 6907,
      "41": 6908,
      "Ġquot": 6909,
      "Having": 6910,
      "atif": 6911,
      "Ġpp": 6912,
      "ĠSlovakia": 6913,
      "ĠMovement": 6914,
      "ĠqualitÃ©": 6915,
      "rog": 6916,
      "Ġlutte": 6917,
      "Ġtourism": 6918,
      "Ġconstitutes": 6919,
      "elui": 6920,
      "gence": 6921,
      "ĠPeacebuilding": 6922,
      "discrimination": 6923,
      "Ġendor": 6924,
      "ĠDes": 6925,
      "Members": 6926,
      "ruguay": 6927,
      "Ġterme": 6928,
      "olvency": 6929,
      "Ġconsumer": 6930,
      "Accordingly": 6931,
      "ĠnÃ©gociations": 6932,
      "Ġcontinent": 6933,
      "era": 6934,
      "ĠSte": 6935,
      "ĠRed": 6936,
      "Ġdepri": 6937,
      "Ġvulnerability": 6938,
      "Ġparten": 6939,
      "Ġgarantir": 6940,
      "ĠLebanese": 6941,
      "ware": 6942,
      "Ġdecrease": 6943,
      "Ġexped": 6944,
      "Ġfron": 6945,
      "icarag": 6946,
      "Ġreaffirmed": 6947,
      "agency": 6948,
      "emen": 6949,
      "Ġselon": 6950,
      "DR": 6951,
      "ĠFound": 6952,
      "ĠCoordinator": 6953,
      "Ġcut": 6954,
      "raising": 6955,
      "la": 6956,
      "Ġfoster": 6957,
      "Ġclairement": 6958,
      "Ġtrading": 6959,
      "Ġreplace": 6960,
      "plo": 6961,
      "ĠAdvis": 6962,
      "Ġminors": 6963,
      "fficial": 6964,
      "Ġdoc": 6965,
      "ĠClosed": 6966,
      "Ġcrises": 6967,
      "Ġideas": 6968,
      "entre": 6969,
      "ĠMain": 6970,
      "Ġtur": 6971,
      "ĠPalestinians": 6972,
      "Ġfarmers": 6973,
      "lÃ©ment": 6974,
      "Ġlosses": 6975,
      "Ġchoice": 6976,
      "ĠsÃ©rie": 6977,
      "Implementation": 6978,
      "Ġperiods": 6979,
      "Ġintellectual": 6980,
      "Ġcorrespond": 6981,
      "Ġpourrait": 6982,
      "ĠMonday": 6983,
      "ĠChapter": 6984,
      "Ġreti": 6985,
      "Ġvirt": 6986,
      "Ġverification": 6987,
      "Ġdiv": 6988,
      "Ġfocal": 6989,
      "vador": 6990,
      "essional": 6991,
      "obilization": 6992,
      "Ġcongratulate": 6993,
      "ĠAssistant": 6994,
      "Ġmigrant": 6995,
      "ocuments": 6996,
      "ead": 6997,
      "Ġdisabled": 6998,
      "Ġded": 6999,
      "Ġbat": 7000,
      "ressing": 7001,
      "ĠGh": 7002,
      "ĠLand": 7003,
      "Ġequivalent": 7004,
      "ĠcompÃ©": 7005,
      "Ġdisputes": 7006,
      "Non": 7007,
      "Ġremercier": 7008,
      "Ġmiss": 7009,
      "Ġprompt": 7010,
      "66": 7011,
      "Ġfisheries": 7012,
      "ĠFourth": 7013,
      "orrow": 7014,
      "Ġinstead": 7015,
      "ulsory": 7016,
      "ĠbÃ©nÃ©": 7017,
      "rim": 7018,
      "Ġcease": 7019,
      "limate": 7020,
      "Ġdisease": 7021,
      "Ġsupplies": 7022,
      "Ġcoordinating": 7023,
      "Ġload": 7024,
      "Ġelig": 7025,
      "Most": 7026,
      "ĠRussia": 7027,
      "Ġlaid": 7028,
      "Develop": 7029,
      "UNICEF": 7030,
      "cession": 7031,
      "Ġdisad": 7032,
      "ras": 7033,
      "Ġnoting": 7034,
      "Ġlasting": 7035,
      "Ġmotion": 7036,
      "ĠMoldova": 7037,
      "Ġadopting": 7038,
      "ĠIntergovernmental": 7039,
      "pren": 7040,
      "ĠprocÃ©dure": 7041,
      "Ġmodalities": 7042,
      "apac": 7043,
      "Nevertheless": 7044,
      "Ġtesting": 7045,
      "ĠExcell": 7046,
      "ĠResolution": 7047,
      "rad": 7048,
      "Ã©nerg": 7049,
      "Ġguide": 7050,
      "ĠTanzania": 7051,
      "Ġbroader": 7052,
      "mun": 7053,
      "Ġraising": 7054,
      "ga": 7055,
      "Ġconsommateurs": 7056,
      "May": 7057,
      "Ġdirected": 7058,
      "book": 7059,
      "Ġelse": 7060,
      "Ġcharacteristics": 7061,
      "Gu": 7062,
      "ĠBarb": 7063,
      "Ġsubparagraph": 7064,
      "Ġfran": 7065,
      "ĠKh": 7066,
      "Ġimmig": 7067,
      "Ġincidents": 7068,
      "Ġpredic": 7069,
      "Ġletters": 7070,
      "Ġbehind": 7071,
      "Programme": 7072,
      "Ġultim": 7073,
      "80": 7074,
      "Ġnombreux": 7075,
      "ĠConventions": 7076,
      "ingap": 7077,
      "Ġva": 7078,
      "Ġnotice": 7079,
      "ĠStud": 7080,
      "Ġgave": 7081,
      "Ġstim": 7082,
      "Ġmois": 7083,
      "Ġconna": 7084,
      "Ġfavor": 7085,
      "ildren": 7086,
      "onn": 7087,
      "Ġfront": 7088,
      "ĠFoundation": 7089,
      "________": 7090,
      "Ġstable": 7091,
      "imbab": 7092,
      "rd": 7093,
      "Ġnothing": 7094,
      "ĠSociety": 7095,
      "Ġbear": 7096,
      "Ġmot": 7097,
      "Ġkeeping": 7098,
      "forme": 7099,
      "Ã©gal": 7100,
      "Ġconsolidated": 7101,
      "Ġgives": 7102,
      "ĠFas": 7103,
      "ĠAgriculture": 7104,
      "Ġseront": 7105,
      "ĠrÃ©du": 7106,
      "Ġfacts": 7107,
      "Ġreiterated": 7108,
      "ĠÂ«": 7109,
      "Ġmoyen": 7110,
      "jets": 7111,
      "ĠEUR": 7112,
      "ĠCO": 7113,
      "andum": 7114,
      "Ġbalanced": 7115,
      "Ġproperly": 7116,
      "Ġtopics": 7117,
      "Ġhighlight": 7118,
      "ush": 7119,
      "Ġtrib": 7120,
      "Its": 7121,
      "Ġundertaking": 7122,
      "Ġrelevance": 7123,
      "SG": 7124,
      "Ġfoot": 7125,
      "Ġsignal": 7126,
      "Ġfocusing": 7127,
      "ĠForces": 7128,
      "Prop": 7129,
      "Ġwoman": 7130,
      "Ġcorresponding": 7131,
      "Ġuses": 7132,
      "Ġfit": 7133,
      "Ġsaving": 7134,
      "96": 7135,
      "comp": 7136,
      "Ġdescrib": 7137,
      "UNC": 7138,
      "Ġperhaps": 7139,
      "Ġsometimes": 7140,
      "ouses": 7141,
      "Ġoral": 7142,
      "ellement": 7143,
      "sen": 7144,
      "Ġsearch": 7145,
      "Ġprogressive": 7146,
      "Ġcoast": 7147,
      "RAL": 7148,
      "Ġconsiderations": 7149,
      "Ġwished": 7150,
      "âĢĶ": 7151,
      "Ġforthcoming": 7152,
      "Ġopened": 7153,
      "Ġliberty": 7154,
      "Ġcompromise": 7155,
      "Ġvaluable": 7156,
      "ĠUzbek": 7157,
      "Ġcurren": 7158,
      "UR": 7159,
      "sector": 7160,
      "istes": 7161,
      "Ġreflects": 7162,
      "ursu": 7163,
      "imbabwe": 7164,
      "Unis": 7165,
      "ĠBody": 7166,
      "pir": 7167,
      "Taking": 7168,
      "ĠNairobi": 7169,
      "Ã©nergie": 7170,
      "Ġoversight": 7171,
      "Ġpartner": 7172,
      "ingapore": 7173,
      "ganisation": 7174,
      "Ġbecame": 7175,
      "ĠdÃ¨s": 7176,
      "ĠDay": 7177,
      "ĠArmenia": 7178,
      "Ġsuffered": 7179,
      "Be": 7180,
      "ĠvÃ©rit": 7181,
      "Ġprevail": 7182,
      "emorandum": 7183,
      "ĠDo": 7184,
      "osystem": 7185,
      "ulates": 7186,
      "rendum": 7187,
      "Ġimped": 7188,
      "Ġtransferred": 7189,
      "ĠfÃ©lic": 7190,
      "ĠÅĵuvre": 7191,
      "ĠMauritius": 7192,
      "Ġdonner": 7193,
      "Ġbearing": 7194,
      "ateur": 7195,
      "rew": 7196,
      "Ġmanage": 7197,
      "Ġjuridique": 7198,
      "Ġcounsel": 7199,
      "Ġdetained": 7200,
      "Ġbra": 7201,
      "ĠViet": 7202,
      "Ġhelping": 7203,
      "rior": 7204,
      "ĠChinese": 7205,
      "Ġobjection": 7206,
      "Ġstabil": 7207,
      "Ġexplicit": 7208,
      "ĠÃ©nerg": 7209,
      "Ġequally": 7210,
      "Ġcelle": 7211,
      "77": 7212,
      "Ġwithdrawal": 7213,
      "ĠOcc": 7214,
      "Notes": 7215,
      "Ġcalling": 7216,
      "rep": 7217,
      "ountry": 7218,
      "ĠnÃ©cessitÃ©": 7219,
      "Sum": 7220,
      "ĠExcellency": 7221,
      "Ġobvious": 7222,
      "Can": 7223,
      "Ġsw": 7224,
      "Ġcelui": 7225,
      "Ġcul": 7226,
      "ĠElect": 7227,
      "Ġarch": 7228,
      "ĠTransition": 7229,
      "Ġpati": 7230,
      "Ġrou": 7231,
      "DAW": 7232,
      "ĠGuidelines": 7233,
      "Each": 7234,
      "Ġrapporteurs": 7235,
      "Ġvoir": 7236,
      "Ġoptim": 7237,
      "Ġinadequate": 7238,
      "pread": 7239,
      "Ġreb": 7240,
      "riendly": 7241,
      "ĠSenegal": 7242,
      "Ġmethodology": 7243,
      "ĠPower": 7244,
      "Ġfourn": 7245,
      "Working": 7246,
      "atible": 7247,
      "Encoura": 7248,
      "ĠTunisia": 7249,
      "ĠUNO": 7250,
      "Ġquestionnaire": 7251,
      "Ġopposition": 7252,
      "Ġsymbol": 7253,
      "kina": 7254,
      "Ġthanks": 7255,
      "Ġrecognizes": 7256,
      "indre": 7257,
      "ĠAssemblÃ©e": 7258,
      "ONUC": 7259,
      "ĠSc": 7260,
      "Documentation": 7261,
      "Ġfax": 7262,
      "ĠChange": 7263,
      "zation": 7264,
      "Ġfraud": 7265,
      "Resolution": 7266,
      "Concern": 7267,
      "Ġappears": 7268,
      "ĠintÃ©r": 7269,
      "dam": 7270,
      "Ġsponsors": 7271,
      "Ġtolerance": 7272,
      "Ġinclusive": 7273,
      "Ġchemicals": 7274,
      "oke": 7275,
      "idespread": 7276,
      "ĠHeads": 7277,
      "ursuant": 7278,
      "ĠMesdames": 7279,
      "dation": 7280,
      "abord": 7281,
      "Ġbul": 7282,
      "ĠvotÃ©": 7283,
      "Ġsupervision": 7284,
      "ĠPenal": 7285,
      "ommun": 7286,
      "ainst": 7287,
      "ography": 7288,
      "rength": 7289,
      "Min": 7290,
      "Ã³n": 7291,
      "Ġflexibility": 7292,
      "Ġcame": 7293,
      "erative": 7294,
      "Ġdistinction": 7295,
      "ĠAssessment": 7296,
      "ĠSett": 7297,
      "anks": 7298,
      "Ġshel": 7299,
      "Cons": 7300,
      "undred": 7301,
      "Ġmaintenant": 7302,
      "Ġrejected": 7303,
      "Ġchaque": 7304,
      "gression": 7305,
      "Ġlargely": 7306,
      "Tr": 7307,
      "amend": 7308,
      "Ġexplained": 7309,
      "Ġxenophobia": 7310,
      "ĠChemical": 7311,
      "Ġupdate": 7312,
      "ĠParis": 7313,
      "Ġreply": 7314,
      "Ġcou": 7315,
      "Ġincen": 7316,
      "ĠDirective": 7317,
      "autre": 7318,
      "Ġpoursu": 7319,
      "Ġexclusion": 7320,
      "illance": 7321,
      "Similar": 7322,
      "ĠdÃ©mocratie": 7323,
      "Ġprogramming": 7324,
      "Ġadjustment": 7325,
      "visional": 7326,
      "Ġbanks": 7327,
      "Ġoperate": 7328,
      "ĠWeb": 7329,
      "OL": 7330,
      "Ġbarriers": 7331,
      "grading": 7332,
      "Ġrelatively": 7333,
      "Reaffirming": 7334,
      "Ġvariety": 7335,
      "Ġimpossible": 7336,
      "tout": 7337,
      "unes": 7338,
      "Ġtexts": 7339,
      "Ġsure": 7340,
      "Ġchanging": 7341,
      "Ġtemper": 7342,
      "Ġplusieurs": 7343,
      "Ġaccessible": 7344,
      "Ġvale": 7345,
      "Ġvolume": 7346,
      "Ġpotenti": 7347,
      "Reg": 7348,
      "ĠÃ©crit": 7349,
      "CONF": 7350,
      "Ġunf": 7351,
      "ĠSalvador": 7352,
      "ĠSam": 7353,
      "Ġembargo": 7354,
      "Ġ63": 7355,
      "Ġrapide": 7356,
      "Ġmaritime": 7357,
      "Ġlost": 7358,
      "PC": 7359,
      "ĠFaso": 7360,
      "ente": 7361,
      "Ġcompetitiveness": 7362,
      "Ġemployed": 7363,
      "ensions": 7364,
      "burg": 7365,
      "Ġindirect": 7366,
      "Section": 7367,
      "being": 7368,
      "Ġsouha": 7369,
      "Ġwidespread": 7370,
      "celand": 7371,
      "Ġpremier": 7372,
      "Ġanswer": 7373,
      "Ġwitnesses": 7374,
      "Ġ=": 7375,
      "Qu": 7376,
      "Ġseat": 7377,
      "Ġdetainees": 7378,
      "Ġwider": 7379,
      "stein": 7380,
      "scale": 7381,
      "ĠsociÃ©tÃ©": 7382,
      "Ġtreated": 7383,
      "rees": 7384,
      "ĠVI": 7385,
      "Ġsets": 7386,
      "ĠautoritÃ©s": 7387,
      "Ġserving": 7388,
      "Ġfiscal": 7389,
      "Ġsoldiers": 7390,
      "elled": 7391,
      "ĠOmbudsman": 7392,
      "Ġheavy": 7393,
      "ĠRome": 7394,
      "arter": 7395,
      "ĠLatvia": 7396,
      "Ġworks": 7397,
      "Ġsuggestions": 7398,
      "ĠNicarag": 7399,
      "ispens": 7400,
      "GR": 7401,
      "Ġentend": 7402,
      "Ġinspection": 7403,
      "Secondly": 7404,
      "Ġtroops": 7405,
      "usion": 7406,
      "Ġdisag": 7407,
      "ĠDomin": 7408,
      "ept": 7409,
      "ĠComprehensive": 7410,
      "Ġstrength": 7411,
      "Ġcamps": 7412,
      "uth": 7413,
      "ĠNe": 7414,
      "Ġregister": 7415,
      "Ġsend": 7416,
      "Ġconservation": 7417,
      "Particip": 7418,
      "Ġperspectives": 7419,
      "tian": 7420,
      "ĠCambodia": 7421,
      "Ġdispar": 7422,
      "ĠspÃ©ci": 7423,
      "ĠProcess": 7424,
      "Ġconvinced": 7425,
      "Ġrefers": 7426,
      "Ġvia": 7427,
      "Ġcapabilities": 7428,
      "specific": 7429,
      "ĠOccup": 7430,
      "Ġscheme": 7431,
      "imes": 7432,
      "Ġextr": 7433,
      "Ġchanged": 7434,
      "ino": 7435,
      "Ġsides": 7436,
      "aled": 7437,
      "Ġpapers": 7438,
      "eurs": 7439,
      "Ġmerc": 7440,
      "Ġaugment": 7441,
      "ĠSou": 7442,
      "Ġmanaged": 7443,
      "oday": 7444,
      "Ġquickly": 7445,
      "Ġincreases": 7446,
      "lections": 7447,
      "43": 7448,
      "urate": 7449,
      "Ġkilled": 7450,
      "Ġcomes": 7451,
      "Ġsensitive": 7452,
      "Ġbelonging": 7453,
      "Ġtrava": 7454,
      "Habitat": 7455,
      "Ġcapit": 7456,
      "Aust": 7457,
      "IK": 7458,
      "Ġsummar": 7459,
      "Ġnotification": 7460,
      "Ġdisability": 7461,
      "Ġexpresses": 7462,
      "Ġvisant": 7463,
      "Ori": 7464,
      "lor": 7465,
      "Ġenterprise": 7466,
      "Ġfear": 7467,
      "Ġprefer": 7468,
      "Ġlargest": 7469,
      "Ġprix": 7470,
      "iaison": 7471,
      "Ã©v": 7472,
      "inations": 7473,
      "Ġmarked": 7474,
      "Ġindispens": 7475,
      "Ġverb": 7476,
      "Ġdemonstrate": 7477,
      "ATION": 7478,
      "ribunals": 7479,
      "ĠWar": 7480,
      "Ġcommand": 7481,
      "ĠUse": 7482,
      "Ġacquisition": 7483,
      "atch": 7484,
      "ameroon": 7485,
      "Ã©rer": 7486,
      "Ġminutes": 7487,
      "Ġcompulsory": 7488,
      "Ġcovers": 7489,
      "urban": 7490,
      "TE": 7491,
      "Ġempowerment": 7492,
      "Welcomes": 7493,
      "Pe": 7494,
      "Indeed": 7495,
      "Ġinhuman": 7496,
      "Ġconcurrence": 7497,
      "Ġillust": 7498,
      "ĠPlanning": 7499,
      "Ġstarting": 7500,
      "ĠStrategic": 7501,
      "Ġappeals": 7502,
      "uri": 7503,
      "Ġconsumers": 7504,
      "Ġarrested": 7505,
      "ilib": 7506,
      "arer": 7507,
      "Ġsatell": 7508,
      "Ġdischarge": 7509,
      "agues": 7510,
      "Ġprohibition": 7511,
      "IF": 7512,
      "Ġjoined": 7513,
      "Ġones": 7514,
      "Ã®tre": 7515,
      "called": 7516,
      "ĠcoÃ»": 7517,
      "ĠpÃ©ri": 7518,
      "Ġressources": 7519,
      "ĠUruguay": 7520,
      "Ġaucun": 7521,
      ")).": 7522,
      "Ġdecentral": 7523,
      "Ġpertain": 7524,
      "rais": 7525,
      "Ġsurtout": 7526,
      "Ġhearing": 7527,
      "Ġfeed": 7528,
      "ĠYouth": 7529,
      "Ġannivers": 7530,
      "Ġdevoted": 7531,
      "Ġvocational": 7532,
      "Ġhomes": 7533,
      "ĠChad": 7534,
      "Ġsyn": 7535,
      "Ġworth": 7536,
      "Ġdig": 7537,
      "Ġquanti": 7538,
      "Ġfeas": 7539,
      "ournal": 7540,
      "load": 7541,
      "rich": 7542,
      "Ġhos": 7543,
      "Ġcertaines": 7544,
      "ĠZimbabwe": 7545,
      "ĠFriday": 7546,
      "pol": 7547,
      "ĠlibertÃ©": 7548,
      "Ġsubs": 7549,
      "PE": 7550,
      "Ġanticip": 7551,
      "igure": 7552,
      "Ġenf": 7553,
      "Ġofficer": 7554,
      "Ġmandated": 7555,
      "Ġrepresenting": 7556,
      "zone": 7557,
      "Ġcoherence": 7558,
      "fire": 7559,
      "Comp": 7560,
      "Ġintegrate": 7561,
      "Ġgaps": 7562,
      "cean": 7563,
      "Ġrelatives": 7564,
      "region": 7565,
      "ordre": 7566,
      "Ġautonom": 7567,
      "Ġdeterior": 7568,
      "Ġreste": 7569,
      "oa": 7570,
      "ihood": 7571,
      "Ġduration": 7572,
      "Ġinvestigate": 7573,
      "Ġhelped": 7574,
      "Ġroles": 7575,
      "PL": 7576,
      "Ġteaching": 7577,
      "Ġunanim": 7578,
      "Ġlocation": 7579,
      "Ġobject": 7580,
      "ura": 7581,
      "Ġconducting": 7582,
      "Ġinterpre": 7583,
      "Ġconfid": 7584,
      "Ġpeacebuilding": 7585,
      "Ġexchang": 7586,
      "Ġarbitrary": 7587,
      "Ġexecution": 7588,
      "ĠAuditors": 7589,
      "Ġine": 7590,
      "97": 7591,
      "âĢĿ;": 7592,
      "ĠConstitutional": 7593,
      "mbre": 7594,
      "Ġcompetitive": 7595,
      "border": 7596,
      "Ġliquid": 7597,
      "serv": 7598,
      "ĠSch": 7599,
      "Ġfaith": 7600,
      "90": 7601,
      "hr": 7602,
      "Ġexcessive": 7603,
      "Ġwishing": 7604,
      "June": 7605,
      "eduction": 7606,
      "Ġelles": 7607,
      "Ġincomp": 7608,
      "lem": 7609,
      "ocation": 7610,
      "Ġcities": 7611,
      "pid": 7612,
      "Ġmacro": 7613,
      "Ġharmonization": 7614,
      "ĠÃ©conomiques": 7615,
      "ili": 7616,
      "Ġrape": 7617,
      "Ġallowing": 7618,
      "Ġposed": 7619,
      "Ġinternationale": 7620,
      "Ġconsolidation": 7621,
      "inde": 7622,
      "Ġcorporate": 7623,
      "Une": 7624,
      "ĠUNAM": 7625,
      "issau": 7626,
      "Urges": 7627,
      "ĠTre": 7628,
      "ĠOECD": 7629,
      "Ġtrained": 7630,
      "Ġuniform": 7631,
      "Ġpromoted": 7632,
      "ogo": 7633,
      "Ġintegral": 7634,
      "treatment": 7635,
      "Ġcompletely": 7636,
      "Ġparliamentary": 7637,
      "Ġthousands": 7638,
      "Ġhom": 7639,
      "42": 7640,
      "ĠComb": 7641,
      "Ãītat": 7642,
      "Ġguard": 7643,
      "Official": 7644,
      "ĠSen": 7645,
      "Ġfelt": 7646,
      "Ġecosystem": 7647,
      "http": 7648,
      "Ġdevices": 7649,
      "ĠRecommend": 7650,
      "Ġdetermining": 7651,
      "itary": 7652,
      "Ġboys": 7653,
      "ENT": 7654,
      "ĠSB": 7655,
      "Ġpath": 7656,
      "aix": 7657,
      "ĠQatar": 7658,
      "rg": 7659,
      "Ġoppos": 7660,
      "Ġforums": 7661,
      "ĠSaint": 7662,
      "Ġslow": 7663,
      "ĠEmployment": 7664,
      "Ġselection": 7665,
      "Ġvoulons": 7666,
      "Ġunion": 7667,
      "Ġperformed": 7668,
      "aritÃ©": 7669,
      "Ġutilis": 7670,
      "ĠUzbekistan": 7671,
      "Ġindicates": 7672,
      "ĠresponsabilitÃ©": 7673,
      "ĠIsland": 7674,
      "Ġreleased": 7675,
      "Ġtitle": 7676,
      "Ġflexible": 7677,
      "Ġdisposal": 7678,
      "Ġnutrition": 7679,
      "Ġtiens": 7680,
      "Ġavez": 7681,
      "Ġbiological": 7682,
      "ull": 7683,
      "ago": 7684,
      "Summary": 7685,
      "Ġrestruct": 7686,
      "Li": 7687,
      "aly": 7688,
      "Ġdiscriminatory": 7689,
      "Nor": 7690,
      "voy": 7691,
      "ĠNPT": 7692,
      "Ġprocedural": 7693,
      "Ġneighbouring": 7694,
      "ĠHis": 7695,
      "Chapter": 7696,
      "ĠAdviser": 7697,
      "Ġserved": 7698,
      "sk": 7699,
      "fe": 7700,
      "ĠMus": 7701,
      "Ġsixth": 7702,
      "Ġviolated": 7703,
      "ĠTeam": 7704,
      "Ġformat": 7705,
      "Ġaccomplish": 7706,
      "Ġimportante": 7707,
      "ez": 7708,
      "Trans": 7709,
      "Ġstages": 7710,
      "versi": 7711,
      "ĠrÃ©ponse": 7712,
      "Ġreproduced": 7713,
      "kers": 7714,
      "sile": 7715,
      "ĠprÃ©s": 7716,
      "inst": 7717,
      "Ã©conom": 7718,
      "Ġterrorists": 7719,
      "Ġmunicipal": 7720,
      "locked": 7721,
      "lation": 7722,
      "information": 7723,
      "Ġexperienced": 7724,
      "rement": 7725,
      "65": 7726,
      "haust": 7727,
      "ĠON": 7728,
      "ĠUNESCO": 7729,
      "Des": 7730,
      "ĠOversight": 7731,
      "duct": 7732,
      "ĠDraft": 7733,
      "Ġpsychological": 7734,
      "gÃ©": 7735,
      "tenstein": 7736,
      "Ġcheck": 7737,
      "ĠPlatform": 7738,
      "Ġpermitted": 7739,
      "Geneva": 7740,
      "Inv": 7741,
      "Ġdecides": 7742,
      "Ġdefine": 7743,
      "Ġstation": 7744,
      "Ġmeasured": 7745,
      "Ġinsolvency": 7746,
      "ĠSah": 7747,
      "Ġart": 7748,
      "ĠStock": 7749,
      "grÃ¨s": 7750,
      "roc": 7751,
      "NGO": 7752,
      "Ġorganize": 7753,
      "Ġcontex": 7754,
      "ĠClimate": 7755,
      "Ġstatut": 7756,
      "ocs": 7757,
      "Ġrational": 7758,
      "entials": 7759,
      "Ġministries": 7760,
      "Ġmilit": 7761,
      "Ġtradition": 7762,
      "ĠBer": 7763,
      "ney": 7764,
      "Ġtransnational": 7765,
      "Ġsurveillance": 7766,
      "Ġcroissance": 7767,
      "Ġthought": 7768,
      "Ġrig": 7769,
      "Ġdegradation": 7770,
      "Ġclust": 7771,
      "indust": 7772,
      "Ġoffers": 7773,
      "Ġcitizen": 7774,
      "Ġjusqu": 7775,
      "Ġdistrict": 7776,
      "Chairman": 7777,
      "Ġministerial": 7778,
      "ĠEstonia": 7779,
      "Through": 7780,
      "Ġcitizenship": 7781,
      "ĠconsÃ©quent": 7782,
      "echtenstein": 7783,
      "Coun": 7784,
      "Ġunderst": 7785,
      "Ces": 7786,
      "Ġreve": 7787,
      "ibia": 7788,
      "Ġmaternal": 7789,
      "Ġratif": 7790,
      "ĠUNIF": 7791,
      "aired": 7792,
      "Ġtenth": 7793,
      "Pursuant": 7794,
      "tiÃ¨res": 7795,
      "Ġinnovation": 7796,
      "Statements": 7797,
      "eux": 7798,
      "ĠField": 7799,
      "Ġinventory": 7800,
      "Ġ000": 7801,
      "Ġsuitable": 7802,
      "ensemble": 7803,
      "Ġrequiring": 7804,
      "ĠWHO": 7805,
      "Ġbiod": 7806,
      "Ġkept": 7807,
      "Ġsemble": 7808,
      "Ġchan": 7809,
      "Ġtry": 7810,
      "\",": 7811,
      "Ġtravailleurs": 7812,
      "Ġcontacts": 7813,
      "Ġlab": 7814,
      "Ġschedule": 7815,
      "ĠProgram": 7816,
      "Ġdavantage": 7817,
      "Ġstocks": 7818,
      "Ġdecade": 7819,
      "icing": 7820,
      "Ġextradition": 7821,
      "Ġbiennial": 7822,
      "Ġauthors": 7823,
      "otes": 7824,
      "Ġacknowledged": 7825,
      "ĠdÃ©t": 7826,
      "ĠIN": 7827,
      "umber": 7828,
      "xic": 7829,
      "Sw": 7830,
      "Ġneither": 7831,
      "ĠProp": 7832,
      "Ġrespected": 7833,
      "Ġsixtieth": 7834,
      "Ġcity": 7835,
      "Ġvessels": 7836,
      "aters": 7837,
      "Ġinterd": 7838,
      "Ġsoutenir": 7839,
      "Op": 7840,
      "ĠIceland": 7841,
      "Ġresolved": 7842,
      "Ġcontinuous": 7843,
      "ĠTal": 7844,
      "Ġbusinesses": 7845,
      "ĠJamaica": 7846,
      "ĠDefence": 7847,
      "acted": 7848,
      "ĠGhana": 7849,
      "ulsion": 7850,
      "Ġphenomenon": 7851,
      "Ġintroducing": 7852,
      "Ġdestroy": 7853,
      "Ġdemobilization": 7854,
      "Ġpens": 7855,
      "Ġparlement": 7856,
      "Ġincur": 7857,
      "Ã¨te": 7858,
      "Ġrecru": 7859,
      "Ġformulated": 7860,
      "ĠCommittees": 7861,
      "Ġhazardous": 7862,
      "rivate": 7863,
      "Ġreading": 7864,
      "Ġinterview": 7865,
      "Ġseeks": 7866,
      "Ġges": 7867,
      "Ġabroad": 7868,
      "uk": 7869,
      "Ġaccords": 7870,
      "Ġadequately": 7871,
      "ĠCC": 7872,
      "Ġinput": 7873,
      "Today": 7874,
      "Ġqualified": 7875,
      "ajik": 7876,
      "Ġmembre": 7877,
      "Ġdifference": 7878,
      "Ã®t": 7879,
      "loy": 7880,
      "Ġdecline": 7881,
      "ani": 7882,
      "EL": 7883,
      "ĠGuide": 7884,
      "Bissau": 7885,
      "igation": 7886,
      "apacity": 7887,
      "Ġcharged": 7888,
      "Ġpassed": 7889,
      "objec": 7890,
      "Ġexplanation": 7891,
      "Ġisol": 7892,
      "Ġreliable": 7893,
      "Ġsouthern": 7894,
      "Ġmanagers": 7895,
      "Â°": 7896,
      "Ġgreatest": 7897,
      "Ġdimensions": 7898,
      "Ġfixed": 7899,
      "ertain": 7900,
      "ĠIssues": 7901,
      "ĠNicaragua": 7902,
      "ĠDocument": 7903,
      "iff": 7904,
      "rap": 7905,
      "Ġexhaust": 7906,
      "Ġdrawing": 7907,
      "atal": 7908,
      "Ġworkpl": 7909,
      "ĠSingapore": 7910,
      "Action": 7911,
      "Inter": 7912,
      "Ġ75": 7913,
      "Ġreaching": 7914,
      "ĠBolivia": 7915,
      "Ġcandidate": 7916,
      "Ġindustries": 7917,
      "Ġlists": 7918,
      "Ġnegotiation": 7919,
      "ĠdonnÃ©": 7920,
      "ĠÃ©tabl": 7921,
      "ench": 7922,
      "Ġfacility": 7923,
      "Ãªte": 7924,
      "Ġbeg": 7925,
      "ĠrÃ©un": 7926,
      "ultures": 7927,
      "Ġcommen": 7928,
      "Ġdernier": 7929,
      "oriented": 7930,
      "Ġsuspec": 7931,
      "ancies": 7932,
      "World": 7933,
      "OPS": 7934,
      "ongol": 7935,
      "ĠInstitution": 7936,
      "Ġbreach": 7937,
      "Ġcolleagues": 7938,
      "itage": 7939,
      "Ġmines": 7940,
      "Ġsymp": 7941,
      "ĠMalta": 7942,
      "alys": 7943,
      "titudes": 7944,
      "Ġsigning": 7945,
      "ĠObserver": 7946,
      "Ġanniversary": 7947,
      "ĠBurkina": 7948,
      "Ġfighting": 7949,
      "Ġcloser": 7950,
      "ĠAir": 7951,
      "300": 7952,
      "Ġdemander": 7953,
      "Ġfondament": 7954,
      "Ġsuccessfully": 7955,
      "Ġactuellement": 7956,
      "Ġlorsque": 7957,
      "ĠStandard": 7958,
      "TAR": 7959,
      "ĠQu": 7960,
      "ĠThursday": 7961,
      "Ġmoral": 7962,
      "Madame": 7963,
      "ĠWh": 7964,
      "Ġmas": 7965,
      "allel": 7966,
      "iterranean": 7967,
      "Ġourselves": 7968,
      "ĠDecree": 7969,
      "Ġhol": 7970,
      "ĠspÃ©cif": 7971,
      "Ġfinanced": 7972,
      "ĠFinance": 7973,
      "yz": 7974,
      "Ġindispensable": 7975,
      "Ġpill": 7976,
      "Ġremote": 7977,
      "Ġcoherent": 7978,
      "Ġconjunction": 7979,
      "ĠScience": 7980,
      "ussels": 7981,
      "hibition": 7982,
      "Ġadminister": 7983,
      "Ġdescription": 7984,
      "jou": 7985,
      "Ġsect": 7986,
      "Ġallev": 7987,
      "mi": 7988,
      "ĠTreatment": 7989,
      "Ġdrew": 7990,
      "Ġenvironnement": 7991,
      "rabudgetary": 7992,
      "ĠsÃ»r": 7993,
      "ĠMadam": 7994,
      "olonization": 7995,
      "Ġallows": 7996,
      "Ġrenewable": 7997,
      "under": 7998,
      "lawful": 7999,
      "Ġdraf": 8000,
      "Ġfinding": 8001,
      "Ġ(âĢľ": 8002,
      "eared": 8003,
      "real": 8004,
      "Est": 8005,
      "Ġopinions": 8006,
      "Ġinstit": 8007,
      "Ġschemes": 8008,
      "ients": 8009,
      "Ġolder": 8010,
      "DF": 8011,
      "Ġsucceed": 8012,
      "Both": 8013,
      "ĠcrÃ©ation": 8014,
      "Israel": 8015,
      "Americ": 8016,
      "uras": 8017,
      "Ġspeaker": 8018,
      "rir": 8019,
      "Ġposs": 8020,
      "ĠSee": 8021,
      "Ġdouble": 8022,
      "Consideration": 8023,
      "Ġclassification": 8024,
      "Ġprofessionals": 8025,
      "ceptions": 8026,
      "Ġadvanced": 8027,
      "Ġvolont": 8028,
      "Ġhouseholds": 8029,
      "Ġstaffing": 8030,
      "Ġahead": 8031,
      "Ġunderstood": 8032,
      "Ġcomputer": 8033,
      "ĠMul": 8034,
      "Ġbuilt": 8035,
      "andon": 8036,
      "missibility": 8037,
      "Ġassur": 8038,
      "Ġflag": 8039,
      "hiri": 8040,
      "Ġadvancement": 8041,
      "ĠIntegrated": 8042,
      "ĠJe": 8043,
      "esty": 8044,
      "Ġsouligner": 8045,
      "Ġpaix": 8046,
      "ozamb": 8047,
      "ĠRelations": 8048,
      "Ġdevice": 8049,
      "ĠProfessional": 8050,
      "human": 8051,
      "ĠTransitional": 8052,
      "ĠprogrÃ¨s": 8053,
      "Ġlarger": 8054,
      "Ġstrug": 8055,
      "pd": 8056,
      "âĪ": 8057,
      "Ġtransitional": 8058,
      "Ġenlargement": 8059,
      "Ġrequesting": 8060,
      "quie": 8061,
      "Ġinstructions": 8062,
      "Member": 8063,
      "Ġevaluate": 8064,
      "FC": 8065,
      "Ġrepatri": 8066,
      "Ġdivid": 8067,
      "aguay": 8068,
      "ĠÃītat": 8069,
      "88": 8070,
      "Ġaged": 8071,
      "Ġambiti": 8072,
      "Ġdomaines": 8073,
      "Ġconstitue": 8074,
      "ĠOb": 8075,
      "Ġentrepren": 8076,
      "usp": 8077,
      "Ġprescribed": 8078,
      "ĠDoha": 8079,
      "Ġaccordingly": 8080,
      "Ġcruel": 8081,
      "Financing": 8082,
      "FP": 8083,
      "Ġforests": 8084,
      "Ġmandatory": 8085,
      "ienne": 8086,
      "losure": 8087,
      "Ġsorte": 8088,
      "Ġdeaths": 8089,
      "back": 8090,
      "Ġsam": 8091,
      "Ġmill": 8092,
      "Ġrelate": 8093,
      "Ġremarks": 8094,
      "Ġequity": 8095,
      "ĠFAO": 8096,
      "earing": 8097,
      "Ġfunctional": 8098,
      "Ġentail": 8099,
      "Ġlif": 8100,
      "Ġgestion": 8101,
      "ourage": 8102,
      "Even": 8103,
      "iliation": 8104,
      "mette": 8105,
      "Ġsurveys": 8106,
      "largis": 8107,
      "Ġgeneration": 8108,
      "ĠdiffÃ©rents": 8109,
      "ifi": 8110,
      "hiriya": 8111,
      "Ġgreatly": 8112,
      "Ġdisadvant": 8113,
      "Ġrose": 8114,
      "Ġtransmission": 8115,
      "600": 8116,
      "tivitÃ©": 8117,
      "Ġthor": 8118,
      "ĠAlbania": 8119,
      "ĠYemen": 8120,
      "Ġvoter": 8121,
      "Ġprotocols": 8122,
      "Ġsubjects": 8123,
      "ĠSME": 8124,
      "Ġshowed": 8125,
      "rgyz": 8126,
      "Two": 8127,
      "Ġ<": 8128,
      "Ġmorning": 8129,
      "Ġdeemed": 8130,
      "Ġdeprived": 8131,
      "ĠJamahiriya": 8132,
      "Ġcell": 8133,
      "angible": 8134,
      "Comme": 8135,
      "ĠPrac": 8136,
      "ptions": 8137,
      "vestment": 8138,
      "Ġaggression": 8139,
      "Ġinside": 8140,
      "ĠDist": 8141,
      "âĢľ(": 8142,
      "titution": 8143,
      "Ġense": 8144,
      "Ġcompil": 8145,
      "ĠSouthern": 8146,
      "Ġhun": 8147,
      "mosp": 8148,
      "Ġmotiv": 8149,
      "Encourages": 8150,
      "Ġjudgement": 8151,
      "Ġaucune": 8152,
      "umn": 8153,
      "Source": 8154,
      "UNEP": 8155,
      "Ġstay": 8156,
      "Et": 8157,
      "Ġbure": 8158,
      "Ġinad": 8159,
      "ifying": 8160,
      "Ġremedy": 8161,
      "contrib": 8162,
      "Ġencoun": 8163,
      "ĠMDG": 8164,
      "Ġpauv": 8165,
      "Ġimpose": 8166,
      "Ġstor": 8167,
      "Ġtermes": 8168,
      "Ġmount": 8169,
      "Ġcommence": 8170,
      "space": 8171,
      "Wh": 8172,
      "Ġsouvent": 8173,
      "Ġpremises": 8174,
      "down": 8175,
      "ivre": 8176,
      "Ã¨ve": 8177,
      "Ġcultures": 8178,
      "Ġreplaced": 8179,
      "Ġconviction": 8180,
      "Ġsavings": 8181,
      "ĠderniÃ¨re": 8182,
      "Ġdisting": 8183,
      "2010": 8184,
      "Ġavis": 8185,
      "Ġaffaires": 8186,
      "Ġaura": 8187,
      "ĠMat": 8188,
      "lecommun": 8189,
      "ĠBl": 8190,
      "Ġtransportation": 8191,
      "ĠLibyan": 8192,
      "ĠIndependent": 8193,
      "fec": 8194,
      "You": 8195,
      "2011": 8196,
      "Global": 8197,
      "sten": 8198,
      "ĠESC": 8199,
      "ĠGoods": 8200,
      "ipped": 8201,
      "ĠThese": 8202,
      "Ġlesqu": 8203,
      "acing": 8204,
      "ley": 8205,
      "Ġtoutefois": 8206,
      "Ob": 8207,
      "Ġrenforcer": 8208,
      "Ġsurface": 8209,
      "Ġtalks": 8210,
      "ĠdeuxiÃ¨me": 8211,
      "Ġtexte": 8212,
      "Lastly": 8213,
      "Ġmedic": 8214,
      "ĠprÃ©occup": 8215,
      "gregated": 8216,
      "agen": 8217,
      "Ġavait": 8218,
      "Ġpossession": 8219,
      "Ġstream": 8220,
      "Ġpose": 8221,
      "Ġoutputs": 8222,
      "Ġgl": 8223,
      "Ġrati": 8224,
      "ĠÃ©trang": 8225,
      "ĠIP": 8226,
      "erais": 8227,
      "400": 8228,
      "ĠOccupied": 8229,
      "tory": 8230,
      "etter": 8231,
      "ĠCop": 8232,
      "Ġcarbon": 8233,
      "vancement": 8234,
      "ĠArmed": 8235,
      "Ġexists": 8236,
      "rections": 8237,
      "Ġchance": 8238,
      "ĠSixth": 8239,
      "Ġassisted": 8240,
      "abitants": 8241,
      "Ġtemperature": 8242,
      "ĠTajik": 8243,
      "Ġdirectives": 8244,
      "ĠPunish": 8245,
      "Ġfacilitation": 8246,
      "Ġalternatives": 8247,
      "Ġporn": 8248,
      "Ġdegrading": 8249,
      "Ġcounsell": 8250,
      "ĠLiechtenstein": 8251,
      "Only": 8252,
      "iscrimin": 8253,
      "Ġrien": 8254,
      "Elle": 8255,
      "emment": 8256,
      "Ġsubregion": 8257,
      "ext": 8258,
      "itive": 8259,
      "Ġinstances": 8260,
      "Ġanalyse": 8261,
      ")]": 8262,
      "erre": 8263,
      "Ġattitude": 8264,
      "Ġoverview": 8265,
      "ĠWednesday": 8266,
      "inement": 8267,
      "aundering": 8268,
      "Ġenforce": 8269,
      "Toute": 8270,
      "ĠOpen": 8271,
      "Ġunacceptable": 8272,
      "amendement": 8273,
      "Ġdeclarations": 8274,
      "ĠSettlements": 8275,
      "Ġapparent": 8276,
      "issant": 8277,
      "ĠCameroon": 8278,
      "Ques": 8279,
      "ozambique": 8280,
      "Ġincorporate": 8281,
      "Ġpursued": 8282,
      "Ġthorough": 8283,
      "Ġmieux": 8284,
      "ĠdÃ©cisions": 8285,
      "Ġnegotiating": 8286,
      "Similarly": 8287,
      "Ġdup": 8288,
      "Ġsouhaite": 8289,
      "Ġutilization": 8290,
      "note": 8291,
      "Ġtrouver": 8292,
      "application": 8293,
      "Out": 8294,
      "tures": 8295,
      "AF": 8296,
      "Ġcertificate": 8297,
      "Emphas": 8298,
      "Ġbelieved": 8299,
      "Ass": 8300,
      "Ġgenocide": 8301,
      "reto": 8302,
      "Ġtransfers": 8303,
      "Ġassessing": 8304,
      "ĠProtocols": 8305,
      "Ġentrust": 8306,
      "Ġvisited": 8307,
      "Ġprosper": 8308,
      "cepts": 8309,
      "ĠOuter": 8310,
      "Ġregardless": 8311,
      "Terrorism": 8312,
      "ablement": 8313,
      "ĠdonnÃ©es": 8314,
      "ĠReduction": 8315,
      "Ġincident": 8316,
      "*,": 8317,
      "Ġtables": 8318,
      "ĠÃ©gard": 8319,
      "ĠImm": 8320,
      "ĠRoy": 8321,
      "Sh": 8322,
      "Ġrecomm": 8323,
      "lligence": 8324,
      "Contents": 8325,
      "ĠJournal": 8326,
      "Ġfinally": 8327,
      "Ġpertaining": 8328,
      "isant": 8329,
      ".-": 8330,
      "Ġ1989": 8331,
      "Ġusually": 8332,
      "iments": 8333,
      "Ġdepartment": 8334,
      "Ãªmes": 8335,
      "largissement": 8336,
      "appro": 8337,
      "Ġaliment": 8338,
      "Ġdiam": 8339,
      "Ġcomposed": 8340,
      "Ġreceip": 8341,
      "MP": 8342,
      "ongolia": 8343,
      "Ġait": 8344,
      "Ġrelates": 8345,
      "ester": 8346,
      "nelle": 8347,
      "amed": 8348,
      "MO": 8349,
      "erendum": 8350,
      "Ġcrop": 8351,
      "Ġclarify": 8352,
      "Ġparallel": 8353,
      "Ġratify": 8354,
      "Ġprisons": 8355,
      "Ġmovements": 8356,
      "Ġmemorandum": 8357,
      "Ġenfants": 8358,
      "ĠBrussels": 8359,
      "ĠBan": 8360,
      "Ġcurrency": 8361,
      "ducational": 8362,
      "ĠDecision": 8363,
      "Ġprejudice": 8364,
      "Ġhal": 8365,
      "Ġefficace": 8366,
      "Sixty": 8367,
      "Ġnotably": 8368,
      "ĠNote": 8369,
      "outi": 8370,
      "ĠrÃ©p": 8371,
      "Ġregimes": 8372,
      "Ġinjury": 8373,
      "ĠrÃ©sultats": 8374,
      "ĠECO": 8375,
      "Ġremind": 8376,
      "Ġconstituted": 8377,
      "rah": 8378,
      "ĠZambia": 8379,
      "Ã¯": 8380,
      "Ġmultiple": 8381,
      "Madam": 8382,
      "million": 8383,
      "omet": 8384,
      "Ġstipulates": 8385,
      "ĠBenin": 8386,
      "Ġasset": 8387,
      "Ġordinary": 8388,
      "ĠGen": 8389,
      "Ġformed": 8390,
      "Ġgrants": 8391,
      "Ġthing": 8392,
      "ĠSol": 8393,
      "Ġarrangement": 8394,
      "Ġlabor": 8395,
      "Ġresid": 8396,
      "Ġlequel": 8397,
      "ĠFran": 8398,
      "ĠRegion": 8399,
      "ĠintÃ©g": 8400,
      "iquÃ©": 8401,
      "Ġquarter": 8402,
      "Ġenshr": 8403,
      "ITRAL": 8404,
      "rigendum": 8405,
      "Ġmur": 8406,
      "Ġmoyens": 8407,
      "ĠCounter": 8408,
      "Ġbomb": 8409,
      "Ġdynamic": 8410,
      "Proliferation": 8411,
      "Ġexplore": 8412,
      "Ġcontrolled": 8413,
      "Takes": 8414,
      "Ġdiversif": 8415,
      "Ġpublique": 8416,
      "asions": 8417,
      "Ġcustomary": 8418,
      "ĠpossibilitÃ©": 8419,
      "Ġtelle": 8420,
      "Ġdecades": 8421,
      "Ġtrying": 8422,
      "Ġbig": 8423,
      "Ġinteraction": 8424,
      "Ġrestra": 8425,
      "riends": 8426,
      "Ġcontinuation": 8427,
      "ĠLisbonne": 8428,
      "lete": 8429,
      "COP": 8430,
      "ffor": 8431,
      "Ġregarded": 8432,
      "1995": 8433,
      "ĠLeague": 8434,
      "isive": 8435,
      "Ġaccompanied": 8436,
      "Ġtransboundary": 8437,
      "oub": 8438,
      "Ġaccred": 8439,
      "vestig": 8440,
      "onduras": 8441,
      "Ġexiste": 8442,
      "ĠnÃ©cessaires": 8443,
      "ĠInt": 8444,
      "ĠÃ©tant": 8445,
      "ĠRoad": 8446,
      "ĠArms": 8447,
      "Ġmoving": 8448,
      "Ġfreely": 8449,
      "Ġreviewing": 8450,
      "Ġbeings": 8451,
      "Ġsoft": 8452,
      "Canada": 8453,
      "Ġrestructuring": 8454,
      "mÃªme": 8455,
      "ussian": 8456,
      "Ġconsists": 8457,
      "Ġharass": 8458,
      "Ġhundred": 8459,
      "ĠAnti": 8460,
      "Among": 8461,
      "Ġcommend": 8462,
      "Ġmodels": 8463,
      "Ġmerely": 8464,
      "Bel": 8465,
      "ĠMilitary": 8466,
      "Ġagents": 8467,
      "ĠdÃ©cid": 8468,
      "fa": 8469,
      "ĠDj": 8470,
      "Ġreaffirm": 8471,
      "ĠAbd": 8472,
      "Ġremoval": 8473,
      "Ġaffirm": 8474,
      "liqu": 8475,
      "lder": 8476,
      "kh": 8477,
      "Ġchoses": 8478,
      "Ġarise": 8479,
      "Ġcorrection": 8480,
      "Ġpun": 8481,
      "Ġtelevision": 8482,
      "ĠDeveloped": 8483,
      "Ġcontem": 8484,
      "ĠcrÃ©er": 8485,
      "Ġpris": 8486,
      "Ġ1980": 8487,
      "Ġreturned": 8488,
      "Ġmachiner": 8489,
      "Decision": 8490,
      "Ġinsec": 8491,
      "omic": 8492,
      "umer": 8493,
      "800": 8494,
      "Ġmobility": 8495,
      "iving": 8496,
      "87": 8497,
      "Ġnewly": 8498,
      "velihood": 8499,
      "grade": 8500,
      "Ġconvicted": 8501,
      "Ġplant": 8502,
      "Ġrecognizing": 8503,
      "Ġacademic": 8504,
      "water": 8505,
      "Ġclause": 8506,
      "Ġfulfilment": 8507,
      "Ġpenalties": 8508,
      "ĠSchool": 8509,
      "ING": 8510,
      "ĠEquality": 8511,
      "Ġvoie": 8512,
      "Ġuncertain": 8513,
      "Ġtribunal": 8514,
      "ĠParaguay": 8515,
      "Consequently": 8516,
      "nÃ©": 8517,
      "Ġobjectif": 8518,
      "Ġpermettre": 8519,
      "Ġ2015": 8520,
      "izations": 8521,
      "Govern": 8522,
      "Ġ65": 8523,
      "Ġmm": 8524,
      "like": 8525,
      "ĠHol": 8526,
      "ados": 8527,
      "Ġdisappear": 8528,
      "Ġenact": 8529,
      "ĠAmendment": 8530,
      "Ġmale": 8531,
      "ĠMonetary": 8532,
      "Ġmanual": 8533,
      "ĠOrganized": 8534,
      "Ġchec": 8535,
      "Ġdeployed": 8536,
      "Ġsell": 8537,
      "Ġseats": 8538,
      "ĠGEF": 8539,
      "tent": 8540,
      "income": 8541,
      "erce": 8542,
      "Ġdisplacement": 8543,
      "Ġbegun": 8544,
      "ĠOperation": 8545,
      "FCCC": 8546,
      "rimer": 8547,
      "ĠLes": 8548,
      "SB": 8549,
      "Ġborn": 8550,
      "ĠpÃ©riode": 8551,
      "Invites": 8552,
      "Ġproceeds": 8553,
      "Ġcarefully": 8554,
      "ket": 8555,
      "China": 8556,
      "Ġharmful": 8557,
      "Ġrestricted": 8558,
      "Ġdesire": 8559,
      "ĠBudget": 8560,
      "Ġrapidly": 8561,
      "Ġmap": 8562,
      "Ġviolent": 8563,
      "Ġball": 8564,
      "Ġoccupying": 8565,
      "ĠLeast": 8566,
      "Ġorganizing": 8567,
      "Ġpossibilities": 8568,
      "Fourth": 8569,
      "rec": 8570,
      "Ġdependent": 8571,
      "Ġrecall": 8572,
      "Ġfinancement": 8573,
      "Ġfavourable": 8574,
      "Ġgroupes": 8575,
      "Ġbench": 8576,
      "Ġsubsidies": 8577,
      "Ġadjustments": 8578,
      "contributing": 8579,
      "Ġremoved": 8580,
      "Ġdestin": 8581,
      "ugg": 8582,
      "atories": 8583,
      "cia": 8584,
      "VI": 8585,
      "Ġmarking": 8586,
      "Ġannually": 8587,
      "arcotic": 8588,
      "Ġnombreuses": 8589,
      "ĠUNODC": 8590,
      "Ġplatform": 8591,
      "Within": 8592,
      "Ġnearly": 8593,
      "intÃ©g": 8594,
      "How": 8595,
      "ĠKyrgyz": 8596,
      "forcing": 8597,
      "unteers": 8598,
      "ario": 8599,
      "Ġrenewed": 8600,
      "uve": 8601,
      "ĠIr": 8602,
      "Ġtransmitting": 8603,
      "Ġstorage": 8604,
      "ĠMont": 8605,
      "ĠThat": 8606,
      "ĠStatistical": 8607,
      "iban": 8608,
      "Ġlimitations": 8609,
      "Ġmaxim": 8610,
      "Ġcarriage": 8611,
      "Ġdevraient": 8612,
      "TION": 8613,
      "ĠNamibia": 8614,
      "Ġabandon": 8615,
      "wards": 8616,
      "Ġoccasions": 8617,
      "Ġreiterate": 8618,
      "Ġeligible": 8619,
      "Ġmeasurement": 8620,
      "02": 8621,
      "asse": 8622,
      "Ġproductivity": 8623,
      "Ġnormes": 8624,
      "Ġeverything": 8625,
      "ĠEar": 8626,
      "ĠForests": 8627,
      "Ġaccidents": 8628,
      "osis": 8629,
      "American": 8630,
      "Ġconten": 8631,
      "Ġquelque": 8632,
      "ĠPerson": 8633,
      "Ġdenied": 8634,
      "ĠAccount": 8635,
      "ĠGR": 8636,
      "Ġactuelle": 8637,
      "ĠMali": 8638,
      "Ġconvening": 8639,
      "Ġreflecting": 8640,
      "Ġpert": 8641,
      "Ġbiodiversity": 8642,
      "Ġsatellite": 8643,
      "Ġended": 8644,
      "Ġreiterates": 8645,
      "Ġhyd": 8646,
      "ĠmajoritÃ©": 8647,
      "reet": 8648,
      "03": 8649,
      "Ġexact": 8650,
      "July": 8651,
      "istr": 8652,
      "Corrections": 8653,
      "Ġ1988": 8654,
      "Regard": 8655,
      "ĠVe": 8656,
      "Ġtried": 8657,
      "Ġexig": 8658,
      "Ġaddresses": 8659,
      "Ġairspace": 8660,
      "ĠPanama": 8661,
      "CRP": 8662,
      "Ġlivelihood": 8663,
      "reek": 8664,
      "Ã¼": 8665,
      "ĠOut": 8666,
      "ĠAdvancement": 8667,
      "moi": 8668,
      "Ġpi": 8669,
      "kind": 8670,
      "Ġexac": 8671,
      "Ġausp": 8672,
      "ott": 8673,
      "ĠTajikistan": 8674,
      "AU": 8675,
      "Ġresponded": 8676,
      "Ġinvolves": 8677,
      "Recommendation": 8678,
      "Ġenorm": 8679,
      "Ġpresidential": 8680,
      "Ġadapt": 8681,
      "ĠannÃ©e": 8682,
      "ĠCross": 8683,
      "Ġunions": 8684,
      "Ġnecessity": 8685,
      "Ġdimin": 8686,
      "Ġrappel": 8687,
      "1996": 8688,
      "irates": 8689,
      "Ġlinkages": 8690,
      "ĠFollow": 8691,
      "November": 8692,
      "Ġmitigation": 8693,
      "05": 8694,
      "hips": 8695,
      "Every": 8696,
      "ĠInterim": 8697,
      "Ġadhe": 8698,
      "Japan": 8699,
      "Ġinjured": 8700,
      "Ġattempts": 8701,
      "Children": 8702,
      "Ġlawyers": 8703,
      "Ġjustif": 8704,
      "Ġdeeply": 8705,
      "Ġassume": 8706,
      "Ġdefinitions": 8707,
      "ĠOIOS": 8708,
      "Ġcredibility": 8709,
      "iver": 8710,
      "importance": 8711,
      "Ġallowance": 8712,
      "ibid": 8713,
      "ĠThere": 8714,
      "Ġsectoral": 8715,
      "Ġprojets": 8716,
      "ĠprÃ©cis": 8717,
      "rating": 8718,
      "Ġdos": 8719,
      "band": 8720,
      "ĠAlliance": 8721,
      "ĠMuslim": 8722,
      "ĠMozambique": 8723,
      "Ġsouth": 8724,
      "ĠDominican": 8725,
      "Ġnorth": 8726,
      "ĠMig": 8727,
      "Ġsatisfact": 8728,
      "Ġemphasize": 8729,
      "bre": 8730,
      "lied": 8731,
      "Ġunderlying": 8732,
      "ek": 8733,
      "Ã©lÃ©": 8734,
      "Ġwage": 8735,
      "Ġevol": 8736,
      "amas": 8737,
      "Ġclaimed": 8738,
      "Ġsufficiently": 8739,
      "ĠTrafficking": 8740,
      "Ġcoal": 8741,
      "arms": 8742,
      "ypri": 8743,
      "month": 8744,
      "ĠInc": 8745,
      "Ġ1373": 8746,
      "Ġinputs": 8747,
      "Ġhistorical": 8748,
      "amÃ©li": 8749,
      "Ġreplies": 8750,
      "79": 8751,
      "Ġissuance": 8752,
      "Ġprospects": 8753,
      "adhÃ©sion": 8754,
      "Ġsubmissions": 8755,
      "ĠConf": 8756,
      "Ġdistingu": 8757,
      "ĠBalk": 8758,
      "country": 8759,
      "Ġepid": 8760,
      "Ġapprove": 8761,
      "ĠST": 8762,
      "organized": 8763,
      "ĠCopenh": 8764,
      "Parliament": 8765,
      "Ġcertification": 8766,
      "Ġ300": 8767,
      "Tur": 8768,
      "Ġlearn": 8769,
      "Ġplut": 8770,
      "MIS": 8771,
      "ĠArabic": 8772,
      "Ġcalend": 8773,
      "Toutefois": 8774,
      "Ġaccountable": 8775,
      "Ġtransform": 8776,
      "Ġconsequence": 8777,
      "pective": 8778,
      "minent": 8779,
      "ĠdÃ©mocratique": 8780,
      "Ġhunger": 8781,
      "Ġciv": 8782,
      "ĠTuesday": 8783,
      "ĠKar": 8784,
      "sharing": 8785,
      "Ġauspices": 8786,
      "HRC": 8787,
      "Ġstresses": 8788,
      "Ġsentenced": 8789,
      "Ġcollected": 8790,
      "ĠActing": 8791,
      "Ġpup": 8792,
      "urit": 8793,
      "Ġtes": 8794,
      "ashing": 8795,
      "Ġtrag": 8796,
      "Ġut": 8797,
      "Ġtaxes": 8798,
      "cture": 8799,
      "awi": 8800,
      "Ġdedicated": 8801,
      "ĠMONUC": 8802,
      "Ġexcluded": 8803,
      "Ġdevrions": 8804,
      "Ġobliged": 8805,
      "depth": 8806,
      "SE": 8807,
      "Ġprofit": 8808,
      "Ġsuffer": 8809,
      "Ġfrequently": 8810,
      "Ġcounselling": 8811,
      "Ġconcentration": 8812,
      "Ġemployers": 8813,
      "uling": 8814,
      "ĠThey": 8815,
      "Ġdil": 8816,
      "Ġdefend": 8817,
      "ĠBahrain": 8818,
      "Ġconcepts": 8819,
      "Ġgranting": 8820,
      "ĠrÃ©forme": 8821,
      "inqu": 8822,
      "osi": 8823,
      "Ġobservation": 8824,
      "Ġreductions": 8825,
      "umbered": 8826,
      "ueur": 8827,
      "Ġwarm": 8828,
      "Ġmothers": 8829,
      "Enfin": 8830,
      "Ġtom": 8831,
      "Ġinnoc": 8832,
      "lining": 8833,
      "Ġassure": 8834,
      "ĠmarchÃ©s": 8835,
      "Ġendeavour": 8836,
      "aiting": 8837,
      "Self": 8838,
      "Ġexceptional": 8839,
      "ĠInterior": 8840,
      "01": 8841,
      "Ġcirculation": 8842,
      "Ġsaying": 8843,
      "Ġcoastal": 8844,
      "Ġthereto": 8845,
      "ĠMet": 8846,
      "ĠIT": 8847,
      "ĠPoverty": 8848,
      "ĠIndustrial": 8849,
      "no": 8850,
      "uries": 8851,
      "ĠdiffÃ©rent": 8852,
      "Ġcommodity": 8853,
      "Ġjuste": 8854,
      "ordinary": 8855,
      "Ġrecommand": 8856,
      "ĠTurquie": 8857,
      "Ġvacc": 8858,
      "Ġinvites": 8859,
      "Ġliberalization": 8860,
      "ĠMediterranean": 8861,
      "ict": 8862,
      "Ġunivers": 8863,
      "Ġfiled": 8864,
      "Ġsimplement": 8865,
      "Ġproved": 8866,
      "Ġjeunes": 8867,
      "Ġacknowledge": 8868,
      "Ġseas": 8869,
      "Ġaccident": 8870,
      "700": 8871,
      "Ġseventh": 8872,
      "ĠGDP": 8873,
      "ĠextrÃªme": 8874,
      "oured": 8875,
      "Ġproviders": 8876,
      "ergency": 8877,
      "Ġcondemn": 8878,
      "teen": 8879,
      "Ġcompromis": 8880,
      "Ġnationaux": 8881,
      "uss": 8882,
      "mettez": 8883,
      "aul": 8884,
      "vised": 8885,
      "Ġaccomplishments": 8886,
      "Ġfather": 8887,
      "ĠGreek": 8888,
      "Ġsupplementary": 8889,
      "wana": 8890,
      "ĠWP": 8891,
      "ĠTob": 8892,
      "Ġenvironmentally": 8893,
      "cut": 8894,
      "Ġunders": 8895,
      "elfare": 8896,
      "Ġcohesion": 8897,
      "ĠLu": 8898,
      "Ġpropre": 8899,
      "rip": 8900,
      "SD": 8901,
      "otyp": 8902,
      "Ġattitudes": 8903,
      "RWA": 8904,
      "Ġpan": 8905,
      "isse": 8906,
      "ĠMIN": 8907,
      "ĠHonduras": 8908,
      "Ġdriving": 8909,
      "Ġproducers": 8910,
      "Ġalign": 8911,
      "ĠDirectorate": 8912,
      "ĠOrganizations": 8913,
      "Ġenrol": 8914,
      "ĠVII": 8915,
      "Ġorders": 8916,
      "September": 8917,
      "ĠTaliban": 8918,
      "rique": 8919,
      "hut": 8920,
      "Ġpic": 8921,
      "BC": 8922,
      "Prom": 8923,
      "Ġtiers": 8924,
      "Ġ;": 8925,
      "Ġrelationships": 8926,
      "Ġimmigrants": 8927,
      "Ġwond": 8928,
      "Ġtitre": 8929,
      "Ġdispositions": 8930,
      "astrop": 8931,
      "Ġdistance": 8932,
      "Ġconventional": 8933,
      "Ġsus": 8934,
      "Ġaille": 8935,
      "Ġessentiel": 8936,
      "Ġministers": 8937,
      "Ġclarification": 8938,
      "Ġtransaction": 8939,
      "Ġwhereby": 8940,
      "ĠRussie": 8941,
      "Ġincentives": 8942,
      "Ġcomprising": 8943,
      "ariff": 8944,
      "otal": 8945,
      "dec": 8946,
      "Ġcalculated": 8947,
      "ĠUNCITRAL": 8948,
      "ĠCuban": 8949,
      "regular": 8950,
      "Ġextrabudgetary": 8951,
      "Ġentirely": 8952,
      "UNCTAD": 8953,
      "Ġmotor": 8954,
      "ery": 8955,
      "ĠMechan": 8956,
      "Ġanalytical": 8957,
      "ĠTreaties": 8958,
      "Ġhostil": 8959,
      "Ġcreditor": 8960,
      "stat": 8961,
      "ĠUNMIK": 8962,
      "EU": 8963,
      "Welcoming": 8964,
      "Ġinterven": 8965,
      "Ġdelays": 8966,
      "Ġgoes": 8967,
      "Based": 8968,
      "Ġatmosp": 8969,
      "intÃ©r": 8970,
      "ĠTransnational": 8971,
      "ĠRad": 8972,
      "Se": 8973,
      "Ġdisseminate": 8974,
      "Ġdelegates": 8975,
      "Ġspent": 8976,
      "Ã©conomie": 8977,
      "ĠVic": 8978,
      "Ġjustified": 8979,
      "Ġeux": 8980,
      "ĠMongolia": 8981,
      "phe": 8982,
      "ĠWith": 8983,
      "Ġcouncil": 8984,
      "Ġgather": 8985,
      "Ġpetit": 8986,
      "Ġdefic": 8987,
      "Ġweight": 8988,
      "Ġdia": 8989,
      "Ġmix": 8990,
      "ounded": 8991,
      "iÃ¨mement": 8992,
      "ĠEM": 8993,
      "ĠEducational": 8994,
      "Ġmachinery": 8995,
      "pped": 8996,
      "Ġheritage": 8997,
      "jection": 8998,
      "ĠEmirates": 8999,
      "Ġsil": 9000,
      "Ġarbitration": 9001,
      "Act": 9002,
      "ĠÃ©nergÃ©": 9003,
      "erted": 9004,
      "Ġnorthern": 9005,
      "industrie": 9006,
      "Ġseparation": 9007,
      "annÃ©e": 9008,
      "Ġcrimin": 9009,
      "ancell": 9010,
      "emin": 9011,
      "ĠJu": 9012,
      "Ġtoxic": 9013,
      "cive": 9014,
      "Review": 9015,
      "Ġarmy": 9016,
      "Ġestablishes": 9017,
      "ĠHague": 9018,
      "93": 9019,
      "Current": 9020,
      "ĠFacility": 9021,
      "Ġequipped": 9022,
      "Ġclaimant": 9023,
      "ĠintÃ©rÃªts": 9024,
      "Ġpornography": 9025,
      "Ġnecessarily": 9026,
      "Ġfoundation": 9027,
      "ricts": 9028,
      "..": 9029,
      "ĠIndian": 9030,
      "Ġensemble": 9031,
      "Ġcatastrop": 9032,
      "porters": 9033,
      "Ġenshrined": 9034,
      "Ġpresents": 9035,
      "ourse": 9036,
      "ĠfinanciÃ¨re": 9037,
      "Ġ500": 9038,
      "ested": 9039,
      "Ġmi": 9040,
      "Ġfacilitated": 9041,
      "Ġthereof": 9042,
      "Ġreceipt": 9043,
      "Ġresponding": 9044,
      "Ġmanaging": 9045,
      "Ġlibre": 9046,
      "Ġdesi": 9047,
[...]
